<s>	0
<pad>	0
</s>	0
<unk>	0
,	-3.64385
▁the	-3.66621
.	-3.90523
▁of	-4.27207
।	-4.4419
▁to	-4.46599
▁and	-4.49214
को	-4.55738
s	-4.60641
▁।	-4.66995
मा	-4.899
▁in	-4.91425
ले	-5.1305
▁a	-5.13649
▁र	-5.15744
का	-5.29343
▁is	-5.35626
लाई	-5.4483
▁be	-5.56395
-	-5.58314
▁for	-5.60351
▁छ	-5.60781
▁,	-5.62791
▁"	-5.64259
▁	-5.65202
▁you	-5.76671
▁will	-5.81299
▁गर्न	-5.83057
ing	-5.84826
▁that	-5.84947
▁The	-5.8543
'	-5.89684
▁not	-5.93613
▁गर्नुहोस्	-5.95315
▁पनि	-6.04334
▁(	-6.07855
▁अनि	-6.11206
▁यो	-6.11699
:	-6.12405
▁on	-6.14724
▁with	-6.15729
▁it	-6.20732
▁लागि	-6.21545
)	-6.2161
t	-6.21856
;	-6.22242
▁I	-6.22431
ed	-6.22836
हरू	-6.22971
बाट	-6.25238
▁are	-6.26055
▁this	-6.27373
▁म	-6.31253
▁have	-6.31991
▁from	-6.32505
▁was	-6.34563
▁by	-6.34998
ी	-6.40148
▁has	-6.41739
d	-6.42357
▁'	-6.42367
▁your	-6.46559
▁as	-6.48052
▁he	-6.52575
▁-	-6.53498
▁his	-6.54438
▁गर्ने	-6.57464
▁तर	-6.57703
▁हो	-6.59615
▁भने	-6.59662
▁.	-6.61717
▁भएको	-6.62388
▁all	-6.63721
▁who	-6.65631
?	-6.66223
न	-6.72134
र	-6.73411
▁तथा	-6.74092
▁shall	-6.77447
▁थियो	-6.77538
▁सबै	-6.80302
▁them	-6.8122
▁or	-6.81326
▁him	-6.82285
▁they	-6.82674
▁Yahweh	-6.85058
▁गरिएको	-6.85073
▁थिए	-6.85383
▁छन्	-6.85941
▁प्रयोग	-6.88523
▁यस	-6.89215
▁एउटा	-6.90145
▁at	-6.91478
▁छैन	-6.91996
▁वा	-6.92535
▁हुन्छ	-6.93593
▁which	-6.93864
▁नै	-6.94888
▁एक	-6.94916
▁said	-6.95965
▁त्यो	-6.96065
▁their	-6.97275
▁can	-6.98625
▁भयो	-6.98787
e	-7.01845
▁my	-7.0426
▁an	-7.06205
▁been	-7.06253
▁also	-7.06399
ा	-7.06696
▁ती	-7.06746
ly	-7.09241
म	-7.11619
▁In	-7.1195
▁आफ्नो	-7.1205
▁were	-7.12387
क	-7.12525
▁फाइल	-7.12719
▁me	-7.13667
er	-7.14914
/	-7.1537
▁मा	-7.1797
▁This	-7.18828
▁one	-7.19838
।"	-7.20444
▁कुनै	-7.20753
"	-7.21622
▁चयन	-7.22397
▁out	-7.23766
▁मेरो	-7.24596
▁but	-7.24977
ै	-7.25005
स	-7.25495
ो	-7.26091
▁केही	-7.26171
▁हुने	-7.26266
▁people	-7.26329
▁मात्र	-7.26509
▁file	-7.2799
▁A	-7.29627
▁He	-7.29784
▁हुन	-7.29823
▁there	-7.302
▁up	-7.30265
▁गर्नु	-7.30507
y	-7.31012
▁गरी	-7.31611
ित	-7.322
ल	-7.32374
े	-7.33712
▁यदि	-7.34039
▁God	-7.3409
▁मानिसहरू	-7.34264
al	-7.34357
▁त्यस	-7.35005
ु	-7.35323
हरु	-7.35652
▁गरे	-7.36473
सँग	-7.38157
▁गरेको	-7.3865
▁विकास	-7.38968
त	-7.3975
▁तिनीहरूले	-7.39954
▁धेरै	-7.42046
▁मैले	-7.42483
▁यी	-7.43079
▁तिनीहरू	-7.4313
!	-7.43228
▁गर्दा	-7.44481
▁no	-7.44826
▁when	-7.45015
▁कि	-7.45115
c	-7.45459
▁के	-7.45704
n	-7.45922
."	-7.48095
▁It	-7.48712
▁तपाईँले	-7.49064
▁निम्ति	-7.49541
▁should	-7.49553
▁रूपमा	-7.50033
▁do	-7.50054
ँ	-7.50426
▁कुरा	-7.50842
▁development	-7.51042
▁मलाई	-7.51171
ि	-7.51702
ट	-7.51742
▁कार्य	-7.51783
▁if	-7.52106
▁को	-7.52769
▁had	-7.52973
▁You	-7.53064
▁more	-7.53634
▁made	-7.54424
▁काम	-7.56118
ः	-7.58035
▁हुनेछ	-7.58104
▁नयाँ	-7.58351
▁into	-7.58656
▁परमप्रभु	-7.58668
ता	-7.58832
▁दिन	-7.59141
m	-7.5961
ह	-7.59754
▁)	-7.61537
▁:	-7.63577
▁But	-7.64467
▁other	-7.64848
▁time	-7.65184
▁only	-7.66699
...	-7.67403
▁its	-7.68349
ं	-7.68885
▁?	-7.69171
▁%	-7.6938
▁new	-7.70385
▁name	-7.70726
▁भए	-7.71063
▁राजा	-7.72034
▁For	-7.72735
▁तब	-7.72754
▁अ	-7.72879
▁हामी	-7.73273
▁like	-7.736
▁man	-7.73712
▁गर्दछ	-7.73845
▁योजना	-7.73898
▁land	-7.74115
▁If	-7.74425
▁न	-7.74459
▁जब	-7.74555
▁भन्ने	-7.75262
▁आवश्यक	-7.75639
प	-7.75712
g	-7.75856
▁we	-7.76286
्	-7.76642
▁त	-7.77206
▁मानिसहरूले	-7.78391
▁Israel	-7.78591
r	-7.78918
▁king	-7.79139
▁नाम	-7.79343
▁अन्य	-7.79659
▁these	-7.79863
▁बढी	-7.80001
▁तपाईँ	-7.80134
▁परमप्रभुले	-7.81881
▁S	-7.81999
▁may	-7.8212
▁house	-7.8228
▁after	-7.82761
i	-7.82796
▁day	-7.83016
छ	-7.83029
▁before	-7.83266
हरूको	-7.83388
▁पर्छ	-7.84642
▁तिनीहरूलाई	-7.84837
ेर	-7.85064
ज	-7.85769
in	-7.85842
▁तिमीहरू	-7.86078
▁her	-7.86171
▁children	-7.86231
▁कार्यक्रम	-7.8638
▁so	-7.86456
es	-7.86907
▁about	-7.86959
▁make	-7.87132
न्	-7.87275
▁१	-7.87353
द्वारा	-7.87824
▁मानिसहरूलाई	-7.88515
▁समय	-7.89062
▁सिर्जना	-7.89241
▁त्यहाँ	-7.89473
▁Plan	-7.91062
▁son	-7.91473
▁use	-7.92689
▁गरिनेछ	-7.92776
▁जो	-7.93051
▁year	-7.93258
▁परमेश्वर	-7.93368
▁प्राप्त	-7.93522
▁They	-7.94032
▁मानिस	-7.94076
▁प्रत्येक	-7.94507
▁उत्पादन	-7.94911
्न	-7.95199
▁come	-7.9541
▁आफ्ना	-7.95472
u	-7.95472
o	-7.95908
▁two	-7.95934
ब	-7.95938
▁परमेश्वरले	-7.96079
▁भएका	-7.96668
▁वर्ष	-7.96957
हरूले	-7.97048
सम्म	-7.9728
द	-7.97365
▁even	-7.97399
▁परिवर्तन	-7.97723
▁बचत	-7.98069
▁जसले	-7.98221
▁over	-7.98341
▁Nepal	-7.98371
▁निर्माण	-7.98534
▁because	-7.98937
▁सञ्चालन	-7.99116
▁than	-7.99157
▁सेवा	-7.99449
ला	-7.99989
▁यसको	-8.00098
▁&	-8.00133
▁विभिन्न	-8.00241
▁hand	-8.00405
▁जस्तै	-8.00421
▁used	-8.00769
▁set	-8.00814
▁country	-8.00961
हरुको	-8.01069
▁रहेको	-8.01201
▁व्यवस्था	-8.01213
▁years	-8.01551
S	-8.01589
▁go	-8.01777
or	-8.02119
▁तिमी	-8.02197
▁came	-8.02333
िक	-8.03302
्ने	-8.03354
ग	-8.03398
▁against	-8.03404
▁work	-8.0368
▁गर	-8.04242
व	-8.04347
▁government	-8.04372
▁our	-8.04664
हरूलाई	-8.04852
▁जुन	-8.05052
▁गरेर	-8.05184
▁तिमीहरूले	-8.05726
▁those	-8.06268
▁some	-8.06408
b	-8.06412
▁There	-8.06788
▁स	-8.06892
▁B	-8.06905
▁such	-8.07229
▁any	-8.07629
▁सेट	-8.07652
▁उपलब्ध	-8.07727
k	-8.07911
p	-8.08495
▁भन्दा	-8.09098
▁उहाँले	-8.09123
▁गर्दै	-8.09585
माथि	-8.09759
▁तपाईँको	-8.09801
a	-8.0998
▁period	-8.09987
▁आर्थिक	-8.1008
▁त्यसपछि	-8.10606
▁त्रुटि	-8.10695
▁आ	-8.10926
▁number	-8.11098
▁छोरा	-8.11099
▁प्रतिशत	-8.11285
▁क	-8.12157
▁percent	-8.1227
▁us	-8.12988
▁Could	-8.13292
▁२	-8.14894
▁want	-8.14938
▁होइन	-8.15177
▁down	-8.15522
▁उसले	-8.15704
देखि	-8.15717
▁छवि	-8.1581
▁किनभने	-8.16121
भन्दा	-8.16476
▁सकेन	-8.16515
▁``	-8.16541
▁उहाँ	-8.16944
▁रुपमा	-8.17055
▁का	-8.17146
▁given	-8.17357
re	-8.17426
▁men	-8.17641
सित	-8.18091
▁selected	-8.18173
▁first	-8.18383
▁अर्को	-8.18506
▁सन्देश	-8.18552
f	-8.18691
▁गरेका	-8.1875
I	-8.18769
▁water	-8.18773
▁क्षेत्रमा	-8.19014
▁हुन्	-8.19612
▁under	-8.19828
▁कुञ्जी	-8.20057
▁५	-8.20065
श	-8.20128
▁same	-8.20263
ड	-8.2047
▁--	-8.2061
▁यसलाई	-8.20841
▁many	-8.21027
▁कम	-8.21545
▁मान	-8.21765
▁पर्ने	-8.21994
ौ	-8.22464
▁found	-8.22601
▁does	-8.23021
▁यहाँ	-8.23159
▁way	-8.23414
▁system	-8.2353
ना	-8.23675
▁then	-8.24326
▁भन्नुभयो	-8.24434
की	-8.24629
▁ठूलो	-8.24742
▁through	-8.24882
▁When	-8.25061
▁यस्तो	-8.25124
री	-8.25703
▁सूची	-8.25706
▁पछि	-8.25762
▁छु	-8.26054
?"	-8.2622
▁रङ	-8.26357
ic	-8.26393
▁went	-8.2652
▁says	-8.2657
▁पाठ	-8.26605
▁सुरु	-8.26757
▁तिमीहरूलाई	-8.26805
▁image	-8.27075
▁million	-8.2713
▁स्थापना	-8.27147
छन्	-8.27208
▁कुराहरू	-8.27223
x	-8.27601
पछि	-8.27947
▁did	-8.28429
▁गर्छ	-8.28474
▁गरिने	-8.28891
▁sector	-8.29066
▁C	-8.29068
▁साथै	-8.2934
▁ब	-8.29513
▁अहिले	-8.29619
▁un	-8.30009
en	-8.30123
▁तिमीले	-8.30474
▁हुनुहुन्छ	-8.3072
▁फेरि	-8.30972
▁dur	-8.3101
▁t	-8.3119
▁प	-8.31453
▁गरिएका	-8.3168
▁current	-8.32094
▁यसले	-8.32099
▁would	-8.32443
▁तिम्रो	-8.32523
▁place	-8.32674
▁take	-8.32699
▁परमप्रभुको	-8.32881
ur	-8.32944
▁तपाईं	-8.32965
l	-8.33297
A	-8.33398
▁list	-8.33654
▁what	-8.33924
ar	-8.33925
▁अब	-8.34033
B	-8.3406
ाई	-8.34119
2	-8.34201
▁know	-8.34256
च	-8.34384
ाइ	-8.34752
▁कारण	-8.34904
▁could	-8.35031
▁To	-8.35317
▁No	-8.35365
ation	-8.35431
▁वस्तु	-8.35469
▁दिनु	-8.35533
▁Select	-8.35611
हरूमा	-8.35666
▁कृषि	-8.36232
▁things	-8.36293
▁प्रति	-8.36388
▁परमेश्वरको	-8.36505
य	-8.3657
▁now	-8.36681
▁K	-8.36769
▁अरू	-8.36903
▁saying	-8.37016
▁रु	-8.37083
▁ग	-8.37302
▁सुन	-8.3749
▁हे	-8.37709
▁हाम्रो	-8.37758
▁माथि	-8.37763
▁केडीई	-8.37846
ने	-8.38064
▁सक्नुहुन्छ	-8.38095
▁प्रदर्शन	-8.38101
▁क्षेत्र	-8.38199
on	-8.3826
▁घर	-8.39244
▁So	-8.39308
an	-8.39481
▁सक्छ	-8.39555
▁प्रयास	-8.39559
▁good	-8.39652
ion	-8.39885
ers	-8.40239
ख	-8.40385
रा	-8.40396
▁किन	-8.40542
▁plan	-8.41248
▁हुनु	-8.41335
▁Do	-8.41338
▁उनले	-8.41601
▁विशेष	-8.41634
▁1	-8.41662
▁increase	-8.41668
▁३	-8.417
ण	-8.41746
▁सञ्झ्याल	-8.42267
h	-8.42543
▁very	-8.42731
▁उसको	-8.42754
▁s	-8.42771
▁key	-8.42844
▁उ	-8.42868
▁see	-8.43058
▁राम्रो	-8.43171
▁इस्राएलका	-8.43177
▁दुई	-8.43281
▁window	-8.43306
िन	-8.43478
le	-8.43519
▁जाँच	-8.43742
▁level	-8.43805
able	-8.44004
▁वि	-8.44067
▁days	-8.44084
▁दिए	-8.44312
▁मेरा	-8.44513
▁E	-8.44543
▁great	-8.44587
▁या	-8.44973
▁available	-8.4504
▁2	-8.45283
▁As	-8.45387
▁फेला	-8.45574
▁बन्द	-8.4569
▁re	-8.457
C	-8.46012
▁get	-8.46104
▁right	-8.46161
T	-8.46295
▁फोल्डर	-8.46624
यो	-8.46702
▁open	-8.46835
कै	-8.46887
र्	-8.47128
▁कृपया	-8.47128
▁am	-8.47148
▁जस्तो	-8.47411
▁पानी	-8.47473
▁where	-8.4749
▁while	-8.47505
M	-8.47792
तिर	-8.47955
▁विश्वास	-8.48085
▁भाग	-8.48122
▁every	-8.48173
▁different	-8.48267
▁सो	-8.48286
▁असफल	-8.48797
▁सक्षम	-8.4896
ौं	-8.4905
▁आदेश	-8.4918
▁गए	-8.4921
▁folder	-8.49324
▁P	-8.4947
th	-8.49529
▁यसकारण	-8.4984
▁text	-8.50236
▁according	-8.50261
0	-8.50437
▁father	-8.50698
▁तिमीलाई	-8.50814
्नु	-8.50891
\	-8.50907
▁प्र	-8.50908
▁गरियो	-8.51
▁सम्म	-8.51049
▁between	-8.51205
इ	-8.51421
▁स्थानीय	-8.51515
ीय	-8.51919
▁सि	-8.51934
▁हाल	-8.52113
▁प्रणाली	-8.5218
▁तिनीहरूको	-8.52238
▁शिक्षा	-8.52259
▁production	-8.52308
▁जीवन	-8.5244
▁give	-8.52478
▁श्री	-8.52524
्य	-8.52724
▁पूरा	-8.52728
▁जे	-8.53079
▁F	-8.53165
▁स्थान	-8.53193
▁कुल	-8.53318
▁अवधिमा	-8.53552
▁अघि	-8.53622
▁Then	-8.53652
स्	-8.53725
▁पवित्र	-8.53935
▁away	-8.5414
▁G	-8.54206
▁left	-8.54245
भ	-8.54282
▁विकल्प	-8.54328
ेको	-8.54402
▁थप	-8.54525
▁लक्ष्य	-8.5453
▁again	-8.54624
▁being	-8.54661
it	-8.54821
▁life	-8.55986
▁three	-8.55999
▁order	-8.5604
▁देखिन्छ	-8.56193
▁!	-8.5644
▁अनुमति	-8.56524
se	-8.56661
ri	-8.56668
▁सरकारी	-8.56843
▁color	-8.56902
ङ्ग	-8.5698
▁नेपाल	-8.57069
▁बाहिर	-8.57114
▁निर्दिष्ट	-8.57245
▁Please	-8.57587
उ	-8.57602
▁स्थिति	-8.57611
▁पार्न	-8.57617
▁सूचना	-8.57881
▁वृद्धि	-8.5789
▁end	-8.57914
ू	-8.58274
संग	-8.58346
▁/	-8.58351
्र	-8.58457
▁local	-8.58772
▁own	-8.58777
(	-8.58911
▁मुख्य	-8.58955
▁put	-8.58999
▁she	-8.59024
mong	-8.59071
%	-8.59212
▁project	-8.59439
▁खाली	-8.59615
▁information	-8.59702
▁चाहनुहुन्छ	-8.59703
▁well	-8.59751
▁D	-8.5979
▁हालको	-8.60078
▁४	-8.60203
▁another	-8.60354
▁David	-8.60463
▁येशू	-8.60645
D	-8.60654
▁पर्दछ	-8.60779
▁हुँदैन	-8.60881
▁सुधार	-8.60903
▁must	-8.61009
▁तयार	-8.61129
▁files	-8.61131
3	-8.61299
▁world	-8.61448
▁g	-8.61564
▁हामीले	-8.61693
▁Now	-8.61836
▁भनेर	-8.61853
▁Lord	-8.62025
▁Rs	-8.62053
el	-8.62132
िएको	-8.62149
▁Error	-8.62222
▁तपाईंले	-8.6235
▁आएको	-8.62448
▁प्रयोगकर्ता	-8.62459
▁type	-8.62522
▁हामीलाई	-8.62718
▁called	-8.62849
▁Therefore	-8.62902
▁क्लिक	-8.62906
▁ले	-8.62934
▁say	-8.63308
▁brought	-8.63449
▁program	-8.63539
▁नेपाली	-8.63759
1	-8.6383
▁उनी	-8.64131
▁c	-8.6442
▁जडान	-8.64588
्यो	-8.64632
हरुलाई	-8.64725
▁तपाईंको	-8.64983
▁here	-8.65028
▁city	-8.65279
▁ल	-8.65347
▁let	-8.65466
am	-8.65593
तर्फ	-8.65683
4	-8.65899
▁हात	-8.65976
▁तल	-8.66176
▁अथवा	-8.66182
▁भूमि	-8.66289
▁उसलाई	-8.66383
▁बृद्धि	-8.66538
▁heart	-8.66577
ra	-8.66582
▁Use	-8.66712
▁यसर्थ	-8.66786
▁पहिले	-8.67071
▁मन	-8.67148
▁दिने	-8.67345
▁स्वास्थ्य	-8.67351
कहाँ	-8.67366
▁server	-8.67433
▁power	-8.67905
P	-8.68367
▁विस्तार	-8.68386
▁नीति	-8.68462
▁p	-8.68606
्या	-8.68662
us	-8.68705
▁sons	-8.68783
w	-8.69058
▁त्यही	-8.69183
▁value	-8.69208
▁necessary	-8.69228
▁मानिसले	-8.69291
▁ए	-8.69549
▁समयमा	-8.69694
8	-8.69697
▁सहायता	-8.69705
▁नियन्त्रण	-8.70191
▁प्रकार	-8.70344
▁भनी	-8.70431
सा	-8.7046
▁अनुमान	-8.70487
▁यसरी	-8.70581
▁पूर्वनिर्धारित	-8.70687
▁sent	-8.70805
▁earth	-8.71032
▁view	-8.71157
▁area	-8.71193
▁भित्र	-8.71226
▁प्रविष्ट	-8.7129
▁projects	-8.71294
▁होस्	-8.71336
वा	-8.71362
▁पहिलो	-8.71468
▁All	-8.71508
im	-8.71513
▁पिता	-8.71648
▁समेत	-8.71793
▁word	-8.71882
▁option	-8.72016
▁समस्या	-8.72102
▁अनुसार	-8.72177
▁शक्ति	-8.72253
▁T	-8.72308
▁w	-8.72394
▁done	-8.7249
▁economic	-8.72749
▁सक्ने	-8.72778
▁$	-8.72791
▁डलर	-8.72864
▁body	-8.73025
▁public	-8.73205
▁शहर	-8.73235
▁देखि	-8.73268
▁कार्यान्वयन	-8.73341
ir	-8.73376
▁करोड	-8.73668
▁become	-8.73731
▁After	-8.73736
▁स्रोत	-8.7374
▁गरिन्छ	-8.73984
ाउन	-8.74154
फ	-8.7417
▁ह	-8.74436
st	-8.74469
▁सकिन्छ	-8.74993
▁took	-8.75107
▁message	-8.75141
▁नि	-8.75185
▁बि	-8.75238
▁प्रदान	-8.7525
अ	-8.75353
▁women	-8.75363
ध	-8.75487
▁part	-8.75526
कालागि	-8.75542
▁लगानी	-8.7571
▁taken	-8.75958
v	-8.76051
ma	-8.76135
▁छौ	-8.76261
ul	-8.76273
▁खोजी	-8.76297
▁health	-8.7644
▁create	-8.76488
li	-8.76534
z	-8.76668
ity	-8.76712
▁अध्ययन	-8.76763
▁how	-8.76798
▁सहयोग	-8.76852
ive	-8.76866
5	-8.76982
▁सम्पादन	-8.77026
ाउने	-8.77173
▁bring	-8.77216
ent	-8.7766
▁ख	-8.7798
भित्र	-8.77988
▁बनाउन	-8.77993
▁data	-8.78186
▁programmes	-8.78468
▁विषयमा	-8.78571
▁each	-8.7858
▁last	-8.7884
▁3	-8.78917
E	-8.79091
▁5	-8.79218
▁line	-8.79227
▁don	-8.79532
▁long	-8.7958
▁without	-8.79706
िने	-8.7986
िङ	-8.8021
▁old	-8.80561
il	-8.80728
▁हुन्छन्	-8.80757
▁increased	-8.80792
▁उच्च	-8.80796
▁मुद्रण	-8.80831
▁तीन	-8.80834
▁service	-8.80917
▁हाम्रा	-8.80972
▁R	-8.81064
▁default	-8.81112
ियो	-8.81114
▁find	-8.812
▁लग	-8.81244
▁food	-8.81283
▁areas	-8.81284
▁जान	-8.81321
▁Jesus	-8.81357
▁due	-8.8137
▁आदि	-8.8168
▁सकिँदैन	-8.81709
▁process	-8.81718
▁total	-8.81969
▁खेल	-8.82016
या	-8.8221
▁using	-8.82237
▁need	-8.82243
▁सर्भर	-8.82329
▁योजनाको	-8.82421
▁अधिकार	-8.82711
▁बाटो	-8.82855
▁per	-8.82945
▁लिएर	-8.83021
▁नाउँ	-8.83033
▁मूल्य	-8.83059
▁high	-8.83077
▁error	-8.83097
▁field	-8.83103
▁उद्देश्य	-8.8323
]	-8.83305
▁already	-8.83529
▁सम्पूर्ण	-8.83807
▁उनीहरू	-8.83891
१	-8.8392
▁both	-8.841
ment	-8.84149
▁अक्षम	-8.84202
▁services	-8.84414
▁अवस्थित	-8.84712
▁ध्यान	-8.84773
्दै	-8.8493
▁Canno	-8.85158
▁Show	-8.85213
▁गर्यो	-8.85231
्स	-8.85355
▁च	-8.85418
▁कागजात	-8.8561
ta	-8.85643
▁following	-8.85686
▁M	-8.86242
▁command	-8.86269
▁देश	-8.8647
▁education	-8.86532
ली	-8.8677
▁Re	-8.86792
▁f	-8.86839
▁कसैले	-8.86969
▁display	-8.87116
▁help	-8.87126
▁भन्नु	-8.8725
▁change	-8.87305
▁started	-8.87332
▁प्रक्रिया	-8.87455
id	-8.87487
▁offering	-8.87594
▁An	-8.87748
not	-8.8783
▁eat	-8.87844
ah	-8.88015
▁१०	-8.88192
▁भएर	-8.88316
▁India	-8.88367
▁इ	-8.88515
▁सुविधा	-8.8854
▁व	-8.88542
▁बा	-8.88581
अनुसार	-8.88692
▁छैनन्	-8.88728
▁लोड	-8.88778
▁''	-8.88814
▁पार्नुहोस्	-8.88897
छु	-8.89061
▁पूर्व	-8.89095
्दा	-8.89099
▁बेला	-8.8911
ate	-8.89301
▁तिनीहरूका	-8.89461
▁Moses	-8.89467
▁डेटा	-8.89763
▁b	-8.89809
▁उहाँको	-8.89849
▁त्यसको	-8.89858
▁ज	-8.89872
ness	-8.90096
▁थाहा	-8.90357
▁गर्छन्	-8.90444
▁various	-8.90492
▁According	-8.90556
▁येशूले	-8.90851
▁आयात	-8.90936
▁around	-8.91017
सी	-8.91041
▁जहाँ	-8.91087
▁उत्तर	-8.91159
▁जन	-8.91173
हरुमा	-8.91207
▁दाऊद	-8.91338
▁जना	-8.91396
to	-8.91526
F	-8.91708
▁जिल्ला	-8.91717
▁national	-8.91723
▁साधन	-8.91767
रो	-8.918
▁provide	-8.91823
म्	-8.91861
गत	-8.92039
▁most	-8.92111
▁देखाउनुहोस्	-8.92127
▁क्षेत्रको	-8.92233
▁W	-8.92305
▁बारेमा	-8.92358
▁user	-8.9236
▁4	-8.92492
▁देशको	-8.92508
▁private	-8.92574
▁These	-8.92576
▁construction	-8.92579
▁देशमा	-8.92836
▁एवं	-8.92875
▁market	-8.92955
▁support	-8.9298
▁निम्न	-8.93026
▁हजार	-8.9317
▁At	-8.93192
▁पाप	-8.93275
▁तिमीहरूका	-8.93282
▁situation	-8.93328
▁save	-8.93335
as	-8.93472
▁सेटिङ	-8.93492
▁foreign	-8.9353
▁खोल्न	-8.93568
▁खर्च	-8.93808
▁thousand	-8.93859
▁show	-8.93929
▁therefore	-8.93936
▁तालिम	-8.93936
▁until	-8.9394
▁Unable	-8.93947
▁growth	-8.94246
नु	-8.94437
▁read	-8.9455
▁tell	-8.94555
▁आए	-8.94592
▁आवश्यकता	-8.94592
▁सु	-8.94596
▁[	-8.94611
▁६	-8.94618
▁जाने	-8.94917
▁प्रेम	-8.95015
▁भएमा	-8.95112
▁सा	-8.9522
▁present	-8.9525
▁अर्थ	-8.95341
▁ठीक	-8.95349
▁training	-8.95506
छौ	-8.95577
▁Kathmandu	-8.9563
▁बस	-8.95646
▁10	-8.95663
▁जोड	-8.95698
ve	-8.9583
▁Judah	-8.95936
▁विदेशी	-8.95953
▁आयोजना	-8.96081
ई	-8.96084
ro	-8.96219
▁Jerusalem	-8.96247
▁दिएको	-8.96312
▁पूर्ण	-8.96366
▁अन्तिम	-8.96417
दा	-8.96505
▁आफ्नै	-8.96559
▁main	-8.9657
▁n	-8.96713
▁policy	-8.96716
▁nor	-8.96762
▁तिनले	-8.96843
▁blood	-8.96872
L	-8.96925
▁four	-8.97042
▁resources	-8.97081
▁We	-8.97206
▁तिमीहरूको	-8.97271
▁didn	-8.97302
▁भन्नुहुन्छ	-8.97351
▁प्रमुख	-8.97455
▁U	-8.9748
▁able	-8.97501
▁ऊ	-8.97528
▁20	-8.9755
▁त्यसैले	-8.9756
▁keep	-8.97688
▁हुँदा	-8.97791
▁हरेक	-8.97891
▁उद्योग	-8.98075
O	-8.98126
▁नगर	-8.98158
▁investment	-8.98623
▁निश्चित	-8.98773
▁प्रभाव	-8.98865
लो	-8.98868
▁नष्ट	-8.98969
▁विचार	-8.98979
▁programme	-8.99127
▁rate	-8.99183
▁much	-8.99419
▁लाख	-8.99568
▁अझ	-8.99662
्छ	-8.99669
▁बढ	-8.99756
▁small	-8.99981
et	-9.00024
▁population	-9.0006
▁युद्ध	-9.00062
▁समूह	-9.00067
▁back	-9.001
▁उपयोग	-9.00144
▁चल	-9.00476
▁And	-9.00511
▁X	-9.00588
▁उनको	-9.00788
▁above	-9.00873
▁law	-9.00944
▁Whether	-9.01046
▁size	-9.01078
थ	-9.01132
6	-9.01195
▁१९	-9.0135
at	-9.01413
▁७	-9.01435
▁Set	-9.01529
▁H	-9.01586
um	-9.01672
▁डाइरेक्टरी	-9.01731
▁एकजना	-9.01763
ol	-9.01845
▁gold	-9.01875
▁run	-9.01936
▁यसो	-9.01975
▁व्यापार	-9.0199
▁दुष्ट	-9.02031
▁whom	-9.02059
ष	-9.02177
▁प्रतिलिपि	-9.02204
▁group	-9.02229
▁२०	-9.02278
▁words	-9.02372
▁head	-9.02694
०	-9.02735
▁start	-9.02743
▁थिएन	-9.02869
प्रति	-9.02968
▁possible	-9.03018
▁निजी	-9.03214
जी	-9.03234
▁works	-9.03379
▁योजनामा	-9.03556
सम्बन्धी	-9.03609
▁गर्नका	-9.03661
ए	-9.03737
▁Create	-9.03903
▁मानिसहरूको	-9.03957
ाउ	-9.03961
▁document	-9.04024
▁हुनेछन्	-9.04174
▁माग	-9.04261
la	-9.04315
▁भन	-9.04333
िया	-9.04346
▁trade	-9.04356
नि	-9.04357
▁fire	-9.04365
कार	-9.04516
▁समावेश	-9.04531
ance	-9.04535
▁कसरी	-9.04718
▁She	-9.04723
▁जम्मा	-9.04871
is	-9.04886
na	-9.04936
▁हुँ	-9.05048
ती	-9.05135
▁समर्थन	-9.05221
▁घटना	-9.05227
ch	-9.05367
▁८	-9.05385
वटा	-9.05393
वि	-9.05516
▁सङ्ख्या	-9.05567
▁रहेका	-9.05678
▁वन	-9.05722
▁गएको	-9.05869
▁बजार	-9.05882
▁बाट	-9.05916
▁त्यसलाई	-9.06046
०००	-9.06089
▁New	-9.06166
▁छोरो	-9.06239
२	-9.06244
▁कति	-9.06257
▁वितरण	-9.0639
▁etc	-9.06412
▁श	-9.06592
▁यरूशलेम	-9.06772
▁वटा	-9.06775
३	-9.06832
जा	-9.06862
▁अनुप्रयोग	-9.07115
▁off	-9.07213
▁next	-9.07278
▁रोग	-9.07386
पूर्ण	-9.07429
▁जानकारी	-9.07459
▁side	-9.0751
▁परिवार	-9.07584
▁ठाउँमा	-9.0761
▁समाप्त	-9.07685
▁गर्नेछ	-9.0772
आ	-9.07825
▁control	-9.07987
▁neither	-9.08328
▁उक्त	-9.08333
▁काठमाडौं	-9.08341
▁असल	-9.08569
▁आज	-9.08615
५	-9.08635
▁important	-9.08685
रे	-9.08725
▁पालन	-9.08728
कोलागि	-9.08775
▁गर्नुहुन्छ	-9.08829
▁de	-9.08917
▁बटन	-9.08944
▁might	-9.08969
▁जति	-9.0907
▁संख्या	-9.09075
हरूका	-9.09205
’	-9.09211
▁अति	-9.09213
▁पटक	-9.09398
मध्ये	-9.09434
▁आत्मा	-9.09468
▁ठेगाना	-9.09567
▁विरूद्ध	-9.09591
▁९	-9.09691
▁button	-9.09692
▁दुवै	-9.09745
▁Enter	-9.09747
▁यस्ता	-9.09771
▁गर्नुभयो	-9.09854
▁भई	-9.0998
ti	-9.09991
▁सानो	-9.10143
▁व्यक्ति	-9.10558
▁मानिसको	-9.10567
▁उप	-9.10594
▁...	-9.10692
▁दण्ड	-9.10783
▁Nepali	-9.10944
▁saw	-9.11006
हरुले	-9.11041
▁Save	-9.11147
▁लेख	-9.11154
▁मार्ग	-9.11276
▁hundred	-9.11279
▁भ	-9.11302
▁non	-9.11354
▁still	-9.11366
▁full	-9.11478
▁yet	-9.1155
▁टाढा	-9.1157
▁On	-9.1158
▁आफू	-9.1159
▁मोशा	-9.11692
▁कारणले	-9.11729
टी	-9.11785
▁ओ	-9.1182
▁point	-9.11942
नी	-9.12091
डी	-9.12187
ति	-9.12209
▁पूजाहारी	-9.12272
▁प्रार्थना	-9.12274
7	-9.1238
▁function	-9.12394
▁district	-9.12567
▁heard	-9.12654
य्	-9.12721
▁problem	-9.12752
▁enter	-9.12919
▁gave	-9.13009
▁फिल्टर	-9.13018
▁केन्द्र	-9.13092
▁मिश्र	-9.13141
▁facilities	-9.13194
ry	-9.13313
▁कहाँ	-9.13376
▁उपयुक्त	-9.13382
▁home	-9.134
▁महिला	-9.1347
▁दिन्छ	-9.13592
▁राख्न	-9.13614
▁तह	-9.13676
▁8	-9.13863
▁कोही	-9.13967
▁De	-9.13984
▁select	-9.14012
▁child	-9.14118
▁activities	-9.14121
▁मृत्यु	-9.14188
ाउनु	-9.14216
▁Mr	-9.14305
▁dialog	-9.14308
▁लागू	-9.14313
▁राज्य	-9.14353
▁तिनी	-9.14399
नै	-9.14411
▁साइज	-9.14504
▁ख्रीष्ट	-9.14511
▁पर	-9.14645
▁सडक	-9.14677
▁बिन्दु	-9.14725
lo	-9.14748
!"	-9.14754
▁evil	-9.14869
▁लिन	-9.14887
▁मानिसलाई	-9.14995
लि	-9.15016
▁together	-9.15059
कर्ता	-9.15065
टा	-9.1518
▁spoke	-9.15188
▁N	-9.15308
▁#	-9.15309
▁पत्र	-9.15334
est	-9.15421
डा	-9.15444
ष्ट	-9.15498
▁eyes	-9.15601
▁इस्राएल	-9.15629
▁कर	-9.15644
▁गराउन	-9.15869
▁ठाउँ	-9.15956
▁specified	-9.16026
▁d	-9.16073
▁न्याय	-9.16159
▁परियोजना	-9.16165
▁object	-9.16168
▁O	-9.16184
▁निर्यात	-9.16193
▁directory	-9.16227
▁What	-9.16325
▁शब्द	-9.16346
▁basis	-9.16383
▁उपकरण	-9.16404
▁Thus	-9.16432
▁सरकारले	-9.16758
ान	-9.16765
▁अवस्था	-9.16826
ce	-9.16849
▁अझै	-9.16987
▁countries	-9.1715
▁6	-9.17159
▁वरिपरि	-9.17164
▁ज्ञान	-9.17274
▁छोराहरू	-9.17319
▁thing	-9.17362
▁सम्बन्धित	-9.17384
man	-9.1756
▁face	-9.17731
▁सामाजिक	-9.17735
▁जन्म	-9.17755
▁झैं	-9.17815
८	-9.1791
▁changes	-9.17911
▁Egypt	-9.17914
R	-9.17919
६	-9.18057
▁social	-9.18114
▁पासवर्ड	-9.18114
▁मद्दत	-9.18127
स्ट	-9.18277
▁19	-9.18284
▁अनुसन्धान	-9.18687
▁महत्वपूर्ण	-9.18899
▁सक्रिय	-9.18974
▁यसमा	-9.19013
▁मूल	-9.19014
▁स्तर	-9.19142
ak	-9.19267
ia	-9.19398
▁Failed	-9.19678
▁त्यस्तै	-9.19678
▁आधारमा	-9.1982
▁himself	-9.19875
▁special	-9.19953
▁लाई	-9.2003
hi	-9.20082
▁e	-9.20154
▁प्लगइन	-9.20271
▁साथ	-9.20274
ङ	-9.20428
▁mother	-9.2047
▁वर्णन	-9.20512
▁established	-9.20537
▁आउने	-9.20743
▁live	-9.20784
▁खुशी	-9.20869
▁दृश्य	-9.20886
▁हेर्न	-9.20946
▁road	-9.20978
▁सरकार	-9.21062
▁पुन	-9.21365
ies	-9.2137
▁सक्दैन	-9.21634
▁password	-9.2187
▁लामो	-9.21884
▁within	-9.21887
▁गर्नुहोस्ः	-9.21998
▁जल	-9.22041
▁voice	-9.22071
▁brothers	-9.22165
ेका	-9.22436
ठ	-9.22484
▁आज्ञा	-9.22837
▁failed	-9.22948
▁जनता	-9.22977
▁निकासी	-9.23113
up	-9.23127
▁seen	-9.23219
▁1.	-9.23239
▁just	-9.2328
▁money	-9.2329
▁past	-9.23293
▁toward	-9.23361
▁रेखा	-9.23374
▁यही	-9.23398
▁प्रकारको	-9.23643
▁तापनि	-9.23703
रि	-9.23771
▁अवस्थामा	-9.23847
▁k	-9.23913
▁दिनुहोस्	-9.23959
▁Your	-9.23996
ll	-9.24074
▁light	-9.24155
ne	-9.24179
▁तिर	-9.24186
▁nations	-9.24391
▁अत्यन्त	-9.24523
▁;	-9.24587
▁ढाँचा	-9.24623
▁गाउँ	-9.24692
▁Development	-9.2473
less	-9.2478
▁बाल	-9.24785
▁File	-9.24807
▁mode	-9.24814
▁large	-9.2489
▁target	-9.24996
▁five	-9.25027
िएका	-9.25136
ting	-9.2524
▁पार	-9.25431
▁completed	-9.25435
▁page	-9.25646
▁पि	-9.25764
▁near	-9.25771
▁स्वीकार	-9.25772
▁person	-9.25786
▁9	-9.25817
▁संवाद	-9.25867
▁जवाफ	-9.25981
▁नियम	-9.26013
▁मालिक	-9.26052
▁भर	-9.26058
▁स्तम्भ	-9.26085
G	-9.26099
▁death	-9.26197
▁format	-9.26229
▁My	-9.26357
▁Go	-9.26419
▁His	-9.26597
▁सत्य	-9.26693
ary	-9.267
▁ग्रामीण	-9.26824
▁विषय	-9.26844
▁विकासको	-9.26849
▁कन्फिगर	-9.26856
▁love	-9.26888
▁स्पष्ट	-9.2704
▁result	-9.27105
▁search	-9.27192
▁पर्दा	-9.27194
के	-9.27272
▁estimated	-9.27273
▁month	-9.27286
▁forth	-9.27392
▁ऋण	-9.27455
▁प्रविधि	-9.27463
▁servant	-9.27535
▁happened	-9.27559
▁कहिल्यै	-9.27676
▁too	-9.27743
ंग	-9.27747
▁messages	-9.27856
मै	-9.2786
▁मेल	-9.27996
▁थिएँ	-9.28083
िन्छ	-9.28171
▁०	-9.28181
ार	-9.28219
▁्	-9.28263
बारे	-9.28283
▁बस्ने	-9.28398
्नुहोस्	-9.2853
▁साधारण	-9.28531
▁family	-9.28532
घ	-9.28576
▁बनाउने	-9.28583
▁घरमा	-9.286
te	-9.28628
▁book	-9.28659
▁आफै	-9.28701
▁शरीर	-9.28781
▁Dur	-9.28787
िय	-9.28914
▁move	-9.29109
▁संस्करण	-9.29203
▁export	-9.29276
▁sure	-9.29338
प्र	-9.29431
▁priest	-9.2949
▁provided	-9.29632
▁लाइन	-9.29684
▁अगाडि	-9.29715
▁तेल	-9.29719
▁गर्नुपर्छ	-9.29801
▁गर्दैछ	-9.29837
▁मध्ये	-9.29959
lu	-9.29996
▁table	-9.30028
▁निर्णय	-9.3005
▁प्राथमिकता	-9.30074
▁source	-9.30196
▁address	-9.30229
▁विवाह	-9.30325
▁पा	-9.30351
▁Christ	-9.30421
▁send	-9.30438
▁seven	-9.30464
hether	-9.30476
▁However	-9.30493
▁फन्ट	-9.30493
ाएर	-9.30548
▁r	-9.30565
▁मु	-9.3061
▁गयो	-9.30762
▁ट	-9.30903
▁woman	-9.31151
▁oil	-9.31158
▁KDE	-9.31172
▁increasing	-9.31287
▁themselves	-9.3137
▁Seventh	-9.31372
▁कार्यक्रमहरु	-9.31477
▁चार	-9.31526
▁action	-9.31533
▁तिनका	-9.31682
▁brother	-9.31711
▁दिनुभयो	-9.3184
▁नभएको	-9.31939
vi	-9.32021
▁मन्दिर	-9.32023
▁Let	-9.32027
▁कन्फिगरेसन	-9.3204
▁गर्नुपर्ने	-9.32147
▁disease	-9.32162
नन्	-9.32191
रुपमा	-9.32219
▁परेको	-9.32235
▁financial	-9.3226
▁त्यस्तो	-9.3226
▁application	-9.32387
▁Be	-9.32399
▁m	-9.3242
▁since	-9.32496
▁तिम्रा	-9.32508
▁जस्ता	-9.32537
▁सात	-9.32578
▁lack	-9.32711
▁हुँदै	-9.32812
▁hands	-9.32818
▁जि	-9.32819
▁बे	-9.32859
▁0	-9.32876
▁आन्तरिक	-9.32933
▁स्वचालित	-9.32933
=	-9.32967
▁सं	-9.33092
▁पहुँच	-9.33158
▁सेयर	-9.33166
▁Du	-9.3323
▁वर्ग	-9.33247
▁भाषा	-9.33264
जना	-9.33271
▁निर्धारण	-9.33403
▁अन्त्य	-9.33404
▁free	-9.33416
हे	-9.33512
▁गराउने	-9.33535
▁agricultural	-9.33641
▁भन्न	-9.33645
▁बन	-9.33654
H	-9.33727
▁गर्छु	-9.33807
▁sin	-9.33812
▁व्यवहार	-9.33847
▁2.	-9.33896
▁add	-9.33948
▁access	-9.34062
▁गरि	-9.34105
▁भेट	-9.34118
▁सारा	-9.34159
ist	-9.34222
▁गर्दैन	-9.34273
▁became	-9.34292
▁Click	-9.34308
▁नेपालमा	-9.34556
+	-9.34612
age	-9.34698
▁दायाँ	-9.3475
▁Open	-9.34762
बा	-9.34781
▁उनलाई	-9.3484
▁देखा	-9.34972
▁सय	-9.35018
▁फाइलहरू	-9.35203
▁हेर	-9.35218
ात्मक	-9.35341
▁पछिल्लो	-9.35444
▁state	-9.35556
▁7	-9.35582
un	-9.35624
▁फ	-9.35645
▁distribution	-9.3567
▁आएका	-9.35747
▁दिइएको	-9.35814
▁hear	-9.35872
▁L	-9.35901
▁सामान्य	-9.35934
▁संस्था	-9.35964
▁बोल	-9.35978
▁फल	-9.3599
▁amount	-9.35991
▁खास	-9.36042
▁servants	-9.36053
▁company	-9.36133
▁behold	-9.362
sh	-9.36244
▁जनसंख्या	-9.36255
ite	-9.36271
ter	-9.36312
ck	-9.36322
▁war	-9.3635
▁version	-9.36417
▁young	-9.36418
▁स्थानमा	-9.36432
▁problems	-9.36457
00	-9.365
▁fall	-9.36554
▁शाऊल	-9.366
▁यहूदाका	-9.36777
▁holy	-9.36833
▁fathers	-9.36837
▁चिन्ह	-9.3687
▁हटाउन	-9.37106
▁connection	-9.37109
▁महिना	-9.3719
्छन्	-9.37236
▁ने	-9.37271
▁औद्योगिक	-9.37307
▁यसै	-9.37318
▁required	-9.37336
▁सम्पर्क	-9.37463
▁cut	-9.37507
▁खान	-9.37512
▁shown	-9.37626
▁top	-9.37669
▁far	-9.3769
ag	-9.3777
▁अवैध	-9.37789
▁school	-9.37963
▁How	-9.37965
▁times	-9.37998
▁पक्ष	-9.38033
lt	-9.38077
िए	-9.38171
▁द	-9.38213
▁written	-9.3825
▁बिक्री	-9.38486
▁सुरुआत	-9.38514
▁addition	-9.38535
▁living	-9.38721
▁प्रस्ताव	-9.38721
▁cities	-9.3873
▁राष्ट्रिय	-9.38781
▁मे	-9.38781
▁बग	-9.38799
▁तर्फ	-9.38811
▁One	-9.38883
▁छौं	-9.38906
▁research	-9.38938
▁आशा	-9.38947
▁प्रभावकारी	-9.38968
▁सकिने	-9.39074
do	-9.39077
▁झ	-9.39118
>	-9.39181
▁supply	-9.39199
▁वर्षको	-9.39215
▁सातौं	-9.39229
▁cause	-9.39255
▁वर्षमा	-9.39539
▁पढ्न	-9.39682
ut	-9.39761
▁यसका	-9.39792
स्त	-9.3987
▁path	-9.39995
न्छ	-9.40007
9	-9.40053
▁जान्छ	-9.40213
▁आमा	-9.40265
▁speak	-9.40268
▁village	-9.40374
▁सन्	-9.40389
▁पृष्ठ	-9.40407
▁menu	-9.40422
▁हुनुपर्छ	-9.40453
▁बनाए	-9.40621
me	-9.40623
▁राख्ने	-9.40645
▁ड	-9.40646
▁irrigation	-9.40647
▁location	-9.40647
▁अनुभव	-9.40648
▁means	-9.40702
▁नेपालको	-9.40714
ph	-9.40779
▁सब	-9.40822
▁forest	-9.40877
▁दाऊदले	-9.4089
▁write	-9.41105
▁नम्बर	-9.41142
▁जा	-9.4124
▁allow	-9.41258
▁कायम	-9.41318
▁वातावरण	-9.41358
▁यन्त्र	-9.41396
ाऊ	-9.41409
▁case	-9.41467
हि	-9.41497
▁सकिएन	-9.41591
▁wife	-9.41624
▁रकम	-9.41626
▁That	-9.41627
ted	-9.41634
▁remove	-9.41707
▁परमेश्वरलाई	-9.41808
▁mouth	-9.41869
▁डेस्कटप	-9.41879
▁घ	-9.41909
mi	-9.42
▁यसैले	-9.42003
▁कस	-9.42108
▁पृष्ठभूमि	-9.42117
▁मानिसहरु	-9.42124
▁याकूब	-9.42126
▁संरक्षण	-9.4213
▁expected	-9.4217
▁check	-9.42172
४	-9.42227
N	-9.4232
▁आगो	-9.42421
▁नदी	-9.42427
▁implemented	-9.42445
गा	-9.42474
▁वचन	-9.42521
पी	-9.42588
▁little	-9.4261
ad	-9.42612
▁बायाँ	-9.42614
▁capital	-9.42797
▁whole	-9.42856
▁सुलेमान	-9.42858
▁राष्टि्रय	-9.42876
▁sub	-9.42887
▁अरु	-9.42919
▁created	-9.42924
▁peace	-9.42946
▁share	-9.42974
▁से	-9.42991
▁१५	-9.43024
▁Some	-9.43043
ty	-9.43197
pe	-9.43245
▁business	-9.43353
▁agriculture	-9.43356
▁rural	-9.43356
▁कु	-9.43357
▁going	-9.43359
▁account	-9.43362
▁fact	-9.43451
▁ता	-9.4351
ओ	-9.43529
▁Congress	-9.43606
▁सुरक्षित	-9.43606
ढ	-9.43694
▁वस्तुहरू	-9.43725
▁Even	-9.43821
▁विश्व	-9.43832
▁configuration	-9.43857
▁fear	-9.43857
▁प्राविधिक	-9.43857
).	-9.43911
▁return	-9.43926
▁त्यसै	-9.44087
W	-9.44176
▁values	-9.44192
ृ	-9.44291
क्ष	-9.44298
▁places	-9.44359
▁प्रगति	-9.44362
▁व्यवस्थापन	-9.44391
▁concern	-9.44415
co	-9.44504
हा	-9.44538
▁known	-9.44561
▁Behold	-9.44565
▁शैली	-9.44642
ेल	-9.44716
ण्ड	-9.4475
▁सकेको	-9.44779
▁करार	-9.44879
▁सही	-9.4497
▁answered	-9.45025
▁छैठौं	-9.45125
▁dead	-9.45131
▁निकै	-9.45162
▁selection	-9.45178
▁commanded	-9.4522
▁प्रविष्टि	-9.45249
त्र	-9.45287
ha	-9.45302
▁उठ	-9.45358
),	-9.45366
्दछ	-9.45455
ab	-9.45589
▁तिमीहरु	-9.45641
▁sea	-9.4572
▁turn	-9.45795
▁प्रतिशतले	-9.45856
▁कर्मचारी	-9.45862
▁भएन	-9.45891
▁Check	-9.45899
▁महा	-9.45932
▁पाल	-9.46017
▁गरिरहेका	-9.46262
▁पद	-9.46269
▁शासन	-9.46362
▁National	-9.46398
▁night	-9.46426
िरहेको	-9.46436
▁language	-9.46445
▁फरक	-9.4648
The	-9.46526
▁य	-9.46644
▁second	-9.46687
अन्तर्गत	-9.46716
▁शहरमा	-9.46767
▁कहिले	-9.46915
▁price	-9.46961
▁ल्याउन	-9.46974
▁string	-9.47178
▁शान्ति	-9.47198
▁जसलाई	-9.47206
▁Enable	-9.47442
▁बनाउनु	-9.47466
▁rest	-9.47559
▁J	-9.47608
▁region	-9.47616
न्त	-9.47631
▁गा	-9.47684
▁उत्पन्न	-9.47694
▁industrial	-9.47698
▁मिति	-9.47779
▁import	-9.47794
▁comes	-9.47811
▁प्रस्तुत	-9.47821
▁soul	-9.47823
▁play	-9.47903
दिन	-9.47907
▁रगत	-9.47933
▁position	-9.47996
▁told	-9.48105
▁date	-9.4812
▁प्रशासन	-9.48186
▁सम्बन्धी	-9.48203
▁Sixth	-9.48217
▁बताए	-9.48218
▁Add	-9.4825
७	-9.48284
▁गुण	-9.48348
▁सबैभन्दा	-9.4837
▁आधार	-9.48428
▁थाले	-9.48445
बि	-9.48518
▁सम	-9.48521
▁settings	-9.48898
▁मिल	-9.48995
▁योग्य	-9.49003
▁तर्जुमा	-9.49006
▁sword	-9.49009
।'	-9.49128
▁drink	-9.49247
▁गर्नेछन्	-9.49274
▁अभाव	-9.49286
▁x	-9.4936
▁द्वारा	-9.49464
ाय	-9.49527
▁उचित	-9.49536
▁प्रतिवेदन	-9.49536
▁few	-9.49541
▁घट	-9.49545
▁दुइ	-9.4979
▁industries	-9.49802
and	-9.49896
▁नराम्रो	-9.50069
▁शुरू	-9.50101
▁column	-9.50145
om	-9.50174
▁राष्ट्र	-9.50334
▁valid	-9.50336
▁billion	-9.50344
▁sound	-9.50361
▁less	-9.50423
▁चाल	-9.50437
▁दर	-9.50443
ish	-9.50499
▁lot	-9.50539
▁mail	-9.50685
▁post	-9.50979
▁शहरहरू	-9.50995
ho	-9.51082
हो	-9.5119
ेन	-9.51336
▁आय	-9.51373
▁Because	-9.51474
झ	-9.51514
▁related	-9.51523
▁चेलाहरू	-9.51568
▁always	-9.51704
▁active	-9.51736
▁गो	-9.51797
▁आकाश	-9.51812
▁हौ	-9.51874
▁अनुरोध	-9.51955
▁जारी	-9.51984
▁सुरक्षा	-9.52021
▁पृथ्वी	-9.52083
९	-9.52094
▁existing	-9.52131
X	-9.52153
▁making	-9.52259
▁दक्षिण	-9.52299
▁V	-9.52335
▁तालिका	-9.52344
पन	-9.52381
ant	-9.52408
समेत	-9.52429
▁यातायात	-9.52501
▁शुद्ध	-9.52503
▁By	-9.5251
▁सार्वजनिक	-9.52552
▁डा	-9.52563
▁क्षमता	-9.52647
्रो	-9.52684
ाउँदै	-9.52936
ni	-9.52959
ीत	-9.53045
▁अस्वीकार	-9.5305
ach	-9.5307
▁रुप	-9.53145
▁साना	-9.53226
▁स्वर्ग	-9.53329
▁सधैं	-9.53336
▁अमेरिकी	-9.53338
▁अतिरिक्त	-9.53355
पा	-9.53382
ru	-9.53391
▁considered	-9.53397
▁Man	-9.53496
▁सँग	-9.53525
ai	-9.53585
▁Co	-9.53595
ure	-9.5364
▁डर	-9.53649
▁goods	-9.53652
▁operation	-9.53739
▁form	-9.54002
बीच	-9.54107
न्द	-9.54146
▁भूमिका	-9.54258
▁general	-9.54276
▁खा	-9.54299
र्स	-9.5433
▁meeting	-9.5439
ous	-9.54453
▁screen	-9.54469
▁उपचार	-9.54721
▁12	-9.54833
em	-9.54937
▁भवन	-9.54985
▁ट्याब	-9.54994
▁मिलियन	-9.55
▁seek	-9.55061
▁खाने	-9.55092
▁15	-9.55116
▁ten	-9.55175
▁look	-9.55208
be	-9.55271
गर	-9.55274
▁Nepalese	-9.55276
▁प्रमाणपत्र	-9.55281
▁हृदय	-9.55284
▁पशु	-9.55305
U	-9.55365
▁अन्न	-9.5556
▁भइरहेको	-9.55562
▁भारत	-9.557
▁Can	-9.557
▁सङ्केत	-9.55772
▁गैर	-9.55835
Y	-9.55958
▁ground	-9.56129
▁स्ट्रिङ	-9.56138
tic	-9.56192
▁सम्मान	-9.56214
You	-9.56304
▁पाए	-9.56324
▁कल	-9.5636
▁implementation	-9.56418
▁भिडियो	-9.56425
di	-9.56447
ामा	-9.5645
▁लि	-9.56553
▁असर	-9.56558
▁यहूदा	-9.56604
▁फाइलमा	-9.56683
▁co	-9.56718
ated	-9.56783
▁daughter	-9.56842
▁organization	-9.56842
▁images	-9.56884
ling	-9.56911
▁विवरण	-9.56975
▁एउटै	-9.56977
▁poor	-9.56986
खा	-9.56991
ka	-9.57129
▁below	-9.57138
▁Similarly	-9.57267
▁आयो	-9.57283
▁sky	-9.57287
▁छोड	-9.57327
ial	-9.57331
▁इच्छा	-9.5734
▁बाकस	-9.57436
▁चि	-9.57536
the	-9.57542
न्ड	-9.57556
ba	-9.57585
▁मेट्न	-9.57595
▁दोस्रो	-9.57617
▁districts	-9.57667
▁reached	-9.5771
नो	-9.5771
▁रूपले	-9.57737
िरहेका	-9.5791
▁लागेको	-9.57936
▁working	-9.58032
rs	-9.58062
▁प्रतिमा	-9.58117
▁human	-9.58131
▁यति	-9.58138
▁coming	-9.58144
▁though	-9.58211
▁प्रभु	-9.58294
ine	-9.58295
▁३०	-9.58297
▁additional	-9.58355
▁पाँच	-9.58376
▁economy	-9.58418
▁computer	-9.58426
▁Image	-9.58434
▁पुत्र	-9.58434
▁Of	-9.58457
▁बाबु	-9.58494
▁priests	-9.58582
▁Un	-9.58673
▁परमप्रभुलाई	-9.58701
▁पाउने	-9.58753
▁\	-9.58833
▁रहने	-9.58958
▁With	-9.58995
▁शत्रु	-9.59
▁kept	-9.59001
▁पर्यटन	-9.59001
▁network	-9.59002
▁environment	-9.59013
▁कुन	-9.59072
▁installed	-9.59077
▁ठूला	-9.59099
▁मध्य	-9.59102
▁reason	-9.5918
▁भू	-9.59225
▁राज	-9.59281
▁कतिपय	-9.59293
▁यस्तै	-9.59294
▁मोड	-9.59296
जस्ता	-9.59318
▁नियमित	-9.59386
▁गर्नेछु	-9.59399
▁>	-9.59425
▁forever	-9.59565
र्ड	-9.5957
▁दृष्टि	-9.59586
▁त्यति	-9.59604
▁बैंक	-9.59719
▁जानु	-9.59779
▁रू	-9.59797
सँगै	-9.59801
▁knowledge	-9.5988
क्स	-9.59889
▁राखिएको	-9.59897
▁क्रममा	-9.59908
▁देखे	-9.59911
▁कार्यमा	-9.59919
▁पूजा	-9.59934
▁low	-9.5995
▁based	-9.59989
ास	-9.60004
▁nation	-9.6002
▁गरें	-9.60028
▁kind	-9.60051
▁received	-9.60056
▁१२	-9.60165
▁instead	-9.60175
▁morning	-9.60175
▁हारून	-9.60177
▁Don	-9.60201
▁तत्व	-9.60207
▁प्रकार्य	-9.60235
end	-9.60347
▁strong	-9.60391
ang	-9.6042
कु	-9.60428
▁Are	-9.60428
▁पहिला	-9.60471
▁example	-9.60472
▁बाबेल	-9.605
▁From	-9.60506
▁तपाईंलाई	-9.60534
▁today	-9.60565
▁close	-9.60606
▁सम्पन्न	-9.60792
▁output	-9.60793
्रा	-9.60831
▁h	-9.60909
यदि	-9.60962
▁demand	-9.60971
K	-9.61006
▁चीजहरू	-9.61038
▁पत्नी	-9.61048
▁police	-9.61066
▁Color	-9.61066
▁opened	-9.61086
▁प्रबन्धक	-9.61094
▁छन	-9.61158
▁report	-9.61166
▁सम्बन्ध	-9.61205
▁game	-9.61265
▁यसबाट	-9.61305
pa	-9.61334
▁दुःख	-9.61344
ites	-9.61417
मान	-9.61465
्यौ	-9.61642
▁society	-9.61664
▁खोल्नुहोस्	-9.61675
▁3.	-9.61743
▁needs	-9.61756
▁बढाउन	-9.61762
▁farmers	-9.61919
▁प्रमाण	-9.6195
▁half	-9.61965
▁database	-9.61965
▁mind	-9.61966
▁30	-9.6209
▁आवाज	-9.62265
▁choose	-9.62291
▁बीचमा	-9.62355
no	-9.62377
▁offer	-9.62427
▁office	-9.6244
▁हासिल	-9.62568
▁currently	-9.62571
▁items	-9.62632
▁सामग्री	-9.62753
▁हालै	-9.62784
▁नजिक	-9.62799
ver	-9.62875
os	-9.62892
▁देऊ	-9.62934
▁अन्तर्गत	-9.62976
▁संलग्न	-9.6298
ot	-9.63048
▁गरिरहेको	-9.63135
▁सीमित	-9.63174
op	-9.63175
ुल	-9.6318
▁<	-9.63268
▁age	-9.63403
▁सक	-9.63459
▁income	-9.6348
▁मि	-9.6355
▁Me	-9.63555
▁pre	-9.63572
▁गु	-9.63587
सि	-9.63603
▁कम्पनी	-9.6366
▁months	-9.63683
▁effective	-9.63719
▁खाना	-9.63756
▁भनेको	-9.63768
पर	-9.63778
▁management	-9.63787
▁technical	-9.63787
▁ना	-9.63869
▁सेना	-9.63929
▁cost	-9.64038
▁stood	-9.64091
▁सत्र	-9.64136
▁पार्ने	-9.64233
▁उल्लेख	-9.6433
▁die	-9.64368
▁bread	-9.64384
▁प्रशंसा	-9.6441
▁St	-9.64437
▁आधारित	-9.64477
▁call	-9.64482
▁कार्यालय	-9.64485
▁कारोबार	-9.64597
▁भेडा	-9.646
▁विस्तृत	-9.64708
▁वार्षिक	-9.64709
▁यात्रा	-9.64712
▁study	-9.64727
▁interest	-9.64778
▁item	-9.64876
▁regular	-9.64934
▁altar	-9.65018
▁जग्गा	-9.65029
▁दिनेछु	-9.6514
▁तिनलाई	-9.65201
▁having	-9.65328
▁बाँकी	-9.65328
▁cast	-9.65354
▁केवल	-9.65361
रू	-9.65397
▁परि	-9.65435
एको	-9.65448
▁developed	-9.65519
▁La	-9.65545
▁इस्राएलीहरू	-9.65618
▁including	-9.6564
▁role	-9.6564
▁पैसा	-9.65642
▁संयुक्त	-9.65645
▁layer	-9.65664
जि	-9.65685
ायो	-9.65691
▁print	-9.65711
de	-9.65744
▁अधिकारीहरू	-9.65804
▁बल	-9.65908
gt	-9.65921
ीको	-9.6593
▁spirit	-9.65948
▁policies	-9.65952
▁पुनः	-9.66031
▁Ma	-9.66079
▁बलि	-9.66098
▁tree	-9.66125
▁तपाई	-9.66171
▁efforts	-9.66233
▁प्याकेज	-9.66239
▁short	-9.66256
▁political	-9.66265
▁डाटाबेस	-9.66265
▁हेर्नुहोस्	-9.66283
▁third	-9.66292
ोन	-9.66297
▁लिङ्क	-9.66303
▁रात	-9.66344
▁answer	-9.66383
▁भाइ	-9.66456
ful	-9.66516
▁लगइन	-9.66586
▁Saul	-9.66594
▁रक्षा	-9.66808
▁५०	-9.66829
▁तरिकाले	-9.66848
▁glory	-9.66895
▁विद्यालय	-9.67264
▁उनका	-9.67369
▁शत्रुहरू	-9.67378
▁try	-9.67385
▁विद्युत	-9.674
त्	-9.67446
▁लागे	-9.67518
▁why	-9.67535
▁आकार	-9.67631
शा	-9.67697
▁पुस्तक	-9.67774
▁video	-9.67848
▁चीज	-9.67878
▁भन्छन्	-9.67885
▁धन	-9.67962
▁रहन	-9.67988
ts	-9.67996
्ब	-9.68016
▁pass	-9.68034
▁स्त्री	-9.68151
जस्तो	-9.68167
▁democracy	-9.68167
▁तेस्रो	-9.6821
▁भूमिमा	-9.68279
▁तरिका	-9.68332
▁doesn	-9.68415
▁Edit	-9.68478
▁nothing	-9.68491
▁धर्म	-9.68498
ence	-9.68537
▁st	-9.68645
▁delete	-9.68647
▁भएकोले	-9.68682
्ट	-9.68708
per	-9.68712
▁flesh	-9.68809
▁dis	-9.68928
▁click	-9.68938
▁आयोजनाहरु	-9.68967
▁higher	-9.68994
िन्	-9.69017
▁progress	-9.69116
▁changed	-9.69175
▁रोटी	-9.69227
▁यहूदीहरू	-9.69258
▁विभाग	-9.69385
▁मुलुक	-9.6941
▁appropriate	-9.69456
▁empty	-9.69456
▁आक्रमण	-9.69456
▁filter	-9.69457
▁अधिकतम	-9.69457
▁दाज्यू	-9.69457
▁पहिल्यै	-9.69464
▁बुझ	-9.69632
▁सफल	-9.69637
▁ex	-9.69703
▁पुग्न	-9.69716
▁गर्दछन्	-9.69749
▁प्रोफाइल	-9.69781
▁priority	-9.69783
िस	-9.69866
मी	-9.69884
▁दा	-9.69934
▁मानिसहरूका	-9.69938
▁killed	-9.69944
ip	-9.7002
▁बीच	-9.70024
▁क्यारेक्टर	-9.70046
▁future	-9.7009
▁carried	-9.70106
▁chief	-9.70106
▁industry	-9.70106
ाल	-9.70114
▁seed	-9.70396
▁Jacob	-9.70433
▁समाधान	-9.70433
▁पश्चिम	-9.70496
▁16	-9.70512
▁नगर्ने	-9.70515
▁स्वतन्त्र	-9.70652
ism	-9.70704
एस	-9.70719
▁प्रकारले	-9.70737
▁येशूलाई	-9.70746
▁समाचार	-9.70755
▁Minister	-9.70761
▁औषधि	-9.70761
▁यूसुफ	-9.70761
▁वित्तीय	-9.70768
▁midst	-9.70768
▁गत	-9.7079
▁सदा	-9.70856
▁आइ	-9.70895
iv	-9.70905
अघि	-9.70934
▁log	-9.70996
▁इतिहास	-9.71005
▁राख्नु	-9.71012
▁अंश	-9.7109
▁हुलाक	-9.7109
▁निर्गत	-9.71115
ाए	-9.7125
▁आई	-9.71251
▁walk	-9.71263
line	-9.71307
▁device	-9.71418
▁border	-9.71419
ke	-9.71502
्द	-9.71693
▁j	-9.7175
▁Sa	-9.71767
▁प्रश्न	-9.71788
▁style	-9.71794
▁stand	-9.71798
▁feet	-9.71801
▁हुनाले	-9.71807
▁मोशाले	-9.71838
▁Only	-9.71903
▁एस	-9.72056
▁self	-9.72076
▁saved	-9.72106
▁परेन	-9.72145
▁भोजन	-9.72153
▁began	-9.72188
▁पुगेको	-9.72358
▁गलत	-9.72428
जन	-9.72521
▁box	-9.72552
▁lines	-9.726
▁सञ्जाल	-9.72671
▁लगे	-9.72742
▁संघ	-9.72744
▁विज्ञान	-9.72753
▁पुरानो	-9.72755
▁पावल	-9.7276
▁running	-9.72761
▁मात्रामा	-9.72859
ही	-9.7289
चा	-9.72923
▁आउनु	-9.72925
▁Not	-9.72929
▁खेती	-9.72965
▁50	-9.72984
हरूबाट	-9.73031
▁keys	-9.73089
▁dwell	-9.73135
कर	-9.73158
▁राखे	-9.73169
▁Ba	-9.7335
▁गुप्तिकरण	-9.73425
▁शक्तिशाली	-9.73427
▁अर्थात	-9.7344
▁exists	-9.735
▁मेनु	-9.73507
ward	-9.73585
▁load	-9.73675
▁parts	-9.737
▁major	-9.73745
▁plugin	-9.73788
▁शीर्षक	-9.73799
▁Change	-9.73801
▁think	-9.73819
if	-9.73877
▁प्राथमिक	-9.73908
▁एल	-9.73917
▁asked	-9.73929
▁महान	-9.7395
ाम	-9.74056
▁background	-9.741
▁black	-9.741
▁capacity	-9.741
▁परिचालन	-9.741
▁चाँदी	-9.74101
▁भन्यो	-9.74135
▁Bank	-9.74161
▁समिति	-9.7417
▁छोरी	-9.74273
▁receive	-9.74273
ical	-9.74348
▁कर्जा	-9.7444
ाउँछ	-9.74606
▁map	-9.74637
▁पी	-9.74687
एल	-9.74714
▁built	-9.74781
▁manager	-9.74826
बी	-9.74831
▁पो	-9.74897
▁ति	-9.74913
▁पठाए	-9.74929
दि	-9.74969
▁डि	-9.74971
▁कोठा	-9.7499
मि	-9.74997
▁कक्ष	-9.74999
▁programs	-9.75059
▁Government	-9.75124
▁effect	-9.75145
▁चौथो	-9.75153
द्ध	-9.75242
▁गर्नुभएको	-9.75306
▁clear	-9.75384
uch	-9.75413
▁पाउन	-9.75434
▁शुरु	-9.7547
▁थप्न	-9.75474
▁अन	-9.75479
▁pay	-9.75504
ल्ला	-9.7556
▁prepared	-9.75606
▁सक्छन्	-9.75627
▁party	-9.75708
▁turned	-9.75733
▁previous	-9.75812
▁spread	-9.75813
▁पदार्थ	-9.75828
नेछ	-9.75965
▁दल	-9.7601
▁लुगा	-9.7604
से	-9.76057
था	-9.7606
▁seems	-9.76122
▁Aaron	-9.76158
▁वैध	-9.76173
जस्तै	-9.76177
▁true	-9.76191
▁बेलामा	-9.76209
▁जाऊ	-9.76258
▁पर्यो	-9.76266
▁Move	-9.76268
पुर	-9.76285
पत्र	-9.76383
▁break	-9.76389
ोस्	-9.76454
▁पशुहरू	-9.76475
▁roads	-9.7666
▁ल्याए	-9.76685
▁दिनमा	-9.76746
out	-9.76816
▁११	-9.76831
▁आपूर्ति	-9.76854
▁internal	-9.76854
▁प्रतिज्ञा	-9.76862
▁प्रचार	-9.7687
▁याद	-9.76874
▁थप्नुहोस्	-9.76888
▁आफूलाई	-9.76986
▁Who	-9.77011
▁खाता	-9.77067
▁स्वर्गदूत	-9.77085
▁certain	-9.7712
ाइएको	-9.77196
▁history	-9.77204
▁बनाउनुहोस्	-9.77221
▁task	-9.77263
टर	-9.77295
▁देख्न	-9.77377
ize	-9.77385
रिब	-9.7739
▁कम्प्युटर	-9.77516
▁calendar	-9.77554
V	-9.77579
▁तिनको	-9.77776
▁लिने	-9.77813
oth	-9.77894
▁गर्यौ	-9.77899
▁essential	-9.77907
▁बराबर	-9.77907
▁परीक्षण	-9.77907
▁खण्ड	-9.77985
har	-9.78086
▁appear	-9.78137
▁जसको	-9.78168
▁कष्ट	-9.78221
▁exchange	-9.7826
▁समान	-9.78272
▁users	-9.7829
▁11	-9.78326
▁develop	-9.78443
योग्य	-9.78496
▁पर्दैन	-9.78535
▁सम्भव	-9.78596
▁Display	-9.78615
▁समुदाय	-9.78615
▁विषयवस्तु	-9.78619
▁technology	-9.78622
▁standard	-9.78707
▁राख	-9.78922
▁विगत	-9.78986
▁Pa	-9.78996
▁बारे	-9.79034
▁मह	-9.79043
▁heaven	-9.79051
▁burnt	-9.79087
▁con	-9.79132
▁सक्छौ	-9.79139
राम	-9.79239
्थे	-9.79253
▁Ra	-9.7926
▁everyone	-9.79347
▁सीमा	-9.79359
▁वै	-9.79396
▁क्रम	-9.79407
▁reach	-9.79477
▁खाए	-9.79521
▁भएपछि	-9.79532
▁अधिकारी	-9.79551
av	-9.79557
्व	-9.79578
▁4.	-9.79626
res	-9.7963
▁देखाउन	-9.7966
▁silver	-9.79686
▁assistance	-9.79688
▁परिभाषित	-9.79717
▁आफैं	-9.79762
▁अस्पताल	-9.79806
▁destroy	-9.79848
ाएको	-9.79866
तः	-9.79895
▁क्रमशः	-9.80046
▁सार्नुहोस्	-9.80054
pl	-9.80091
▁leave	-9.80134
▁तरवार	-9.80157
▁विधि	-9.8023
▁please	-9.80244
▁named	-9.80274
▁रूप	-9.80288
▁सभा	-9.80299
▁सन्तान	-9.80301
▁lived	-9.80339
▁एकै	-9.80361
ig	-9.80384
▁हु	-9.80392
▁टा	-9.80395
▁चेतावनी	-9.80407
भर	-9.8041
▁basic	-9.80412
▁चरण	-9.80424
कि	-9.80455
▁२५	-9.80494
िल	-9.80499
▁फ्रेम	-9.80513
▁फोटो	-9.80513
हीन	-9.80546
▁along	-9.80554
▁अगमवक्ता	-9.80663
ya	-9.80727
▁born	-9.80741
▁quality	-9.80769
▁प्रवेश	-9.80772
▁materials	-9.80776
all	-9.80789
▁HTML	-9.80824
sa	-9.80858
▁बहु	-9.80863
son	-9.80867
▁font	-9.80867
▁कालो	-9.80875
▁राखी	-9.80939
▁कामहरू	-9.80971
वादी	-9.80986
▁25	-9.81026
▁वास्तवमा	-9.81133
▁व्यापक	-9.81133
▁घोषणा	-9.81133
▁स्विच	-9.81135
▁XML	-9.81135
▁विकासमा	-9.81169
टो	-9.81209
▁इस्राएली	-9.81322
▁साल	-9.81343
ीकरण	-9.81421
▁continue	-9.81437
वाद	-9.81445
▁added	-9.81449
्क	-9.81474
▁court	-9.81498
दार	-9.81552
▁Z	-9.81643
▁सी	-9.81716
▁Ja	-9.81728
▁अनु	-9.8173
▁पर्याप्त	-9.81864
▁twenty	-9.81869
▁physical	-9.81882
▁drinking	-9.81898
▁स्टक	-9.81985
▁session	-9.82
▁others	-9.82049
ताको	-9.8207
▁लाग्ने	-9.82098
▁गीत	-9.82098
▁खेत	-9.821
▁आनन्द	-9.82188
▁18	-9.8219
▁international	-9.82232
▁अद्यावधिक	-9.82232
▁खाद्यान्न	-9.82232
▁प्रशस्त	-9.82232
▁मन्त्रालय	-9.82232
▁Search	-9.82233
िनेछ	-9.82233
▁thus	-9.82237
▁गणना	-9.82267
▁एकदम	-9.82287
▁host	-9.82292
▁बाली	-9.82331
▁जस	-9.824
▁ठ	-9.82423
▁meet	-9.82492
▁जनताको	-9.82595
▁students	-9.82596
▁माउस	-9.82601
▁manpower	-9.82608
▁सम्पत्ति	-9.82637
▁हुन्थ्यो	-9.82647
▁पहाडी	-9.82742
▁windows	-9.82888
ana	-9.82909
सन	-9.82984
▁कुरो	-9.83007
ाको	-9.83024
,"	-9.83026
ीहरू	-9.83077
▁pro	-9.83079
for	-9.83174
▁कार्यहरू	-9.83202
▁संसूचक	-9.83343
▁कथा	-9.83358
▁जीवित	-9.83364
▁car	-9.83366
▁tab	-9.83377
▁root	-9.83391
▁रहे	-9.83395
▁संरचना	-9.83433
▁होला	-9.83479
▁got	-9.83484
min	-9.8351
▁ल्याउने	-9.83604
▁matter	-9.83717
▁desktop	-9.83745
▁१६	-9.8378
▁मानव	-9.83813
▁package	-9.8387
▁आउन	-9.83887
▁आधा	-9.83939
▁जाति	-9.83976
▁space	-9.84005
ally	-9.84018
▁परे	-9.84048
▁परिमाण	-9.84091
▁अडियो	-9.84097
▁13	-9.84131
▁edit	-9.84197
tra	-9.84211
▁deal	-9.84226
▁sectors	-9.84247
▁दिइनेछ	-9.84281
▁sun	-9.84345
▁१३	-9.84352
▁चु	-9.8439
▁स्वयं	-9.84466
▁अब्राहाम	-9.84466
▁समाविष्ट	-9.84466
▁listen	-9.84467
▁बस्न	-9.84496
▁स्क्रिप्ट	-9.84514
▁उदाहरण	-9.84613
▁दि	-9.84661
▁products	-9.84744
▁लाग्छ	-9.84791
▁clean	-9.84819
▁administration	-9.84844
▁least	-9.84844
▁remote	-9.84844
▁status	-9.84863
मे	-9.84868
▁प्रकारका	-9.84915
▁understand	-9.84933
▁contains	-9.84947
ating	-9.84952
▁supported	-9.84959
▁King	-9.84983
▁वास्तविक	-9.85014
▁regional	-9.85058
▁lower	-9.85182
▁सम्भावना	-9.85222
ूर	-9.85266
▁राजाको	-9.85281
ath	-9.85476
▁bear	-9.85568
▁Spirit	-9.85603
▁struck	-9.85603
▁तस्वीर	-9.85603
▁Import	-9.85603
▁lord	-9.85603
▁इमेल	-9.85609
▁सदस्य	-9.85612
▁bar	-9.85618
▁profile	-9.85639
▁Yes	-9.85678
tion	-9.85722
▁त्यसो	-9.85727
▁१८	-9.85738
▁गरीब	-9.85788
ors	-9.8579
▁सकेनः	-9.8588
▁शिक्षक	-9.85968
ex	-9.85972
ुहुन्छ	-9.85979
▁hard	-9.85994
▁army	-9.86003
▁i	-9.86055
▁setting	-9.86207
▁भागमा	-9.86227
▁त्रुटिः	-9.8628
▁v	-9.86292
pur	-9.8631
▁ढुङ्गा	-9.8633
▁wicked	-9.86354
▁copy	-9.86367
▁परिणाम	-9.86368
▁entry	-9.86369
▁अर्थतन्त्र	-9.86371
▁laid	-9.86376
▁सम्झौता	-9.86376
▁six	-9.86376
▁never	-9.8638
▁sight	-9.86389
▁building	-9.86438
त्त	-9.86475
au	-9.86495
कारी	-9.86508
▁limited	-9.86524
▁URL	-9.86542
▁विद्यार्थी	-9.86599
one	-9.86643
▁अनुकूल	-9.86647
▁रचना	-9.86651
▁rise	-9.86707
▁attention	-9.86752
▁वर्तमान	-9.86752
▁साँचो	-9.86752
▁regard	-9.86753
▁beginning	-9.86754
▁wait	-9.86848
हु	-9.8695
▁टुक्रा	-9.86954
▁सरकारको	-9.87121
▁14	-9.87134
▁यरूशलेममा	-9.87138
▁शाखा	-9.87142
▁त्यस्ता	-9.87172
▁ways	-9.87194
▁वेदी	-9.87227
▁देखिएको	-9.87243
va	-9.87273
दी	-9.87306
▁गति	-9.87328
िर	-9.87405
▁died	-9.87448
▁prices	-9.87459
▁रोक	-9.87501
he	-9.87505
▁revenue	-9.87526
▁सम्पादक	-9.87526
▁आधारभूत	-9.87529
▁भेला	-9.87543
▁संसार	-9.87589
▁names	-9.8759
बद्ध	-9.87615
▁देख	-9.87657
हर	-9.87713
▁भै	-9.87775
file	-9.87784
da	-9.87816
▁महत्व	-9.87908
▁चौडाइ	-9.87921
▁डिस्क	-9.87923
▁अभिव्यक्ति	-9.87927
▁employment	-9.87942
▁दास	-9.87951
▁enabled	-9.88039
▁Start	-9.88052
▁रहनेछ	-9.88098
j	-9.881
▁class	-9.88121
▁Jo	-9.88139
▁हि	-9.88171
▁kill	-9.8822
▁हर	-9.88285
▁Copy	-9.88303
▁kingdom	-9.88306
▁hope	-9.88307
▁mouse	-9.88309
▁खाद्य	-9.8831
▁किनकि	-9.8833
▁खुला	-9.88378
▁बिना	-9.88456
▁o	-9.88559
▁returned	-9.88613
▁कमी	-9.88613
▁GDM	-9.88698
▁believe	-9.88722
▁later	-9.88745
▁build	-9.88801
▁तर्क	-9.88905
▁base	-9.88984
▁भन्दै	-9.88996
▁लगाउन	-9.89019
▁आउँछ	-9.89059
▁enemies	-9.89091
▁महिमा	-9.89096
▁राजस्व	-9.89097
▁temple	-9.89102
▁अमेरिका	-9.89107
▁भौतिक	-9.89107
▁सर	-9.89111
▁खराब	-9.89116
▁gone	-9.89172
▁की	-9.89184
▁मुद्रा	-9.89219
▁मूल्यमा	-9.89236
▁mountain	-9.89273
▁icon	-9.89284
ge	-9.89371
▁none	-9.89372
▁natural	-9.89403
ns	-9.89436
▁wilderness	-9.89487
्नेछ	-9.89489
▁outside	-9.89528
▁गृह	-9.89536
▁सक्तैन	-9.89559
▁जमीन	-9.89585
▁deliver	-9.8962
ever	-9.89635
▁देशका	-9.89648
सु	-9.89652
ized	-9.89654
▁पञ्चायत	-9.89746
पाल	-9.89771
▁परिमार्जन	-9.89883
▁common	-9.89884
ाव	-9.89909
▁निकाय	-9.89955
▁range	-9.89977
▁हा	-9.90035
ard	-9.9005
▁Ne	-9.90089
▁stone	-9.90096
▁purpose	-9.90119
▁देखिन	-9.90133
▁सूचीमा	-9.90139
▁Indian	-9.90146
तर	-9.90218
▁समन्वय	-9.90273
▁energy	-9.90282
▁middle	-9.90282
▁पत्ता	-9.90305
▁writing	-9.90308
▁mentioned	-9.9035
▁क्या	-9.90379
क्	-9.90381
▁contact	-9.90486
▁प्रहरी	-9.90487
द्र	-9.90491
▁देवताहरू	-9.90498
ning	-9.90593
▁faith	-9.90594
▁transport	-9.90659
▁covenant	-9.90682
▁primary	-9.90682
▁छिटो	-9.90682
▁news	-9.90769
▁चढ	-9.90772
धि	-9.90785
▁link	-9.90799
▁Ka	-9.90829
▁सुन्दर	-9.90864
धार	-9.90909
▁विशेषता	-9.90928
▁दश	-9.91003
▁bank	-9.91016
ियन	-9.91048
पि	-9.91068
टन	-9.9108
▁maximum	-9.91084
▁खुट्टा	-9.91086
▁टाइप	-9.91105
▁movement	-9.91156
▁ask	-9.91241
डि	-9.91246
▁kings	-9.91247
▁character	-9.91298
ेट	-9.91314
▁members	-9.91328
नको	-9.91342
▁gate	-9.91348
ash	-9.91354
▁wine	-9.91377
टे	-9.9144
▁पहिचान	-9.91487
▁डाउनलोड	-9.91487
▁automatically	-9.91488
▁treatment	-9.91492
▁सम्झ	-9.91758
▁किसिमको	-9.91824
▁While	-9.91892
▁righteousness	-9.91905
▁स्मृति	-9.91905
▁दया	-9.91936
hu	-9.91949
▁प्रधान	-9.91981
▁स्थितिमा	-9.91994
▁प्रजातन्त्र	-9.92021
गो	-9.92069
नौ	-9.92142
▁उपेक्षा	-9.92298
▁invalid	-9.92298
▁संस्थान	-9.92362
▁मासु	-9.92395
com	-9.92401
▁conducted	-9.92455
▁Su	-9.92518
▁लगाउने	-9.92608
▁सक्दछ	-9.92678
ष्	-9.92698
▁मुद्रक	-9.92707
▁आठौं	-9.92715
▁week	-9.92829
▁Ca	-9.92954
▁१४	-9.92969
▁steps	-9.93012
▁समुद्र	-9.9302
▁ई	-9.93096
▁पाइन्छ	-9.93097
pi	-9.93102
",	-9.93105
▁specify	-9.93116
▁truth	-9.93116
▁yourself	-9.93116
▁दायरा	-9.93116
▁अघिल्लो	-9.93123
▁हुनुपर्दछ	-9.93143
ub	-9.9317
न्ट	-9.93175
▁spoken	-9.93242
▁बसे	-9.93282
▁fat	-9.93342
▁मन्दिरको	-9.93412
▁workers	-9.93462
▁अवसर	-9.93472
go	-9.93517
▁further	-9.93528
▁ज्यादै	-9.93529
▁सञ्चार	-9.93575
▁Mi	-9.93591
▁सुने	-9.93633
▁Son	-9.93662
▁व्यवसाय	-9.93785
ीन	-9.93816
▁Father	-9.93941
▁अध्यक्ष	-9.93945
▁Under	-9.93947
▁मारे	-9.93947
▁संचालन	-9.93987
▁पाना	-9.94006
▁क्षेत्रीय	-9.94036
▁रहन्छ	-9.94055
ow	-9.94072
▁निको	-9.94076
▁complete	-9.9414
▁सार्न	-9.94176
▁अन्तर	-9.94184
▁hold	-9.94189
म्प	-9.94244
▁letter	-9.9426
▁यहोशू	-9.94356
▁खानेपानी	-9.94357
▁एन	-9.94358
▁nature	-9.9436
▁participation	-9.9436
▁media	-9.94367
▁पर्न	-9.94369
▁अनेक	-9.9452
▁produce	-9.94529
▁expenditure	-9.94612
▁wall	-9.94626
▁कर्म	-9.94687
▁institutions	-9.94689
▁गर्छौ	-9.94729
▁ला	-9.94742
▁ध्वंश	-9.94772
▁itself	-9.94773
▁सहायक	-9.94774
▁context	-9.94775
▁तिनीहरु	-9.94779
▁हटाउनुहोस्	-9.94781
▁डे	-9.948
▁inside	-9.94801
▁wise	-9.94868
▁चित्र	-9.94878
▁center	-9.94895
▁कसैलाई	-9.94938
▁देखाउने	-9.9496
▁सफलता	-9.94969
▁serve	-9.94977
▁बालक	-9.94986
▁sign	-9.95085
▁air	-9.95115
▁tax	-9.95161
▁प्रायः	-9.95218
▁once	-9.9524
▁port	-9.95315
▁लेख्न	-9.95351
▁displayed	-9.95352
mb	-9.95368
▁Here	-9.95427
▁=	-9.9544
▁पङ्क्ति	-9.95457
ेक	-9.95534
▁river	-9.95574
▁righteous	-9.95601
▁fiscal	-9.95611
▁Although	-9.95634
▁स्थापित	-9.95644
ec	-9.95696
▁gathered	-9.9575
िलो	-9.95765
▁दियो	-9.95802
▁प्रा	-9.95866
ठा	-9.95887
▁correct	-9.95927
▁मो	-9.95983
mp	-9.9599
od	-9.96009
▁न्यून	-9.96143
▁मार	-9.96201
▁रूख	-9.96234
भि	-9.96331
िका	-9.96336
▁बिहान	-9.96391
ुर	-9.96395
यस	-9.96448
▁doing	-9.96451
▁असक्षम	-9.96473
▁GNOME	-9.96478
▁कुरामा	-9.96624
▁आँखा	-9.967
ian	-9.96704
▁Name	-9.96747
▁resource	-9.96747
बल	-9.96749
▁ch	-9.96764
▁पार्नु	-9.96802
▁reading	-9.96833
▁afraid	-9.96882
▁multitude	-9.96882
▁security	-9.96882
▁ट्याग	-9.96882
ay	-9.96904
▁entered	-9.96912
▁छेउमा	-9.96912
▁आम	-9.96954
▁Ta	-9.97002
ोल	-9.97026
ram	-9.97035
▁real	-9.97075
▁सङ्केतन	-9.97144
▁अप	-9.97157
▁fruit	-9.97164
▁पुर्याउने	-9.97205
▁room	-9.97244
▁ध	-9.97289
▁title	-9.97306
▁community	-9.97309
▁जिनोम	-9.9731
▁टगल	-9.97313
▁index	-9.97367
▁reduce	-9.97369
▁खोल	-9.9738
▁happen	-9.97411
▁really	-9.97418
▁organizations	-9.97512
दर	-9.97523
▁worship	-9.97541
▁balance	-9.97576
▁पठाउन	-9.9759
▁अफ	-9.9761
▁उनीहरु	-9.97615
▁persons	-9.97625
▁Babylon	-9.97739
▁Public	-9.97739
▁प्रत्यक्ष	-9.97739
िम	-9.97743
▁pressure	-9.97746
Behold	-9.97822
▁कार्यहरु	-9.97832
▁male	-9.97926
▁Why	-9.97931
▁बजारमा	-9.97936
ill	-9.97976
▁वे	-9.98015
▁ल्याउनु	-9.98114
▁frame	-9.98124
▁Solomon	-9.9817
▁रूपान्तरण	-9.9817
▁fell	-9.98178
▁छाड	-9.98229
▁Note	-9.98264
▁Ar	-9.98274
▁मन्दिरमा	-9.98319
▁better	-9.98379
▁थ	-9.98383
▁tool	-9.98435
▁ढोका	-9.98444
▁Server	-9.98603
▁Export	-9.98605
▁List	-9.98617
▁options	-9.98639
▁गएर	-9.98746
▁दिएका	-9.98813
▁बन्न	-9.98889
▁उन्नत	-9.98897
▁waters	-9.98925
▁उपभोक्ता	-9.99037
▁anything	-9.99038
▁भारतीय	-9.99068
▁princes	-9.99085
▁विकासका	-9.99215
▁contain	-9.99226
▁passed	-9.99307
▁survey	-9.99352
▁रे	-9.99362
फा	-9.99371
▁यौन	-9.9941
चार	-9.99469
▁मान्छे	-9.99475
▁जवान	-9.99491
▁Default	-9.99502
▁Po	-9.99555
जर	-9.99636
▁daughters	-9.99681
▁door	-9.99728
भरि	-9.99732
▁practice	-9.99794
▁audio	-9.99842
▁वाणिज्य	-9.99913
▁email	-9.99916
▁गई	-9.99917
▁छाला	-9.99917
▁प्रवाह	-9.99923
▁planning	-9.99936
र्क	-9.99977
▁कार्यक्रमको	-9.99981
▁भनिन्छ	-10.0007
▁पूजाहारीहरू	-10.0007
बु	-10.0008
▁नानीहरू	-10.0011
▁100	-10.0013
▁सम्बन्धमा	-10.0022
▁त्यसरी	-10.0027
▁types	-10.003
▁connect	-10.0035
▁ऊर्जा	-10.0035
▁विभाजन	-10.0035
▁निमित्त	-10.0041
land	-10.0042
▁लेवीहरू	-10.0043
han	-10.0046
▁सक्नु	-10.005
▁गाई	-10.0052
ेस	-10.0059
▁यु	-10.0063
@	-10.0066
▁कांग्रेस	-10.0068
▁houses	-10.0068
▁offerings	-10.0077
▁पैठारी	-10.008
▁Armies	-10.008
भा	-10.0087
▁constructed	-10.0091
▁आर	-10.0091
▁care	-10.0093
ुपर्छ	-10.0094
▁mighty	-10.0096
ring	-10.0107
▁element	-10.0114
▁थियौ	-10.0119
ib	-10.0121
▁Since	-10.0124
▁फिरऊन	-10.0124
▁commercial	-10.0124
▁अगुवाहरू	-10.0128
▁anger	-10.0128
▁प्रथम	-10.0134
▁हातमा	-10.014
▁दै	-10.0145
टि	-10.0148
▁स्थिर	-10.0152
▁रह	-10.0152
▁exist	-10.0155
▁उसका	-10.0157
▁मूर्तिहरू	-10.0165
▁पर्वत	-10.0165
▁हस्ताक्षर	-10.0169
▁सकिदैन	-10.0169
▁mo	-10.0169
▁अस	-10.017
bo	-10.0174
साथ	-10.0174
▁होस्ट	-10.0182
र्थ	-10.0183
ाले	-10.0187
▁सिंह	-10.0187
ions	-10.0188
▁जी	-10.0195
▁अव	-10.02
▁हट	-10.0203
हाल	-10.0209
▁domestic	-10.0213
▁पहाड	-10.0214
▁योजनाकालमा	-10.0215
▁सोधे	-10.0216
▁Most	-10.022
▁मूर्ख	-10.0227
▁पु	-10.0235
▁बाहेक	-10.0239
ेज	-10.0239
▁स्वत	-10.0242
▁त्यसमा	-10.0254
क्रम	-10.0258
▁आशीर्वाद	-10.0259
▁विनिमय	-10.0259
्म	-10.0263
▁View	-10.0267
po	-10.0272
▁Print	-10.028
▁सर्भरमा	-10.0281
▁पानीको	-10.0286
रण	-10.0287
▁लुक	-10.029
▁स्ट	-10.0294
▁stock	-10.0295
▁Na	-10.0297
▁सोच	-10.03
▁अनुसरण	-10.0304
▁पूँजी	-10.0304
▁अनुपात	-10.0304
▁पत्रुस	-10.0304
▁paper	-10.0304
▁स्तरमा	-10.0307
▁हुनसक्छ	-10.0307
पट्टि	-10.0314
▁filled	-10.0317
;)	-10.0319
▁फोल्डरमा	-10.0322
्दैन	-10.0328
▁सन्देशहरू	-10.033
▁प्रकाश	-10.0332
न्स	-10.0335
▁hospital	-10.0341
▁strength	-10.0347
▁Invalid	-10.0349
▁families	-10.0349
▁studies	-10.0349
▁Choose	-10.0349
ell	-10.0351
▁लगाउनुहोस्	-10.0351
▁Photo	-10.0351
▁अज्ञात	-10.0353
▁फाइलनाम	-10.0355
ron	-10.0355
▁घृणा	-10.0365
ca	-10.0366
स्क	-10.0366
▁दर्शन	-10.0376
▁raise	-10.0379
वार	-10.039
▁उनीहरूको	-10.0391
▁expansion	-10.0395
▁च्यानल	-10.0395
▁बतायो	-10.0395
▁छनौट	-10.0395
▁खरिद	-10.0395
▁ध्वनि	-10.0395
▁memory	-10.0395
▁agreement	-10.0396
con	-10.0396
लु	-10.0399
ile	-10.04
▁height	-10.0401
▁कूल	-10.0403
ld	-10.0404
J	-10.0406
use	-10.0409
ac	-10.041
▁संग	-10.0415
▁delivered	-10.0418
▁plant	-10.0418
ga	-10.0422
▁removed	-10.0425
ue	-10.0426
▁remain	-10.0431
ँदै	-10.0432
▁Pharaoh	-10.0441
▁sister	-10.0441
▁पूर्वावलोकन	-10.0441
▁कुञ्जीपाटी	-10.0441
▁General	-10.0442
▁घुम	-10.0452
▁Ex	-10.0453
▁पल्ट	-10.0454
▁सन्तानहरू	-10.0455
▁रुको	-10.0455
▁शहरको	-10.046
▁मार्फत	-10.0467
▁दृष्टिकोण	-10.0468
वी	-10.0477
िज	-10.0478
▁स्व	-10.0483
▁Cha	-10.0489
▁bottom	-10.049
▁उहाँका	-10.0494
▁lead	-10.0494
ञ्ज	-10.0495
पो	-10.0505
▁rights	-10.0509
्यु	-10.0512
▁पुग्ने	-10.0515
▁प्ले	-10.0525
▁lay	-10.0528
त्र्चाइ	-10.0531
▁hidden	-10.0533
▁cover	-10.0534
▁दैनिक	-10.0534
▁अधिक	-10.0535
▁गुणस्तर	-10.0536
▁व्यक्तिगत	-10.0537
▁सञ्झ्यालमा	-10.0541
▁उड	-10.0547
▁छैनौ	-10.0553
जे	-10.0561
४९	-10.0572
शी	-10.0574
▁एक्स	-10.0577
▁plans	-10.0579
▁deficit	-10.058
▁सुन्न	-10.0583
▁throughout	-10.0583
▁big	-10.0585
▁वेब	-10.0585
राज	-10.0588
बे	-10.0589
▁शि	-10.06
▁input	-10.0613
▁Project	-10.062
▁certificate	-10.062
▁काठ	-10.0621
्रे	-10.0624
▁अन्त	-10.0625
▁lives	-10.0626
▁camp	-10.0626
▁husband	-10.0626
▁प्रशासक	-10.0626
▁Folder	-10.0626
▁preview	-10.0627
▁लाग्यो	-10.0628
▁अर्का	-10.0628
▁टिप्पणी	-10.0628
▁panel	-10.063
▁बलियो	-10.0632
▁Delete	-10.0635
्ला	-10.0637
▁raised	-10.0643
।"'	-10.0644
▁makes	-10.0652
▁Mar	-10.0652
▁(#	-10.0653
▁Le	-10.0665
▁रद्द	-10.0673
▁structure	-10.0673
▁फाइदा	-10.0673
▁मर्मत	-10.0673
▁नारी	-10.0677
▁"'	-10.0679
▁प्रकाशित	-10.068
quot	-10.0686
▁held	-10.0689
▁press	-10.069
ङ्क	-10.0691
ap	-10.0692
▁points	-10.0694
▁often	-10.0698
▁मुक्त	-10.0707
▁पर्खाल	-10.0711
▁Levites	-10.0721
▁master	-10.0721
ble	-10.0725
▁ट्रयाक	-10.0726
ner	-10.0732
▁Con	-10.0741
मैले	-10.0746
▁original	-10.0746
ice	-10.0754
र्म	-10.0758
्ति	-10.0759
▁gives	-10.076
ुवा	-10.0766
▁extension	-10.0768
▁आधुनिक	-10.0768
▁सामाग्री	-10.0768
देशिक	-10.0769
wa	-10.0769
▁theme	-10.0774
▁scale	-10.0777
▁पढ	-10.0779
▁disciples	-10.078
▁1,	-10.0781
▁km	-10.079
▁accept	-10.0794
▁माध्यम	-10.0794
▁employees	-10.0794
ja	-10.0801
▁milk	-10.0816
▁giving	-10.0816
▁टाउको	-10.0816
▁बजेट	-10.0819
▁objects	-10.0826
▁fields	-10.0827
▁दिएर	-10.0831
cent	-10.0838
▁Or	-10.0851
▁उपलव्ध	-10.0855
▁5.	-10.0855
▁बु	-10.0856
▁content	-10.086
ran	-10.086
iah	-10.0863
▁फाँट	-10.0863
▁मौसम	-10.0863
▁हप्ता	-10.0863
▁दिई	-10.0865
▁प्राकृतिक	-10.0865
▁राख्नुहोस्	-10.0866
▁साथी	-10.0866
▁Japan	-10.0868
▁मानहरू	-10.0869
.'"	-10.0873
▁best	-10.0883
दो	-10.0885
▁needed	-10.0885
men	-10.0889
▁feed	-10.089
▁सहित	-10.0906
▁Key	-10.0908
▁saving	-10.0908
ities	-10.0909
▁birth	-10.0911
▁सङ्ग्रह	-10.0911
हार	-10.0911
▁credit	-10.0912
▁promotion	-10.0913
▁folders	-10.0919
▁सिक	-10.0923
▁li	-10.0924
What	-10.0925
▁Mo	-10.0929
▁गरेमा	-10.0939
▁limit	-10.094
▁तराई	-10.0943
If	-10.0944
▁Make	-10.0945
▁आएर	-10.095
ization	-10.0951
▁method	-10.0957
▁उमेर	-10.0958
▁enough	-10.096
▁wrong	-10.096
▁भइसकेको	-10.096
▁kindness	-10.0962
▁बाँध	-10.0962
▁लेखिएको	-10.0965
▁schools	-10.0969
▁gods	-10.097
▁सैनिकहरू	-10.0972
▁रहेछ	-10.0974
▁चोट	-10.0977
▁test	-10.0984
▁चाहिं	-10.0986
▁कमजोर	-10.0987
▁पार्टी	-10.1002
▁भविष्यमा	-10.1005
▁urban	-10.1008
▁क्रियाकलाप	-10.1008
▁करीब	-10.1008
▁condition	-10.1009
▁मल	-10.1009
▁छाउनी	-10.1009
▁fine	-10.1012
▁north	-10.1014
▁visible	-10.1015
▁मेट	-10.1026
▁buy	-10.1028
▁गर्थे	-10.1043
ेन्ट	-10.1045
▁caused	-10.1046
▁allowed	-10.1048
▁regions	-10.1048
▁CD	-10.1055
▁job	-10.1055
▁Configure	-10.1057
▁companies	-10.1057
▁तसर्थ	-10.1057
▁किलोमिटर	-10.1057
▁कस्तो	-10.1058
▁दो	-10.1058
▁undertaken	-10.1058
▁objective	-10.106
▁खडा	-10.1065
ाउनुहोस्	-10.1075
pr	-10.1081
▁visit	-10.1086
▁पर्नेछ	-10.1092
▁alarm	-10.1105
metric	-10.1106
▁People	-10.1106
▁सन्दूक	-10.1106
old	-10.1108
▁stop	-10.1108
▁जरुरी	-10.1108
▁निश्चय	-10.1108
▁System	-10.1109
▁नहुने	-10.1113
▁चिनो	-10.1113
▁पछाडि	-10.1117
▁सेवक	-10.1117
▁Philistines	-10.1119
▁बालबालिका	-10.1133
ep	-10.1133
्ती	-10.1135
िनु	-10.1142
▁Ram	-10.1144
▁understanding	-10.1144
ऊ	-10.1151
▁question	-10.1155
”	-10.1155
▁decision	-10.1155
▁नमूना	-10.1155
▁दाखरस	-10.1155
▁“	-10.1156
▁गुप्त	-10.1159
परमप्रभु	-10.116
▁wood	-10.1164
▁लाभ	-10.1166
▁दिनको	-10.1167
▁पुर्याउन	-10.1168
▁Jews	-10.1174
su	-10.1175
▁किसिमका	-10.1175
▁colors	-10.1175
0,000	-10.1178
▁sat	-10.119
▁थिएनन्	-10.1191
▁किनारा	-10.1191
▁annual	-10.1197
▁भनि	-10.1197
▁fast	-10.1197
▁Y	-10.1198
▁जनशक्ति	-10.12
▁length	-10.1205
▁valley	-10.1205
▁टेम्प्लेट	-10.1205
▁बिरामी	-10.1205
▁respect	-10.1205
▁रोज्नुहोस्	-10.1206
▁पारिएको	-10.121
▁कदम	-10.1219
▁animals	-10.1228
ोर	-10.1236
▁sexual	-10.1246
बो	-10.1247
▁difficult	-10.1247
▁Fourth	-10.1255
▁story	-10.1255
▁en	-10.1255
▁permission	-10.1256
▁भण्डारण	-10.1256
day	-10.1258
▁white	-10.1259
▁rupees	-10.1261
▁किसान	-10.1274
▁printer	-10.1281
▁Ho	-10.1284
qu	-10.1292
▁greater	-10.1297
▁custom	-10.1301
पर्छ	-10.1301
▁सर्व	-10.1302
▁flow	-10.1303
ाउँछन्	-10.1304
▁neighbor	-10.1305
▁विरोध	-10.1305
▁Message	-10.1305
▁average	-10.1305
▁alone	-10.1305
▁expression	-10.1306
▁width	-10.1308
10	-10.1314
▁पोर्ट	-10.1315
▁धार्मिक	-10.1327
▁hectares	-10.1332
ाह	-10.1355
▁assembly	-10.1355
▁providing	-10.1355
▁occurred	-10.1355
▁ताकि	-10.1356
्छौ	-10.1366
▁bad	-10.1368
▁शहरी	-10.1372
▁थाल	-10.1374
ुन	-10.1377
▁banks	-10.1379
▁रोप	-10.1385
यन	-10.1386
▁l	-10.1389
▁stay	-10.139
▁लिए	-10.1399
▁trying	-10.1401
▁17	-10.1404
▁similar	-10.1405
▁budget	-10.1405
▁Those	-10.1406
▁बताउनुभयो	-10.1406
▁skin	-10.1407
▁single	-10.1408
▁sold	-10.1412
न्ज	-10.1414
▁सोध	-10.1416
▁Many	-10.1418
पूर्वक	-10.1432
▁remember	-10.1437
िङ्ग	-10.1439
▁Time	-10.1441
▁US	-10.1441
▁desire	-10.1442
▁model	-10.1455
ाहरू	-10.1456
▁creation	-10.1456
▁especially	-10.1456
▁iniquity	-10.1456
▁वैज्ञानिक	-10.1456
▁archive	-10.1456
▁क्रमबद्ध	-10.1457
▁ग्रहण	-10.1457
▁हुनुहुन्थ्यो	-10.1459
सक	-10.146
▁ब्राउजर	-10.1461
▁एम	-10.1469
▁भि	-10.147
▁improved	-10.1472
▁भनेका	-10.1482
▁mountains	-10.1483
▁निर्	-10.1483
▁conduct	-10.1487
▁enable	-10.1493
ुपर्ने	-10.1503
▁ऐन	-10.1503
▁भी	-10.1503
▁labor	-10.1505
▁taking	-10.1507
▁२०४८	-10.1508
▁जानुहोस्	-10.1509
▁immediately	-10.1509
▁खु	-10.1511
स्व	-10.1512
▁foot	-10.1512
▁अधिराज्य	-10.1514
▁नोकर	-10.1519
▁छोडे	-10.152
▁script	-10.1522
▁फर्केर	-10.1522
over	-10.1523
▁shows	-10.1533
▁जु	-10.1533
▁y	-10.1538
▁तुलनामा	-10.1543
▁upon	-10.1546
▁हुनेछैन	-10.1556
▁Abraham	-10.1558
▁course	-10.1558
▁नक्कल	-10.1559
▁फिल्ड	-10.1559
▁inheritance	-10.1559
▁sheep	-10.1561
▁disc	-10.1561
▁drop	-10.1561
▁broken	-10.1562
▁generation	-10.1562
्त	-10.1563
▁disk	-10.1564
▁cell	-10.1564
▁7.	-10.1565
▁घण्टा	-10.1569
▁वस्तुको	-10.1577
▁determine	-10.1578
▁भएकाले	-10.1578
ju	-10.1585
▁handle	-10.1588
▁goes	-10.1592
▁लगाए	-10.1597
▁proper	-10.1602
▁issue	-10.1604
▁prophets	-10.1605
▁administrative	-10.161
▁wisdom	-10.161
▁चाहन्छु	-10.1615
त्व	-10.1616
▁चालु	-10.1623
▁फाइलको	-10.1624
मय	-10.1634
दै	-10.1635
▁destroyed	-10.1638
▁खानु	-10.1642
▁मार्न	-10.1643
▁गराइनेछ	-10.1648
▁checked	-10.1651
▁modern	-10.1662
▁दुबै	-10.1662
▁पुस्तिका	-10.1664
ङ्	-10.1665
व्य	-10.1666
▁त्यसबेला	-10.1666
▁praise	-10.1666
▁खोज	-10.167
▁wind	-10.1671
way	-10.1671
क्क	-10.1672
▁प्रकाशन	-10.1681
सं	-10.169
▁ago	-10.169
▁गते	-10.1694
nd	-10.1704
▁तयारी	-10.1709
▁shares	-10.1713
▁Joseph	-10.1714
▁दूध	-10.1714
▁सहभागी	-10.1714
▁Also	-10.1714
▁अभियान	-10.1714
▁prophet	-10.1719
▁गरिनु	-10.1727
BAR	-10.1733
set	-10.1743
वे	-10.1743
▁सार	-10.175
▁बो	-10.1754
ton	-10.1755
▁evening	-10.1765
▁external	-10.1766
▁IMAP	-10.1766
▁सर्वेक्षण	-10.1766
▁either	-10.1767
▁charge	-10.1767
▁धन्यवाद	-10.1767
▁माथिल्लो	-10.1767
▁objectives	-10.1768
▁collection	-10.1769
▁सबभन्दा	-10.1772
der	-10.1776
▁included	-10.1778
▁सैनिक	-10.1789
▁sell	-10.1793
▁sources	-10.1794
▁१७	-10.1801
▁rule	-10.1805
mm	-10.1806
▁@	-10.1808
▁निरन्तर	-10.1809
युक्त	-10.1815
▁First	-10.1819
▁सृष्टि	-10.1819
▁music	-10.1819
▁झूटो	-10.182
▁थिइन्	-10.1821
▁पठाउनु	-10.1826
▁eye	-10.1826
▁रह्यो	-10.1827
▁subject	-10.1827
▁Ctrl	-10.1828
▁follow	-10.1829
les	-10.1832
ama	-10.1835
▁draw	-10.1836
▁teaching	-10.184
20	-10.184
चर	-10.1841
▁watch	-10.1844
ee	-10.1848
▁protect	-10.1851
▁joy	-10.1857
▁जिल्लामा	-10.1871
▁poverty	-10.1872
▁प्रतिक्रिया	-10.1872
▁संसद	-10.1872
▁ताल्चा	-10.1872
▁प्रतिस्थापन	-10.1872
▁परास्त	-10.1873
▁सालमा	-10.1874
▁स्प	-10.1879
▁सह	-10.1879
▁फि	-10.188
▁अलग	-10.1882
शि	-10.1882
▁मुख	-10.1882
▁led	-10.1882
▁ब्र	-10.1883
▁जसर	-10.1888
▁एकल	-10.1888
▁क्यास	-10.1889
▁won	-10.189
▁covered	-10.1894
▁भा	-10.1895
▁affect	-10.1902
▁अहिलेसम्म	-10.1904
nu	-10.1905
▁सम्	-10.1909
▁force	-10.191
▁बी	-10.191
▁राम	-10.1911
io	-10.1912
▁उपयोगी	-10.1918
▁simple	-10.1921
००	-10.1921
▁Toggle	-10.1925
▁enemy	-10.1925
▁entire	-10.1925
▁आन्दोलन	-10.1925
▁tourism	-10.1925
▁seem	-10.1926
bar	-10.1928
▁seeds	-10.1928
▁कोष	-10.1928
▁पुरुष	-10.1928
▁बनाई	-10.193
▁पुल	-10.1932
▁यिनीहरू	-10.1933
लिन	-10.1937
▁धनी	-10.1942
ki	-10.1942
▁code	-10.1943
▁Ro	-10.1954
▁चाह	-10.1958
▁राजालाई	-10.1958
▁मन्त्री	-10.196
▁improve	-10.1961
▁inter	-10.1965
▁सुरू	-10.1965
▁अंग	-10.197
िदिए	-10.1972
▁यहूदी	-10.1972
▁जसमा	-10.1976
▁specific	-10.1976
▁Department	-10.1978
▁yourselves	-10.1978
▁प्यानल	-10.1978
▁संगठन	-10.1978
▁सजिलो	-10.1978
▁रेकर्ड	-10.1978
▁rose	-10.1979
▁looking	-10.198
▁`%.25	-10.1981
ari	-10.1985
▁ma	-10.1985
क्र	-10.1985
छौं	-10.1991
थ्यो	-10.1998
▁बनाएको	-10.1998
भाइहरू	-10.1998
्री	-10.2004
?'	-10.2007
▁अङ्क	-10.2011
▁row	-10.2013
ोस	-10.2014
▁औ	-10.2015
▁See	-10.2018
▁Vi	-10.2019
▁rules	-10.2024
▁arrangements	-10.2027
▁honor	-10.2032
▁judgment	-10.2032
▁minister	-10.2032
▁अशुद्ध	-10.2032
▁समायोजन	-10.2032
▁साझा	-10.2032
▁साह्रै	-10.2032
▁स्थायी	-10.2032
▁lost	-10.2033
▁लोक	-10.2037
▁बादल	-10.2038
▁early	-10.2039
▁तथ्याङ्क	-10.2041
▁क्रोध	-10.2042
▁committee	-10.2042
tan	-10.2049
▁परेका	-10.2053
कृत	-10.2054
▁चलाउन	-10.2057
धन	-10.2062
एन	-10.2064
▁prepare	-10.2065
▁क्षेत्रका	-10.207
▁ha	-10.2081
▁Pro	-10.2085
गी	-10.2086
▁अभ्यास	-10.2086
▁होमबलि	-10.2086
▁something	-10.2087
▁chosen	-10.2088
▁conditions	-10.2089
▁जहाज	-10.2089
▁पुरा	-10.2092
ेड	-10.2098
▁offices	-10.2102
▁हिंड	-10.2104
▁teachers	-10.2108
▁match	-10.2108
ng	-10.2109
nt	-10.2114
ster	-10.2114
▁सल्लाह	-10.2129
साथै	-10.2136
पट्टी	-10.2139
▁behind	-10.2141
▁नागरिक	-10.2141
▁अपेक्षा	-10.2141
▁central	-10.2141
▁राजमार्ग	-10.2141
▁पुग्यो	-10.2142
▁बीउ	-10.2143
▁नगर्नुहोस्	-10.2144
▁anyone	-10.2145
▁पुस्तकचिनो	-10.2146
▁editor	-10.2148
पात	-10.2149
▁adopted	-10.215
▁Unit	-10.215
▁पार्छ	-10.2154
▁tons	-10.2155
▁माटो	-10.2157
ping	-10.2161
▁गराई	-10.2161
▁स्त्रीहरू	-10.2162
▁रङ्ग	-10.2166
▁बाटोमा	-10.2166
कन	-10.2167
▁carry	-10.2168
वल	-10.2177
▁पृथ्वीमा	-10.2179
तिमीहरू	-10.2185
िएर	-10.2191
▁sit	-10.2194
▁Third	-10.2195
▁राष्टिँ्रय	-10.2195
▁औसत	-10.2195
▁communication	-10.2196
▁filename	-10.2201
▁मूर्ति	-10.2206
▁channel	-10.221
फाइल	-10.2212
▁विरुद्ध	-10.2213
रिया	-10.2214
year	-10.2215
ेश	-10.2217
red	-10.222
▁सामान	-10.2221
▁जापानी	-10.2228
▁अवधि	-10.2241
▁science	-10.225
▁न्यूनतम	-10.2251
bi	-10.2251
▁experience	-10.2251
▁साहित्य	-10.2252
▁युवा	-10.2253
▁organized	-10.2254
▁भु	-10.2255
▁ठान	-10.2257
▁comp	-10.2259
एका	-10.2263
point	-10.227
cha	-10.2279
▁तार	-10.228
▁बज	-10.2281
िला	-10.2287
र्य	-10.2289
▁दोष	-10.2291
▁Te	-10.2291
▁Ha	-10.2293
सार	-10.2293
▁likely	-10.2295
▁क्षेत्रलाई	-10.2301
ानी	-10.2305
▁Commission	-10.2305
▁culture	-10.2305
▁several	-10.2305
▁ठाडो	-10.2305
.147	-10.2306
▁परीक्षा	-10.2306
▁सपना	-10.2307
जु	-10.2307
▁पद्धति	-10.2309
▁contents	-10.2309
esh	-10.2315
▁शिक्षाको	-10.2315
▁portion	-10.2318
▁बोट	-10.2319
्वा	-10.2321
▁चाड	-10.2326
वर	-10.2327
कार्य	-10.233
▁व्यवस्थाको	-10.2331
▁Inc	-10.2334
▁event	-10.2341
▁com	-10.2346
▁भोग	-10.2347
▁vi	-10.235
▁परिवर्तनहरू	-10.235
▁कागज	-10.2361
▁religion	-10.2361
▁staff	-10.2361
▁terminal	-10.2361
▁अय्यूब	-10.2361
▁टर्मिनल	-10.2361
▁छलफल	-10.2361
▁गठन	-10.2361
▁तत्काल	-10.2362
▁शहरका	-10.2364
▁40	-10.2368
▁आगत	-10.2372
▁election	-10.2373
५०	-10.2374
२०	-10.2377
ie	-10.2382
▁measures	-10.2385
ten	-10.2387
जब	-10.2388
▁Sha	-10.2393
▁Remove	-10.2407
▁cent	-10.2407
▁pa	-10.2413
▁कम्पनीले	-10.2413
▁उस	-10.2413
▁Evolution	-10.2417
▁सर्टकट	-10.2417
▁daily	-10.2417
▁योगदान	-10.2417
▁हत्या	-10.242
und	-10.2438
▁followed	-10.2438
▁छुट	-10.2438
पहिलो	-10.2438
ide	-10.2442
chi	-10.2442
ँच	-10.2445
▁पे	-10.2445
▁बच्चा	-10.245
▁पारे	-10.2457
▁कानुन	-10.246
▁देखिने	-10.2461
▁तपाईँसँग	-10.2462
▁कुञ्जीहरू	-10.2466
▁pieces	-10.2471
▁groups	-10.2473
▁Prasad	-10.2473
▁opportunities	-10.2473
▁respectively	-10.2473
▁Number	-10.2473
▁थिच्नुहोस्	-10.2473
▁review	-10.2474
▁आगाम	-10.2478
▁electricity	-10.2479
ise	-10.248
▁राजनीतिक	-10.2484
▁hide	-10.2488
▁आयोजनाहरुको	-10.2488
▁मापन	-10.249
▁रहनु	-10.2499
▁मोडमा	-10.2504
▁दिन्छु	-10.2505
▁क्षमा	-10.2507
▁execute	-10.2513
▁रोक्न	-10.2514
▁निकायहरु	-10.252
▁चाहे	-10.252
▁रुपैया	-10.2524
▁Wa	-10.2525
▁हवाई	-10.253
▁मोड्युल	-10.253
▁अधिलेखन	-10.253
▁अनुगमन	-10.253
▁एलीशा	-10.253
▁साँच्चै	-10.2531
▁ones	-10.2531
करण	-10.2532
▁उपहार	-10.2538
eg	-10.2544
रहित	-10.2549
▁बच	-10.2561
term	-10.2566
▁सेवाको	-10.2567
ual	-10.2571
▁चाहेको	-10.258
▁कठिन	-10.2582
▁सरल	-10.2582
▁भिन्न	-10.2583
▁multi	-10.2586
▁Joshua	-10.2586
▁Switch	-10.2586
▁battle	-10.2586
▁यूहन्ना	-10.2586
▁shortcut	-10.2587
▁विकसित	-10.2588
▁गरिनेछन्	-10.259
▁board	-10.2598
▁http	-10.2598
लाइ	-10.2602
ries	-10.2603
▁भयोः	-10.2607
सहित	-10.2609
▁Mark	-10.2615
▁आयोग	-10.2616
▁net	-10.2618
▁द्रष्टव्य	-10.2624
▁except	-10.2631
▁art	-10.2638
▁प्रसार	-10.2643
▁Filter	-10.2644
▁module	-10.2644
▁twelve	-10.2644
▁विश्लेषण	-10.2644
▁कलाकार	-10.2646
िभ	-10.2646
देश	-10.2647
▁published	-10.2649
▁कार्ड	-10.2652
▁सफा	-10.2656
▁लागत	-10.2656
द्द	-10.2662
▁पेट	-10.2667
▁direct	-10.267
▁बढाउने	-10.2672
▁हुँदैछ	-10.2676
▁गराउनु	-10.2676
द्य	-10.2677
▁product	-10.2679
▁पुननामकरण	-10.2701
▁प्रवर्द्धन	-10.2701
▁यर्दन	-10.2701
▁wrath	-10.2701
▁दर्ता	-10.2702
▁परम्परागत	-10.2702
▁direction	-10.2708
▁ca	-10.2712
▁ज्ञानी	-10.2722
▁बढ्दै	-10.2724
्नुभयो	-10.2733
sha	-10.2735
▁drive	-10.2737
ें	-10.2738
▁हेक्टर	-10.2743
ंक	-10.2749
▁responsibility	-10.2759
▁चाँडै	-10.2759
▁ह्यान्डल	-10.2759
▁judge	-10.2759
▁चारैतिर	-10.276
▁गुरु	-10.276
▁gradually	-10.2761
▁record	-10.2761
▁समूहका	-10.2763
▁establish	-10.2768
▁प्रोत्साहन	-10.2773
▁बीचको	-10.2773
law	-10.2777
▁उपाय	-10.2779
▁applications	-10.2784
▁details	-10.2784
▁मत	-10.2785
लग	-10.2785
▁Am	-10.2788
▁पुग	-10.2811
aka	-10.2817
▁Second	-10.2817
▁South	-10.2817
▁Terai	-10.2817
▁thirty	-10.2817
▁क्लिपबोर्ड	-10.2817
▁दाहिने	-10.2817
▁profit	-10.2818
▁मेट्नुहोस्	-10.2819
▁धेरैजसो	-10.282
▁savings	-10.2821
▁Send	-10.2824
30	-10.2828
▁नदीको	-10.2831
▁जग	-10.2835
▁समाज	-10.2839
हामी	-10.2841
ung	-10.2849
ट्	-10.285
▁राजाहरू	-10.285
▁फैल	-10.2858
app	-10.286
▁देवता	-10.286
हेर	-10.2868
▁लेवी	-10.2868
▁Japanese	-10.2875
▁encoding	-10.2875
▁president	-10.2875
▁उचाइ	-10.2875
▁Health	-10.2875
▁वर्षसम्म	-10.2877
bu	-10.2877
पुर्खाहरू	-10.2877
▁rain	-10.2894
▁कार्यको	-10.2896
▁छः	-10.2897
ँदा	-10.2901
▁सू	-10.2906
याह	-10.2907
ging	-10.2907
let	-10.2916
▁बैठक	-10.2918
▁पुगे	-10.2921
▁संसारमा	-10.2929
▁स्	-10.2931
▁loss	-10.2931
क्ट	-10.2933
▁पर्ख	-10.2933
▁Committee	-10.2934
▁rather	-10.2934
▁विजय	-10.2934
▁block	-10.2935
▁south	-10.2936
▁sacrifice	-10.2936
▁सहमति	-10.2939
ञ्च	-10.294
ून	-10.2941
▁योजनावधिमा	-10.2945
▁inhabitants	-10.2947
▁दाख	-10.2948
▁कार्यक्रममा	-10.2949
org	-10.2955
▁surely	-10.2957
▁अनुरुप	-10.2958
सर	-10.2962
ara	-10.2967
▁ँ	-10.2969
ped	-10.2983
▁मरे	-10.2984
▁म्या	-10.2987
स्थान	-10.2988
▁High	-10.2993
▁Jordan	-10.2993
▁dream	-10.2993
▁facility	-10.2993
▁प्रशिक्षण	-10.2994
▁स्कूल	-10.2994
▁fight	-10.2994
▁बर्ष	-10.2994
▁कतै	-10.2995
▁मौलिक	-10.2997
▁लड	-10.2999
▁सुनको	-10.3001
▁implement	-10.3002
ल्ड	-10.3003
▁trees	-10.3003
हरुबाट	-10.3007
▁समक्ष	-10.301
नाथ	-10.3012
▁pattern	-10.3013
▁disabled	-10.3014
▁बुझ्न	-10.3017
▁राखेको	-10.3018
लगायत	-10.3018
▁भएकोछ	-10.302
▁stones	-10.3023
rate	-10.3027
▁gather	-10.3033
type	-10.3036
▁store	-10.3037
▁सीप	-10.304
▁6.	-10.3044
▁attribute	-10.3053
▁घरेलु	-10.3053
▁योआब	-10.3053
▁Find	-10.3053
▁व्यक्तिहरू	-10.3054
▁१००	-10.3055
▁दुइवटा	-10.3056
▁मोआब	-10.3056
▁friends	-10.3056
▁हेर्दा	-10.3057
▁देखाउनु	-10.3065
▁गरेनन्	-10.3072
सो	-10.3073
▁panchayat	-10.3073
▁प्रणालीमा	-10.3079
▁member	-10.3081
▁ट्रे	-10.3089
▁Si	-10.3094
▁४०	-10.3097
▁बेर	-10.3097
पे	-10.3101
▁numbers	-10.3101
led	-10.3106
्ग	-10.3108
▁widget	-10.3113
▁अस्थायी	-10.3113
▁सन्तुलन	-10.3113
▁Text	-10.3113
▁कारखाना	-10.3113
▁रेडियो	-10.3113
▁बढ्दो	-10.3114
▁मानसिक	-10.3114
▁Out	-10.3115
▁dry	-10.3117
▁Group	-10.3117
str	-10.3117
▁सेनाहरू	-10.3119
gi	-10.3119
▁mark	-10.3123
▁मृत	-10.3125
▁parse	-10.3127
▁हुनेछौ	-10.3128
▁स्वस्थ	-10.3134
▁track	-10.3135
स्थित	-10.3135
ability	-10.3138
▁कुना	-10.3138
▁tribe	-10.3141
मार्फत	-10.3143
▁unit	-10.3144
▁राष्ट्रहरू	-10.316
▁उद	-10.316
▁नव	-10.3166
▁प्रारम्भ	-10.317
▁strike	-10.3173
▁यद्यपि	-10.3173
▁लाइब्रेरी	-10.3173
▁medium	-10.3173
▁`'	-10.3176
▁forward	-10.3178
्याक	-10.3187
we	-10.3188
▁गर्नुपर्दछ	-10.3189
▁बचाउनु	-10.3196
▁grow	-10.3199
fi	-10.3202
्रि	-10.3202
▁fail	-10.3215
▁levels	-10.3216
▁Raj	-10.3218
▁बनेको	-10.3223
फ्	-10.3224
▁Bha	-10.3226
▁एल्बम	-10.3234
▁संकलन	-10.3234
▁घाटा	-10.3234
▁नक्सा	-10.3234
▁Other	-10.3234
▁keyboard	-10.3234
▁सहभागिता	-10.3235
▁eating	-10.3236
▁protection	-10.3237
▁नसक्ने	-10.3238
▁involved	-10.3242
▁चालू	-10.3244
▁login	-10.3245
नेछन्	-10.3253
▁defined	-10.3255
▁San	-10.3255
):	-10.3259
▁En	-10.3269
▁longer	-10.327
▁वस्तुहरुको	-10.3274
▁trust	-10.3275
ps	-10.3281
▁निर्भर	-10.3282
▁गरेपछि	-10.3285
▁रा	-10.3288
▁छाप	-10.3291
▁bodies	-10.3295
▁proposed	-10.3295
▁विशाल	-10.3295
▁front	-10.3295
▁भ्रमण	-10.3295
▁सेतो	-10.3295
▁छविहरू	-10.3296
▁गरिए	-10.3298
▁request	-10.3298
▁thought	-10.3298
ेन्स	-10.3303
▁fixed	-10.3306
▁statement	-10.3306
▁ID	-10.3307
▁step	-10.3311
▁अभि	-10.3312
▁वितरणको	-10.3312
▁लिनु	-10.3314
▁traditional	-10.3315
यी	-10.3319
▁soon	-10.3322
▁elders	-10.3323
▁meal	-10.3328
▁weak	-10.3329
▁दु	-10.3333
▁packages	-10.3335
▁burn	-10.3349
▁Education	-10.3356
▁यूआरएल	-10.3356
▁clipboard	-10.3356
▁अधिकांश	-10.3356
▁कुराकानी	-10.3356
▁भावना	-10.3361
▁सम्भाव्यता	-10.3362
▁लाग	-10.3364
▁संस्थानहरु	-10.3366
्ना	-10.3366
▁auto	-10.3369
gh	-10.3371
ुभएको	-10.3371
▁%(	-10.3382
▁विमानस्थल	-10.3388
▁feel	-10.3391
▁reign	-10.3399
र्ट	-10.3407
▁recent	-10.3413
▁easy	-10.3418
▁आम्दानी	-10.3418
▁Exchange	-10.3418
▁May	-10.3419
▁template	-10.3421
▁volume	-10.3421
ava	-10.3423
time	-10.3426
▁रातो	-10.3432
▁pixels	-10.3435
▁presented	-10.3435
ाक	-10.3435
डो	-10.3438
मूलक	-10.3438
▁अञ्चल	-10.344
▁शिर	-10.3441
▁Ab	-10.3443
▁deleted	-10.3449
यु	-10.3454
▁Lo	-10.3459
▁बढेको	-10.3462
▁वर्ण	-10.3469
▁रि	-10.3473
▁हावा	-10.3474
▁डाक्टर	-10.348
▁बाह्र	-10.348
▁उपकरणपट्टी	-10.3481
▁installation	-10.3482
▁प्रारम्भिक	-10.3483
▁तेर्सो	-10.3484
▁श्रम	-10.3486
▁जीवनको	-10.3492
▁इन्	-10.3498
.1	-10.35
▁Window	-10.3507
▁Ga	-10.3512
▁closed	-10.3514
रु	-10.3517
▁units	-10.3521
▁तारा	-10.3521
▁ते	-10.3527
इल	-10.3531
ier	-10.3533
name	-10.3534
25	-10.3534
▁prevent	-10.354
ुम	-10.3542
▁labour	-10.3542
▁throne	-10.3542
▁उत्साह	-10.3542
▁एप्रैम	-10.3542
▁प्रदर्शित	-10.3542
▁Peter	-10.3543
▁edge	-10.3543
▁importance	-10.3545
▁maintain	-10.3556
of	-10.3558
▁अगमवक्ताहरू	-10.356
He	-10.356
▁व्यक्तिले	-10.3561
▁grain	-10.3569
▁तिनीहरुले	-10.3573
▁मात्रै	-10.3574
▁loan	-10.3575
▁माया	-10.3575
▁काट	-10.3579
▁separate	-10.3581
▁रोगी	-10.3581
▁keeping	-10.3594
▁फर्क	-10.3596
50	-10.3603
▁John	-10.3605
▁प्रकृति	-10.3605
▁शमूएल	-10.3605
▁Table	-10.3619
▁जापान	-10.362
थि	-10.362
▁cubits	-10.3623
▁ready	-10.3633
▁चा	-10.3633
▁अक्षर	-10.3634
रहेको	-10.364
▁initial	-10.3646
▁focus	-10.3649
▁प्रोत्साह	-10.3653
िकरण	-10.3656
▁aid	-10.3657
▁कला	-10.3657
▁sh	-10.3668
▁इभोल्युसन	-10.3669
▁भरोसा	-10.3669
▁attempt	-10.3669
▁cooperative	-10.3669
▁चिन	-10.367
▁दुख	-10.3673
▁useful	-10.3676
▁गाउ	-10.3676
▁web	-10.3679
▁दान	-10.3683
बाहेक	-10.3687
▁bit	-10.3687
▁24	-10.369
▁User	-10.3693
▁६०	-10.3697
▁characters	-10.3698
▁angel	-10.3698
▁hill	-10.3704
▁पारि	-10.3715
▁concerned	-10.3718
ook	-10.3721
▁Ad	-10.3725
▁takes	-10.3728
▁breast	-10.3732
▁हेरचाह	-10.3732
▁impact	-10.3732
▁अनुहार	-10.3733
▁Moab	-10.3733
▁establishment	-10.3734
▁दृश्यात्मक	-10.3735
▁exit	-10.3736
▁भविष्य	-10.3736
ify	-10.3745
▁तलको	-10.3745
▁song	-10.3751
log	-10.3752
▁Bo	-10.3758
--	-10.3765
तो	-10.3775
▁tradition	-10.3775
▁note	-10.3775
▁मानक	-10.3781
▁बढ्न	-10.3786
च्च	-10.3787
हन	-10.3788
▁Region	-10.379
▁livestock	-10.3796
▁trading	-10.3796
▁Work	-10.3796
▁बाह्य	-10.3796
▁वैकल्पिक	-10.3797
▁contract	-10.3797
▁पर्	-10.3798
▁Dr	-10.3799
▁हुदैन	-10.3801
▁Try	-10.3802
▁fourth	-10.3805
▁0.	-10.3806
▁Sun	-10.381
▁ढ	-10.3812
▁statistics	-10.3815
▁affected	-10.382
्च	-10.3823
▁remained	-10.3824
▁धारणा	-10.3828
vo	-10.3832
▁produced	-10.3834
▁offered	-10.3838
▁फा	-10.3839
्यू	-10.3839
gar	-10.3844
पनि	-10.3845
काल	-10.3846
▁जानेछ	-10.3847
हरूसँग	-10.3859
▁unclean	-10.386
▁permissions	-10.386
▁थोरै	-10.3861
▁राजनैतिक	-10.3861
▁हिजकियाह	-10.3861
▁moving	-10.3861
स्तर	-10.3861
▁darkness	-10.3862
▁justice	-10.3862
▁wave	-10.3862
▁browser	-10.3862
▁Today	-10.3864
▁पात्रो	-10.3865
▁आपस	-10.3867
▁sc	-10.3868
▁केन्द्रीय	-10.3868
shi	-10.3869
▁साइट	-10.3869
▁सन्दर्भमा	-10.387
▁गोली	-10.3874
▁soil	-10.3879
ाउँदछ	-10.3882
▁शासक	-10.3884
▁*	-10.3886
gen	-10.3896
▁Get	-10.3898
▁ढाँचामा	-10.39
▁पात	-10.3901
▁cry	-10.391
▁खन	-10.3911
िङ्ध	-10.3913
▁सन्दर्भ	-10.3916
▁व्य	-10.3919
्दछन्	-10.3922
▁normal	-10.3923
▁York	-10.3926
▁behavior	-10.3926
▁फिर्ता	-10.3926
▁मूल्याङ्कन	-10.3926
▁शारीरिक	-10.3926
▁छोटो	-10.3926
▁उत्तम	-10.3926
▁व्यावसायिक	-10.3926
▁स्वागत	-10.3927
▁sake	-10.3928
▁pain	-10.3929
by	-10.3931
▁यर्मिया	-10.3935
▁remains	-10.3936
▁देखें	-10.3936
ात	-10.3938
▁चाप	-10.3941
▁नप	-10.3946
ैं	-10.395
निम्ति	-10.3951
▁शब्दहरू	-10.3964
▁tag	-10.3964
▁सुख	-10.3969
▁`	-10.3971
▁देवी	-10.3975
ाइने	-10.3976
४८	-10.3979
ङ्ध	-10.3979
▁favor	-10.3979
▁effects	-10.3984
▁साम	-10.3989
▁सुदृढ	-10.399
▁placed	-10.3991
▁burden	-10.3991
▁loving	-10.3991
▁multiple	-10.3991
▁rock	-10.3991
▁ark	-10.3991
▁department	-10.3995
▁संस्कृति	-10.3996
▁Q	-10.4002
▁Paul	-10.4002
coming	-10.4003
▁लगानीको	-10.4003
▁कडा	-10.4005
नाम	-10.4015
▁sins	-10.4017
ber	-10.4019
▁भण्डार	-10.402
*	-10.4021
This	-10.4022
▁टि	-10.4025
▁केन्द्रहरु	-10.4034
▁fill	-10.4039
▁पेश	-10.4047
▁Is	-10.4048
▁Maha	-10.4051
▁अवधिको	-10.4051
▁बताउ	-10.4052
वाट	-10.4054
▁Corporation	-10.4057
▁Kingdom	-10.4057
▁maintenance	-10.4057
▁निर्धारित	-10.4057
▁प्रकट	-10.4057
▁speed	-10.4057
▁wish	-10.4057
▁हिजो	-10.4057
▁प्रमाणीकरण	-10.4058
▁Eight	-10.4058
▁समस्त	-10.4059
▁आवास	-10.4061
▁startup	-10.4061
▁बोर्ड	-10.4068
▁encouraged	-10.4069
▁blessed	-10.4069
▁ad	-10.407
दाता	-10.4073
▁22	-10.4073
▁sp	-10.4075
▁म्याद	-10.4076
ुक	-10.4084
ator	-10.4084
▁bo	-10.4088
▁तँ	-10.4091
▁बुद्धि	-10.4094
pos	-10.4103
▁la	-10.4106
▁असमर्थ	-10.4116
▁Council	-10.4123
▁beautiful	-10.4123
▁guard	-10.4123
▁बूढा	-10.4123
▁सङ्कलन	-10.4123
▁fair	-10.4123
▁सृजना	-10.4124
▁description	-10.4124
▁associated	-10.4127
▁बस्नु	-10.4128
ते	-10.4128
▁seventh	-10.4129
▁देखाउँछ	-10.4132
40	-10.4133
स्थ	-10.4133
▁crops	-10.4137
▁आज्ञाहरू	-10.414
वास	-10.4145
▁माझ	-10.4148
निक	-10.4149
ीका	-10.4153
▁शा	-10.4154
▁card	-10.4168
ham	-10.4169
Go	-10.417
▁देखियो	-10.4171
▁Sp	-10.4172
दान	-10.4172
act	-10.4176
▁Ministry	-10.419
▁World	-10.419
▁beyond	-10.419
▁counsel	-10.419
▁जगेडा	-10.419
▁लिखित	-10.419
▁श्रेष्ठ	-10.419
▁सजावट	-10.419
▁repair	-10.419
▁imp	-10.4194
▁parties	-10.4195
▁manner	-10.4196
▁परिषद्	-10.4197
si	-10.4198
▁Data	-10.4199
▁peoples	-10.4199
▁term	-10.42
▁हुनुपर्ने	-10.4201
▁Where	-10.4203
tri	-10.4205
्ज	-10.4209
▁प्रभावित	-10.4218
ctor	-10.4222
▁समूहमा	-10.423
▁met	-10.4234
▁moved	-10.424
▁fulfill	-10.4255
▁Association	-10.4257
▁creating	-10.4257
▁feast	-10.4257
▁सूर्य	-10.4257
▁महत्त्वपूर्ण	-10.4258
▁खुल्ला	-10.4258
▁पढ्दा	-10.4259
▁तल्लो	-10.4259
▁प्रजातान्त्रिक	-10.426
▁संस्थागत	-10.4261
▁pit	-10.4263
ब्र	-10.4264
▁rates	-10.4269
▁परिस्थिति	-10.427
ूल	-10.4272
▁काल	-10.4283
▁जिल्लाहरु	-10.4286
▁diseases	-10.4287
▁महिनाको	-10.4289
[	-10.429
▁animal	-10.4293
We	-10.4298
्यौं	-10.4299
ुभयो	-10.4301
▁hour	-10.4301
▁rid	-10.4304
▁Every	-10.4304
▁व्यक्त	-10.4312
bha	-10.4312
▁loading	-10.4315
ाउँदा	-10.4317
बार	-10.4317
ज्	-10.4321
ick	-10.4322
▁परम्परा	-10.4323
▁east	-10.4324
▁success	-10.4324
▁Koirala	-10.4324
▁minimum	-10.4324
▁positive	-10.4324
▁क्वेरी	-10.4324
▁सजाय	-10.4324
▁पूर्ति	-10.4325
▁आईडी	-10.4327
▁थाल्यो	-10.4327
▁सम्झना	-10.4329
▁FY	-10.4329
लको	-10.433
▁mental	-10.433
134	-10.433
▁बोलाए	-10.4331
▁जनतालाई	-10.4333
▁पक	-10.4335
▁आऊ	-10.4338
▁Type	-10.4339
ok	-10.4339
▁यू	-10.4341
▁American	-10.4344
कल	-10.4344
▁Bar	-10.4345
एक	-10.4346
▁भइ	-10.4346
पु	-10.4351
▁विरोधमा	-10.4358
▁looked	-10.4372
▁Tent	-10.4379
▁ढल	-10.4385
port	-10.4386
▁org	-10.4387
▁पलिश्ती	-10.4388
धु	-10.4391
▁व्याख्या	-10.4393
ट्टा	-10.4393
▁हेडर	-10.4394
▁एलिया	-10.4395
▁लगाइएको	-10.4396
▁सत्ता	-10.4396
▁authority	-10.4396
थे	-10.4396
▁compared	-10.4396
ह्र	-10.4396
तिमी	-10.4398
▁भरिएको	-10.4399
▁El	-10.441
▁plants	-10.441
ल्प	-10.4419
▁भाव	-10.4429
▁बार	-10.4429
▁उत्पादनको	-10.4432
ुन्	-10.4436
जो	-10.4437
▁Ni	-10.4437
▁हालसम्म	-10.4439
▁Je	-10.4441
▁60	-10.4457
▁Prime	-10.4461
▁campaign	-10.4461
▁cursor	-10.4461
▁female	-10.4461
▁myself	-10.4461
▁surface	-10.4461
▁firm	-10.4461
▁चाहिने	-10.4464
▁shadow	-10.4464
▁द्वार	-10.4467
▁जनशक्तिको	-10.447
सेट	-10.4471
▁पुर	-10.4474
▁personal	-10.4476
▁होऊ	-10.4481
▁बढेर	-10.4482
tor	-10.4484
low	-10.4496
▁detail	-10.45
काअनुसार	-10.4506
▁convert	-10.451
ेम	-10.4512
्छु	-10.4519
दैन	-10.4522
▁printing	-10.4525
▁secret	-10.4529
▁library	-10.453
▁कोइराला	-10.453
▁सम्मिलित	-10.453
▁कर्सर	-10.453
▁त्यसकारण	-10.453
▁toolbar	-10.4531
▁खबर	-10.4531
▁season	-10.4532
▁however	-10.4533
दिए	-10.4533
नमा	-10.4534
▁sort	-10.4535
For	-10.4537
▁झार	-10.4537
गे	-10.4538
▁धर्मी	-10.4544
▁upper	-10.4545
▁weight	-10.4546
▁requested	-10.4552
▁measure	-10.4554
▁नभए	-10.4557
▁br	-10.456
lam	-10.4565
▁label	-10.4569
▁sleep	-10.457
▁आयोजनाको	-10.4579
▁नभएका	-10.4582
▁क्र	-10.4585
▁बाध्य	-10.4586
▁officials	-10.4587
्भ	-10.4592
यौ	-10.4594
▁transfer	-10.4599
▁छेउ	-10.4599
▁potential	-10.4599
▁चिकित्सा	-10.4599
▁emphasis	-10.46
▁बिलियन	-10.46
▁राम्रर	-10.46
▁तेरो	-10.4601
▁प्रदेश	-10.4602
▁पति	-10.4603
▁सट्टामा	-10.4604
▁बनाएका	-10.4606
200	-10.4607
▁नगरी	-10.4609
▁कान	-10.4612
श्व	-10.4614
spite	-10.4614
ष्ठ	-10.4616
▁बाँच्न	-10.462
▁पास	-10.4621
▁कुराहरु	-10.4629
▁पापहरू	-10.4638
▁variable	-10.4639
▁loans	-10.464
60	-10.4644
▁results	-10.4646
भाइ	-10.465
▁ear	-10.4654
▁भे	-10.4656
ँड	-10.4663
▁केटी	-10.4668
▁सट्टा	-10.4668
▁टो	-10.4669
लार्ई	-10.4669
▁Ephraim	-10.4669
▁across	-10.4669
▁औजार	-10.4669
▁कपडा	-10.4669
▁चट्टान	-10.4669
▁विद्यमान	-10.4669
▁Moreover	-10.467
▁vision	-10.467
▁कार्	-10.467
र्ारा	-10.4672
▁opening	-10.4672
▁आदर	-10.4675
ग्ल	-10.4676
▁भन्छु	-10.4677
▁di	-10.4678
▁दिनुहुन्छ	-10.468
ani	-10.4682
▁elements	-10.4686
par	-10.4688
ush	-10.4688
▁driver	-10.4689
्यान	-10.4692
▁नाप	-10.4696
ali	-10.4705
▁खस	-10.4705
▁सकेनन्	-10.4709
▁provision	-10.4711
▁argument	-10.4711
▁patient	-10.4711
▁improvement	-10.4712
▁मात्रा	-10.4722
▁Up	-10.4731
▁slow	-10.4734
▁Benjamin	-10.474
▁agencies	-10.474
▁speech	-10.474
▁green	-10.474
▁परिणत	-10.474
▁weather	-10.474
▁Press	-10.4741
▁Keep	-10.4741
▁deep	-10.4742
▁clothes	-10.4742
▁बृद्धिदर	-10.4743
▁URI	-10.4745
mer	-10.4755
ship	-10.4757
▁हौं	-10.4763
▁ship	-10.4775
▁देखेर	-10.4775
▁२२	-10.4776
▁fo	-10.4776
▁विश्राम	-10.4776
box	-10.4778
form	-10.4781
▁heads	-10.4789
▁developing	-10.4798
▁अगुवा	-10.4802
▁Pre	-10.4803
val	-10.4805
ail	-10.4807
▁पर्यटक	-10.4808
▁भेट्न	-10.481
▁salvation	-10.4811
▁sanctuary	-10.4811
▁समीक्षा	-10.4811
▁अनियमित	-10.4811
▁टन	-10.4811
▁extent	-10.4811
▁Right	-10.4812
▁अनुवाद	-10.4812
▁बाँड	-10.4812
▁चीन	-10.4815
▁appointed	-10.4818
▁मनो	-10.4821
▁farming	-10.4823
▁layers	-10.4828
▁त्याग	-10.483
list	-10.483
▁23	-10.4832
▁joint	-10.4835
▁late	-10.4837
▁reasons	-10.4838
▁teach	-10.4844
ोत	-10.4847
▁benefit	-10.4854
ाना	-10.4855
▁relative	-10.4855
umb	-10.4856
sion	-10.4856
▁कोण	-10.4856
▁गर्नेछौ	-10.4863
▁मालिकले	-10.487
चि	-10.487
▁भन्छ	-10.4876
▁फुट	-10.4879
मु	-10.4879
्थ	-10.4879
▁फूल	-10.488
ati	-10.4881
▁false	-10.4882
▁इसहाक	-10.4882
▁जटिल	-10.4882
▁काँसा	-10.4882
▁प्रतिनिधि	-10.4882
▁अनुदान	-10.4883
▁ठहर	-10.4883
▁spent	-10.4884
▁Disable	-10.4884
▁Desktop	-10.4885
▁achieve	-10.4887
▁villages	-10.4889
▁शाही	-10.4892
row	-10.4894
▁properly	-10.4894
spec	-10.4897
▁भरि	-10.4899
side	-10.4905
▁जीवनमा	-10.4909
▁लेखक	-10.4909
ढी	-10.4909
लय	-10.4912
४२	-10.4921
छैन	-10.4923
▁दिएँ	-10.4925
▁छिमेकी	-10.4931
▁mi	-10.4935
▁Gr	-10.4937
▁leaders	-10.4941
▁President	-10.4954
▁Sabbath	-10.4954
▁equipment	-10.4954
▁कच्चा	-10.4954
▁दाउरा	-10.4954
▁evaluation	-10.4954
▁आरोप	-10.4954
▁लेबुल	-10.4954
▁हिसाब	-10.4954
▁attack	-10.4954
▁sense	-10.4954
▁गल्ती	-10.4954
▁Mount	-10.4954
▁पठाइ	-10.4955
▁प्रतिक्षा	-10.4956
▁rivers	-10.496
▁ढाक	-10.4962
▁समाजमा	-10.4964
▁पक्षमा	-10.4965
▁चाहन्छ	-10.4971
यर	-10.4973
▁healthy	-10.4992
▁बाँच	-10.4995
based	-10.4996
▁Sub	-10.4997
ग्रा	-10.4997
▁ठोस	-10.5
▁रंग	-10.5006
▁perform	-10.5007
▁teacher	-10.5008
19	-10.5008
र्ण	-10.5014
▁हान	-10.5015
▁महल	-10.5019
▁chemical	-10.5027
▁yield	-10.5027
▁अत्यधिक	-10.5027
▁नभई	-10.5027
▁निर्वाचन	-10.5027
▁परित्याग	-10.5027
▁सञ्चालित	-10.5027
▁समक्रमण	-10.5027
▁सामुन्ने	-10.5027
▁vector	-10.5027
▁चिन्ता	-10.5027
▁Draw	-10.5027
▁ज्यादा	-10.5027
▁चाँहि	-10.5027
▁alternative	-10.5029
▁dust	-10.503
▁थालेको	-10.503
▁दे	-10.5031
▁विवाद	-10.5031
▁pure	-10.5034
ेसन	-10.5035
▁*.	-10.5035
▁Our	-10.5036
िन्छन्	-10.504
म्म	-10.5043
▁केहि	-10.5043
ेत	-10.5052
▁28	-10.5054
▁रहेकोमा	-10.5055
▁Li	-10.5055
क्षेत्र	-10.5056
हरुका	-10.5058
▁Shi	-10.506
▁Da	-10.5065
".	-10.5066
▁तिन	-10.5066
▁खोजे	-10.5067
▁फे	-10.5075
▁rejoice	-10.5083
िच	-10.5083
kh	-10.5089
▁ट्र	-10.5097
▁सजिलै	-10.51
▁International	-10.51
▁opportunity	-10.51
▁traffic	-10.51
▁शून्य	-10.51
▁खेलाडी	-10.51
▁तीव्र	-10.51
▁शिशु	-10.51
▁परिमिति	-10.51
▁वंश	-10.5105
▁मित्र	-10.5106
▁formed	-10.5108
र्न	-10.5112
▁विनाश	-10.5112
80	-10.5114
शील	-10.5117
▁bore	-10.5119
sign	-10.5122
▁नर	-10.5122
क्य	-10.5123
▁दोषी	-10.5124
▁विद्युत्	-10.5125
▁२४	-10.5129
▁include	-10.5131
▁मार्ने	-10.5131
▁continued	-10.5132
Q	-10.5138
kar	-10.515
▁gain	-10.5153
ल्क	-10.5163
▁sa	-10.5164
नीय	-10.5167
▁individual	-10.5173
▁operating	-10.5173
▁सिद्धान्त	-10.5173
▁अनुक्रमणिका	-10.5173
▁1990	-10.5174
ments	-10.5174
▁दिनसम्म	-10.5176
▁More	-10.5178
▁माछा	-10.5179
▁yes	-10.5179
ीहरूले	-10.518
ंच	-10.518
▁finished	-10.518
त्य	-10.5183
्याए	-10.5187
्याप	-10.5191
tro	-10.5191
▁suffering	-10.5193
▁देखाए	-10.5197
▁कक्षा	-10.5198
▁२३	-10.5198
▁स्थल	-10.5199
४७	-10.52
▁हार	-10.5206
शक्ति	-10.521
adi	-10.5214
▁भारतमा	-10.5216
▁remaining	-10.522
▁सुक	-10.5229
▁विविध	-10.523
▁operate	-10.5231
▁appears	-10.5233
▁पाएको	-10.5234
▁पाएका	-10.5234
bb	-10.5239
▁तथ्य	-10.5245
lobal	-10.5245
▁तहमा	-10.5246
▁delay	-10.5247
▁fifty	-10.5247
▁मुद्दा	-10.5247
▁विश्वविद्यालय	-10.5247
▁bug	-10.5247
▁activity	-10.5247
▁सुझाव	-10.5247
▁talk	-10.5247
▁signature	-10.5247
▁दिदी	-10.5248
▁सर्वशक्तिमान	-10.5249
▁सेटअप	-10.5249
▁एकीकृत	-10.5251
▁Object	-10.5251
▁अर्	-10.5257
▁Tool	-10.5261
त्मक	-10.5261
स्प	-10.5264
▁मसित	-10.5269
▁promote	-10.5275
▁त्यहीं	-10.5276
र्ज	-10.5277
▁8.	-10.5278
ata	-10.5278
▁राखेर	-10.5282
bit	-10.5283
अगाडि	-10.5283
▁red	-10.5284
▁town	-10.5284
▁terms	-10.5284
रेखा	-10.5288
▁रोजगारी	-10.5288
▁क्ल	-10.5289
▁played	-10.5303
▁छाडे	-10.5304
▁idea	-10.5308
पार	-10.5316
▁site	-10.5317
▁CUPS	-10.5322
▁District	-10.5322
▁easily	-10.5322
▁सफ्टवेयर	-10.5322
▁constant	-10.5322
▁temporary	-10.5322
▁चुनाव	-10.5322
▁unknown	-10.5322
▁iron	-10.5323
▁Allow	-10.5325
.00	-10.5328
र्त	-10.5328
२५	-10.533
ाइएका	-10.5331
▁directly	-10.5333
▁waste	-10.5334
▁जमिन	-10.5334
▁certainly	-10.534
▁नसकेको	-10.534
▁भनिन्	-10.5341
▁reigned	-10.5346
ल्ल	-10.5347
▁Play	-10.5348
▁ब्ल	-10.5354
▁install	-10.5357
▁rec	-10.5357
▁fully	-10.5363
▁बहिनी	-10.5368
▁घोडा	-10.5376
▁पूर	-10.5377
▁शोक	-10.5377
▁जम	-10.5377
▁dig	-10.5381
▁rich	-10.5381
▁बैङ्क	-10.5384
▁Har	-10.5387
ative	-10.539
▁girls	-10.5393
वाला	-10.5395
ious	-10.5395
ose	-10.5395
▁कर्पोरेसन	-10.5397
▁इन्टरनेट	-10.5397
▁हिस्सा	-10.5397
▁पुनप्राप्त	-10.5397
▁मिल्दो	-10.5397
▁ल्याइ	-10.5398
▁झूटा	-10.5399
▁फलाम	-10.5399
▁भेक्टर	-10.5401
▁stream	-10.5401
▁China	-10.5401
▁हेर्ने	-10.5401
▁apply	-10.5403
▁mid	-10.5404
▁प्याकेजहरू	-10.5404
▁पराजि	-10.5404
▁कृषक	-10.5406
▁धूप	-10.5406
▁Par	-10.5407
▁200	-10.5407
▁बोल्न	-10.5408
▁वर्षा	-10.5414
ction	-10.5414
▁नाश	-10.5416
▁ears	-10.5428
▁क्षेत्रहरुमा	-10.5441
▁sweet	-10.5449
ore	-10.5449
बारेमा	-10.5449
▁शिकार	-10.545
net	-10.5451
ल्स	-10.5455
▁वीर	-10.5464
▁फ्रेमहरू	-10.5464
ory	-10.5471
▁90	-10.5471
▁KMail	-10.5473
▁प्रयत्न	-10.5473
▁प्रोटोकल	-10.5473
▁Convert	-10.5473
▁निर्देशन	-10.5473
▁arose	-10.5473
▁संग्रह	-10.5473
▁hate	-10.5473
▁bound	-10.5473
▁Eli	-10.5474
रुप	-10.5474
▁भयभ	-10.5475
▁OF	-10.5478
▁चिहान	-10.548
▁raw	-10.5483
▁tourists	-10.5484
▁Holy	-10.5485
▁लगाई	-10.5486
यक	-10.5489
usually	-10.5494
11	-10.5494
▁consider	-10.5495
▁दशक	-10.5496
ned	-10.55
▁हिड	-10.55
निया	-10.5501
▁दृष्टिकोणबाट	-10.5505
▁संकट	-10.5511
▁+	-10.5512
ाइन्छ	-10.5513
▁बनाएर	-10.5513
▁शक्तिको	-10.5513
▁हक	-10.5519
▁यता	-10.5521
▁नानी	-10.5523
▁lion	-10.5525
▁Min	-10.5527
▁construct	-10.5527
▁अग्र	-10.5529
▁वस्तुस्थिति	-10.553
ji	-10.5531
▁commandment	-10.5534
▁मानिसहरूबाट	-10.5535
▁२१	-10.5537
▁update	-10.5538
▁final	-10.5541
▁showing	-10.5541
▁worth	-10.5542
▁21	-10.5543
▁सेन्ट	-10.5543
▁broke	-10.5543
▁मार्क	-10.5547
▁शान्त	-10.5548
▁२०४७	-10.5548
▁उज्यालो	-10.5549
▁एउटी	-10.5549
▁suggest	-10.5549
▁अस्तित्व	-10.5549
▁Close	-10.5549
▁presence	-10.5549
▁प्रचलित	-10.5553
▁चलिरहेको	-10.5553
lin	-10.5555
▁महिलाहरु	-10.556
Don	-10.556
ौँ	-10.5564
▁लिएको	-10.5569
▁शरीरमा	-10.5574
▁Panchayat	-10.5578
▁Al	-10.5583
▁माध्यमबाट	-10.5584
▁एड	-10.5591
इन	-10.5592
▁मानिसहरूसित	-10.5594
▁घुस	-10.5604
रह	-10.5605
ल्ट	-10.5608
iya	-10.5612
फि	-10.5612
▁क्षेत्रबाट	-10.5616
▁equal	-10.5619
▁Bahadur	-10.5626
▁incident	-10.5626
▁wrote	-10.5626
▁लगातार	-10.5626
▁संघर्ष	-10.5626
▁double	-10.5626
▁दौड	-10.5626
▁साँझ	-10.5627
▁सहकारी	-10.5627
▁चैत	-10.5629
▁quickly	-10.563
▁मान्यता	-10.5631
▁भनें	-10.5637
▁जिम्मेवारी	-10.5638
▁अन्त्यमा	-10.565
मर	-10.565
त्ति	-10.5652
tin	-10.5656
▁बुझे	-10.5657
▁कम्पनीको	-10.5659
▁कास	-10.5659
▁Tri	-10.5659
▁मुनि	-10.5661
▁hours	-10.5662
उन	-10.5663
प्रसाद	-10.5669
▁डो	-10.567
मेरो	-10.5673
▁महीना	-10.5676
▁reported	-10.5677
▁चोर	-10.5679
▁जोडा	-10.5683
▁imported	-10.5684
▁पाइ	-10.5687
ल्या	-10.569
▁सामन	-10.5695
▁रिस	-10.5698
▁environmental	-10.57
▁Mu	-10.5703
▁component	-10.5703
▁radio	-10.5703
▁डिजाइन	-10.5703
▁राजधानी	-10.5703
▁Address	-10.5703
▁instance	-10.5704
▁छनोट	-10.5704
▁पठाउनुहोस्	-10.5704
▁planned	-10.5706
्ता	-10.5706
▁सित	-10.5706
▁whatever	-10.5708
▁माध्यमिक	-10.5709
▁divided	-10.571
▁पिक्सेल	-10.5711
▁सधैँ	-10.5711
▁playing	-10.5712
▁speaking	-10.5719
▁कोर	-10.572
▁डी	-10.572
las	-10.5723
्दैछ	-10.5728
▁गर्भ	-10.5728
▁thousands	-10.5743
िदिनु	-10.5746
कालीन	-10.5748
▁Kar	-10.5749
▁प्राण	-10.575
▁चढाए	-10.5753
ek	-10.5757
▁उदाहरणका	-10.5761
भाव	-10.5764
▁ever	-10.5768
ीहरूलाई	-10.577
▁लो	-10.578
▁switch	-10.5782
▁बाँन्की	-10.5782
▁संकेत	-10.5782
▁productivity	-10.5782
▁गतिविधि	-10.5782
▁marriage	-10.5782
▁बाढी	-10.5783
▁आर्जन	-10.5783
▁प्रतिफल	-10.5783
▁खेद	-10.5783
▁Read	-10.5786
▁Last	-10.5786
▁पारी	-10.5787
▁पत्रकार	-10.5787
▁Rana	-10.5788
▁Corp	-10.5789
चे	-10.579
▁Control	-10.5791
▁पढ्ने	-10.5796
▁बनाउँछ	-10.5796
ER	-10.5805
▁निकाल	-10.5812
mit	-10.5814
घर	-10.5816
▁टे	-10.5819
वन	-10.5828
▁दूर	-10.583
रूप	-10.583
gin	-10.5833
▁section	-10.584
ुहोस्	-10.5846
▁स्वर	-10.5846
▁80	-10.5848
▁अदालत	-10.586
▁आहाब	-10.586
▁सुसमाचार	-10.586
▁literature	-10.586
्याउने	-10.586
▁परिचय	-10.5861
▁eight	-10.5861
▁सघाउ	-10.5862
▁टु	-10.5862
▁घाम	-10.5862
▁सीडी	-10.5863
च्छ	-10.5866
▁खण्डमा	-10.5866
▁Zion	-10.5866
▁त्रि	-10.5869
▁प्राय	-10.5871
▁२००	-10.5886
haru	-10.5887
केा	-10.5888
▁केन्द्रित	-10.5889
तिमीले	-10.5894
▁count	-10.5898
िंग	-10.591
क्त	-10.5913
रुपले	-10.5914
▁नेता	-10.5918
getting	-10.5923
▁centres	-10.5923
▁गरून्	-10.5925
भाग	-10.5926
▁possess	-10.5927
che	-10.5928
▁घरको	-10.5931
▁रोगको	-10.5936
▁else	-10.594
▁काँग्रेस	-10.594
▁सम्भावित	-10.594
▁भन्सार	-10.594
▁cried	-10.594
▁debt	-10.594
▁सियोन	-10.594
▁उल्लेखनीय	-10.594
संगै	-10.5942
▁secondary	-10.5943
▁transportation	-10.5944
▁Line	-10.5947
मुखी	-10.5948
▁wide	-10.5951
▁funds	-10.5953
▁legal	-10.5956
िरहे	-10.5959
▁मध्यम	-10.5959
▁झण्डा	-10.5961
▁frames	-10.5964
qui	-10.5971
विक	-10.5971
ins	-10.5979
▁जात	-10.5984
▁Settings	-10.5984
▁aim	-10.5984
most	-10.5985
▁राती	-10.5987
▁printed	-10.599
फो	-10.5991
\\	-10.6002
▁सेवकहरू	-10.6003
▁कुराको	-10.601
▁configure	-10.6013
▁drag	-10.6019
▁Another	-10.602
▁GIMP	-10.602
▁administrator	-10.602
▁अर्पण	-10.602
▁अवयव	-10.602
▁आफ्नी	-10.602
▁गहिरो	-10.602
▁Local	-10.602
▁गरिन	-10.602
▁stopped	-10.6021
▁property	-10.6021
▁विशेषज्ञ	-10.6022
▁चोक	-10.6023
▁client	-10.6023
▁systems	-10.6026
▁simpl	-10.6027
▁नगरिएको	-10.6029
कुल	-10.6029
▁अतः	-10.603
▁fit	-10.603
▁info	-10.603
▁democratic	-10.6032
ान्तर	-10.6035
▁स्वरूप	-10.6036
▁भूल	-10.6041
▁चाहनु	-10.6046
▁पाउनु	-10.605
▁learn	-10.6051
AL	-10.6054
▁वाल	-10.6059
▁reduced	-10.6062
space	-10.6062
▁hills	-10.6065
Why	-10.6066
▁र्	-10.6068
book	-10.607
▁समयको	-10.6072
▁बिमा	-10.6072
▁lo	-10.6073
▁बन्ने	-10.6079
mu	-10.608
az	-10.6085
▁doctor	-10.6088
▁significant	-10.6092
▁returns	-10.6096
▁conflict	-10.61
▁consumption	-10.61
▁protocol	-10.61
▁अवरोध	-10.61
▁beauty	-10.61
▁Meeting	-10.61
▁अनिवार्य	-10.61
▁इन्टरफेस	-10.61
▁अभिबृद्धि	-10.61
▁नेतृत्व	-10.61
▁probabl	-10.6101
▁suitable	-10.6101
▁अनन्त	-10.6102
▁अर्ध	-10.6105
▁भुक्तानी	-10.6105
▁500	-10.6106
war	-10.6106
▁ring	-10.6107
▁नदेख	-10.6108
OR	-10.6109
▁youth	-10.611
▁hospitals	-10.6115
मेल	-10.6118
▁दरले	-10.612
▁दक्ष	-10.6124
▁लु	-10.6126
बाद	-10.613
▁bus	-10.613
▁संस्थाहरु	-10.6131
ists	-10.6135
▁लेख्ने	-10.6135
ern	-10.6137
▁कुट	-10.6138
▁feeling	-10.6139
▁Car	-10.6139
कहरू	-10.6142
▁forty	-10.6142
▁]	-10.6144
▁हाले	-10.6145
ड्	-10.6152
▁vessels	-10.6158
read	-10.616
▁targets	-10.6163
▁heavens	-10.6163
▁imports	-10.6164
त्ता	-10.6165
ोह	-10.6165
▁increases	-10.6175
४०	-10.6175
van	-10.6178
▁नं	-10.6181
▁Cisco	-10.6182
▁Manasseh	-10.6182
▁garden	-10.6182
▁नतिजा	-10.6182
▁पुरस्कार	-10.6182
▁प्रर्दशन	-10.6182
▁प्रोक्सी	-10.6182
▁विज्ञापन	-10.6182
▁स्थानान्तरण	-10.6182
▁Clear	-10.6182
▁Majesty	-10.6182
▁almost	-10.6182
▁shape	-10.6182
▁सिस्को	-10.6182
▁पत्रमञ्जूषा	-10.6182
▁House	-10.6182
▁shut	-10.6182
▁स्वामित्व	-10.6184
▁प्रसारण	-10.6185
▁समर्थित	-10.619
▁कलेज	-10.6191
▁चौ	-10.6198
▁हुन्न	-10.6209
▁भेडाहरू	-10.6211
्ले	-10.6221
▁Gu	-10.6225
वस्तु	-10.6228
$	-10.6229
न्य	-10.623
झैं	-10.6231
▁mean	-10.6234
Let	-10.6236
▁कार्यलाई	-10.624
▁आउनेछ	-10.624
▁सक्छु	-10.6242
▁व्यापारिक	-10.6244
▁अपराध	-10.6245
▁crop	-10.6247
क्रोधित	-10.6249
▁हाइलाइट	-10.6255
aj	-10.6256
▁blind	-10.6264
▁completion	-10.6264
▁response	-10.6264
▁मिडिया	-10.6264
▁विकेन्द्रीकरण	-10.6264
▁सम्मेलन	-10.6264
▁स्क्यान	-10.6264
लक्षित	-10.6265
▁Joab	-10.6265
▁जान्दछु	-10.6266
भयो	-10.6266
▁cache	-10.6266
▁दिनुहुनेछ	-10.6268
▁गराए	-10.627
▁team	-10.6272
▁दिनुभएको	-10.6272
▁वायु	-10.6277
ताका	-10.629
▁गर्दैनन्	-10.6292
स्ता	-10.6296
▁इन	-10.6299
▁connected	-10.6301
▁नब	-10.6301
▁पुरूष	-10.6311
तपाईं	-10.6311
▁औं	-10.6314
सके	-10.6319
▁चक्र	-10.6319
बर	-10.632
▁लुके	-10.6321
ाइन	-10.6323
▁fonts	-10.6324
▁pages	-10.6325
▁travel	-10.6326
▁replace	-10.6327
▁design	-10.6328
▁escape	-10.633
▁मरूभूमिमा	-10.6335
▁Act	-10.634
▁prison	-10.6344
▁अड	-10.6345
▁Jeremiah	-10.6346
▁album	-10.6346
▁mercy	-10.6346
▁संसाधन	-10.6346
▁Left	-10.6346
▁duty	-10.6347
▁२०४६	-10.6347
▁शपथ	-10.6347
▁वस्त्र	-10.6347
▁प्रापक	-10.6347
▁व्यस्त	-10.6347
▁Free	-10.6347
▁contribution	-10.6349
▁संस्कार	-10.635
▁पाउ	-10.635
▁सीमाना	-10.6352
▁दिशा	-10.6356
▁(%	-10.6357
▁उठे	-10.6358
▁Tra	-10.6359
tter	-10.6361
▁Ge	-10.6368
▁गर्नुहुनेछ	-10.6368
▁समस्याहरु	-10.6369
▁बसेका	-10.6371
▁बिट	-10.6373
▁सोचे	-10.6378
ेक्स	-10.6379
▁benefits	-10.6379
tle	-10.6382
OS	-10.6389
▁फ्याँक	-10.6389
▁उद्योगहरु	-10.6409
▁feature	-10.6413
▁Program	-10.6413
▁राजनीति	-10.6414
▁Dis	-10.6418
▁actual	-10.6422
ina	-10.6423
tes	-10.6426
ala	-10.6429
▁cottage	-10.643
▁query	-10.643
▁प्रधानमन्त्री	-10.643
▁यथार्थ	-10.643
▁lock	-10.643
▁sick	-10.6431
▁हैन	-10.6431
▁global	-10.6432
▁standing	-10.6433
▁सोही	-10.6435
▁proxy	-10.6435
ium	-10.6436
▁घटनाहरू	-10.6436
▁sheet	-10.6438
▁मिनेट	-10.6439
ंदा	-10.6441
▁राजाका	-10.6448
▁launched	-10.6449
▁commandments	-10.6456
क्षा	-10.6459
तापूर्वक	-10.6461
ray	-10.6464
▁कामको	-10.6465
our	-10.6465
▁गन	-10.6468
rt	-10.647
▁mis	-10.6471
▁god	-10.6472
▁markets	-10.6477
▁तिनीहरुको	-10.6481
▁शरीरको	-10.6483
▁माफ	-10.6483
ew	-10.6489
put	-10.6492
▁नियमहरू	-10.6495
▁curse	-10.6497
▁हित	-10.6506
ren	-10.6508
▁उपभोग	-10.6512
▁dark	-10.6513
▁पूर्वावस्था	-10.6514
▁LDAP	-10.6514
▁preparation	-10.6514
▁utilization	-10.6514
▁avoid	-10.6514
▁Samuel	-10.6514
▁दीर्घकालीन	-10.6514
▁tried	-10.6514
▁scientific	-10.6514
▁परिवेश	-10.6514
▁कमारा	-10.6516
बाटै	-10.6519
▁लेखे	-10.652
▁घटाउन	-10.652
▁नामकरण	-10.652
▁efficient	-10.6521
▁निस्क	-10.6523
lic	-10.6526
▁नया	-10.6531
▁Va	-10.6532
▁fruits	-10.6541
▁player	-10.6541
▁institutional	-10.6543
ified	-10.6544
▁दाऊदका	-10.6548
▁बताउनु	-10.6553
▁growing	-10.6554
▁सिपाहीहरू	-10.6555
▁दिइने	-10.656
▁buttons	-10.6561
right	-10.6563
▁लागेका	-10.6565
que	-10.6565
▁त्यसका	-10.6566
हरूमध्ये	-10.6566
down	-10.6566
▁बजे	-10.6575
बेला	-10.6576
▁launch	-10.6579
ीम	-10.658
▁News	-10.658
▁सम्ममा	-10.658
▁खानी	-10.6583
▁फर्के	-10.6585
▁reform	-10.6587
▁generations	-10.6593
▁८०	-10.6594
▁गे	-10.6595
▁fund	-10.6598
▁Agriculture	-10.6598
▁English	-10.6598
▁Shrestha	-10.6598
▁analysis	-10.6598
▁flood	-10.6598
▁negative	-10.6598
▁sought	-10.6598
▁कठोर	-10.6598
▁गिलाद	-10.6598
▁विराटनगर	-10.6598
▁अन्तर्राष्ट्रिय	-10.6598
▁अनुग्रह	-10.6599
▁missing	-10.6599
▁उस्तै	-10.6599
▁बलिदान	-10.6599
▁सातौँ	-10.6603
▁fish	-10.6603
▁perish	-10.6603
▁novel	-10.6604
▁lie	-10.6604
▁moment	-10.6607
▁बर्	-10.661
▁extended	-10.6617
▁expanded	-10.6618
▁लगाएर	-10.6624
▁गर्दछु	-10.6634
ale	-10.6636
action	-10.6639
्याह	-10.664
▁relat	-10.664
ks	-10.6645
्दैनन्	-10.6645
▁पुर्खाहरू	-10.665
level	-10.6651
वाह	-10.6653
ms	-10.6656
▁win	-10.6664
▁पार्दछ	-10.6665
▁factors	-10.6667
▁फोल्डरहरू	-10.6667
िड	-10.6668
▁लैजाने	-10.6669
▁difference	-10.667
षण	-10.6672
▁follows	-10.6674
▁successful	-10.6676
▁अद	-10.6678
चाल	-10.6679
▁पारेको	-10.6681
▁Bangladesh	-10.6684
▁University	-10.6684
▁destruction	-10.6684
▁struggle	-10.6684
▁आराधना	-10.6684
▁ऐतिहासिक	-10.6684
▁secure	-10.6684
▁जोनाथन	-10.6684
▁risk	-10.6684
▁Internet	-10.6684
▁विश्वव्यापी	-10.6684
▁feasibility	-10.6684
▁राष्ट्रपति	-10.6684
▁rice	-10.6686
▁सूचक	-10.6693
▁recently	-10.6695
cr	-10.6697
साना	-10.6697
▁सतह	-10.6702
▁calls	-10.6703
▁monitoring	-10.6705
▁Baal	-10.6707
▁Ju	-10.6708
▁मिस	-10.6711
ada	-10.6715
za	-10.6716
bin	-10.6716
फर	-10.6717
▁कार	-10.672
▁pipe	-10.6723
tal	-10.6727
▁Ko	-10.6727
▁मिलाउन	-10.6728
▁तिमीहरुले	-10.673
ाइनेछ	-10.673
af	-10.6732
रहेछ	-10.6732
▁tent	-10.6735
अनुरुप	-10.6735
िग	-10.6737
न्न	-10.674
thi	-10.6741
▁tourist	-10.6765
▁पढे	-10.6768
▁royal	-10.677
▁congregation	-10.677
▁plague	-10.677
▁शैक्षिक	-10.677
▁थिई	-10.677
▁खतरा	-10.677
▁interface	-10.677
▁शुल्क	-10.677
▁घाँस	-10.6771
▁तान्नुहोस्	-10.6771
▁Water	-10.6771
▁उपदेश	-10.6772
▁सके	-10.6772
▁बनाऊ	-10.6773
▁rod	-10.6774
▁प्रबन्ध	-10.6775
▁cash	-10.6775
▁पोखरा	-10.6776
▁fallen	-10.6779
▁मरूभूमि	-10.6782
▁झिक	-10.6782
▁उपत्यका	-10.6785
▁माथिको	-10.6788
मिल	-10.6794
▁achieved	-10.6797
▁चढाउनु	-10.6798
▁header	-10.6798
▁सामु	-10.6799
▁collect	-10.6802
AT	-10.6802
ोक	-10.6804
▁sta	-10.6804
▁expand	-10.6808
होस	-10.681
▁अलि	-10.681
▁मुक्ति	-10.6812
तामा	-10.6813
मूल्य	-10.682
ढोका	-10.6822
▁उठाए	-10.6823
सले	-10.6824
मुनि	-10.6824
▁भूत	-10.6824
▁ba	-10.6825
Who	-10.6825
▁prayer	-10.6826
▁उत्	-10.683
▁महान्	-10.6839
▁cloud	-10.6844
▁parameter	-10.6845
▁खर्चको	-10.6848
वान	-10.6848
▁events	-10.6851
til	-10.6852
▁गधा	-10.6855
▁officer	-10.6857
▁मुटु	-10.6857
}	-10.6857
▁Parliament	-10.6857
▁Konqueror	-10.6857
▁Screen	-10.6857
▁abroad	-10.6857
▁यहोशापात	-10.6857
▁सक्नुहुन्न	-10.6857
▁tongue	-10.6857
▁Training	-10.6857
▁mass	-10.6857
▁लिइएको	-10.6858
▁shame	-10.6858
▁lips	-10.6858
▁प्रवृत्ति	-10.6858
▁restart	-10.6858
▁Look	-10.6859
▁Good	-10.6859
▁fled	-10.6859
▁भन्दछु	-10.686
▁निष्	-10.6861
▁सुम्पि	-10.6861
कम	-10.6861
▁हतियार	-10.6863
▁Di	-10.6863
▁discussion	-10.6864
tract	-10.6866
८०	-10.6869
▁Voices	-10.6875
▁कार्यका	-10.6885
्नुपर्छ	-10.689
एम	-10.6895
▁gates	-10.6898
िप	-10.6901
िता	-10.6903
डे	-10.6907
ाहा	-10.6908
▁देव	-10.6915
▁Load	-10.6917
▁बै	-10.6919
ration	-10.6919
प्त	-10.692
▁जान्न	-10.6921
नुहोस्	-10.6924
▁extend	-10.6925
▁enhance	-10.6927
▁शो	-10.6928
▁डराए	-10.6931
Re	-10.6932
▁division	-10.6933
▁साथीहरू	-10.6939
▁Biratnagar	-10.6945
▁Central	-10.6945
▁Gilead	-10.6945
▁Hindu	-10.6945
▁destination	-10.6945
▁brass	-10.6945
▁coordination	-10.6945
▁फोकस	-10.6945
▁वार्ता	-10.6945
▁everything	-10.6945
▁alive	-10.6945
▁क्यामेरा	-10.6945
▁hurt	-10.6945
▁Center	-10.6946
▁encryption	-10.6946
▁केटाकेटी	-10.6946
▁सस्तो	-10.6946
▁जाँदा	-10.6946
▁नाफा	-10.6946
▁सवारी	-10.6947
▁सदन	-10.6947
▁Will	-10.6948
▁bookmarks	-10.6948
cap	-10.6951
▁झुक	-10.6952
▁Beth	-10.6954
IN	-10.6956
▁eaten	-10.696
▁lifted	-10.696
▁उपलब्धि	-10.6961
▁गर्नेतर्फ	-10.6964
वासी	-10.6967
▁हेरे	-10.6969
▁पुस्तकमा	-10.6975
▁statutes	-10.6975
▁सहयोगी	-10.6976
थी	-10.6978
ui	-10.6981
▁patients	-10.6981
iz	-10.6983
governmental	-10.6985
RR	-10.6995
atch	-10.7
▁symbol	-10.7001
लागि	-10.7001
▁shared	-10.7002
▁समाप्ति	-10.7004
▁सकिएको	-10.7005
▁जुम	-10.701
तिमीहरूले	-10.7011
▁पट्टि	-10.7012
ita	-10.7012
▁रूखहरू	-10.7014
▁download	-10.7015
▁encourage	-10.7016
▁release	-10.7017
▁बजारको	-10.7018
▁author	-10.702
▁परिवारका	-10.702
▁books	-10.702
▁languages	-10.702
६०	-10.7021
ko	-10.7022
थो	-10.7027
▁युग	-10.7027
▁70	-10.7028
▁नाममा	-10.7031
ritten	-10.7032
▁civil	-10.7033
▁Assyria	-10.7033
▁GTK	-10.7033
▁responsible	-10.7033
▁कोशिश	-10.7033
▁नराम्रा	-10.7033
▁entries	-10.7033
▁Unknown	-10.7033
▁commission	-10.7034
map	-10.7035
▁अब्शालोम	-10.7036
▁someone	-10.7041
▁तुल्य	-10.7041
▁consumed	-10.7041
▁भर्ना	-10.7041
▁थियौं	-10.7042
ey	-10.7045
▁देखिए	-10.7051
▁char	-10.7053
▁गएका	-10.7053
▁मानचित्र	-10.7054
४१	-10.7062
▁Pi	-10.7066
ृत	-10.7071
▁join	-10.7072
ika	-10.7073
▁अरब	-10.7078
▁बस्थे	-10.7079
▁loaded	-10.7085
▁नीतिहरु	-10.7086
▁बचाउन	-10.7087
ura	-10.7091
▁परमप्रभुबाट	-10.7101
भूत	-10.7102
▁Dan	-10.7106
▁prince	-10.7113
▁issues	-10.7116
▁Valley	-10.7122
▁drug	-10.7122
▁refuge	-10.7122
▁जोखिम	-10.7122
▁न्युयोर्क	-10.7122
▁तालीम	-10.7123
▁gross	-10.7123
▁एप्लेट	-10.7123
▁नसकिने	-10.7124
▁छैन्	-10.7125
▁ल्याएको	-10.7126
▁क्याम्पस	-10.7126
▁productive	-10.713
▁ड्राइभर	-10.713
▁जाल	-10.7131
so	-10.7135
▁Per	-10.7137
▁तान	-10.7145
uk	-10.7156
▁तिमीहरूसित	-10.7157
▁परिवारलाई	-10.7165
▁via	-10.7165
▁appeared	-10.7173
▁starting	-10.719
car	-10.7197
मार्ग	-10.7201
▁निम्त	-10.7202
▁प्रिय	-10.7207
िष्ट	-10.7208
▁रद्दीटोकरी	-10.7213
▁Though	-10.7213
▁matrix	-10.7213
▁गम्भीर	-10.7213
▁तैंले	-10.7213
▁angry	-10.7213
▁phase	-10.7213
▁साता	-10.7213
▁आगमन	-10.7214
▁पुनर्	-10.7214
only	-10.7214
▁Yet	-10.7215
▁hair	-10.7216
▁forget	-10.7219
▁anti	-10.7219
It	-10.7219
▁decided	-10.722
▁पोल	-10.7222
▁drawn	-10.7223
▁pick	-10.7223
▁causes	-10.7227
press	-10.7227
▁उभ	-10.7228
▁Singh	-10.7229
▁मिटर	-10.723
▁उदार	-10.723
▁Page	-10.7232
▁मारिए	-10.7235
▁quit	-10.7236
▁नसके	-10.7238
▁बुद्ध	-10.7241
12	-10.7245
▁पाउँछ	-10.7246
▁भित्री	-10.7248
▁letters	-10.7248
▁believed	-10.725
▁दिन्छन्	-10.7253
▁छोड्न	-10.7253
▁व्यक्तिहरु	-10.7256
▁आमाको	-10.7259
▁कोड	-10.7259
▁बनाइएको	-10.726
ake	-10.7261
▁पट्टी	-10.7271
▁tribes	-10.7272
▁लगाउनु	-10.7274
ible	-10.7275
kha	-10.7276
")	-10.7276
▁Office	-10.7279
ाश	-10.7283
▁act	-10.7285
ैन	-10.7285
ls	-10.7287
▁झन	-10.7289
▁सेनाहरूका	-10.7293
▁परमेश्वरबाट	-10.7294
▁हामीहरू	-10.7294
न्छन्	-10.7297
▁नियुक्त	-10.7298
▁जान्दछौ	-10.73
▁comfort	-10.7301
▁Buddha	-10.7304
▁Necessary	-10.7304
▁famine	-10.7304
▁perfect	-10.7304
▁जम्मै	-10.7304
▁ensure	-10.7304
▁plain	-10.7304
▁आइमाई	-10.7304
▁शब्दकोश	-10.7304
▁cultural	-10.7304
▁spring	-10.7304
न्ध	-10.7305
▁rename	-10.7307
▁stage	-10.7307
▁lest	-10.7307
▁घाउ	-10.7308
▁Apply	-10.7308
▁square	-10.7313
▁छुट्ट	-10.7314
▁तिनीहरुलाई	-10.7316
िरहने	-10.7316
▁पठाउने	-10.7318
▁सुत	-10.7321
▁collected	-10.7324
▁अग	-10.7325
▁safe	-10.7329
▁March	-10.7333
chan	-10.7337
hara	-10.7338
▁महिलाहरू	-10.7338
पान	-10.7344
िफ	-10.7346
▁accord	-10.7346
▁Run	-10.735
▁बाँच्ने	-10.7352
▁जिम्मा	-10.7353
▁धान	-10.7353
▁ग्रह	-10.7356
▁उद्योगको	-10.7357
▁अन्तमा	-10.7358
पेक्षित	-10.7359
back	-10.7362
▁९०	-10.7364
▁यहूदाको	-10.7366
▁ran	-10.7377
▁trouble	-10.7379
▁उभिए	-10.7382
▁pi	-10.7382
▁requires	-10.7385
▁नौ	-10.7386
▁sales	-10.7389
▁ब्या	-10.7395
च्य	-10.7395
▁guide	-10.7395
▁approach	-10.7395
▁film	-10.7395
▁ladder	-10.7395
▁गाह्रो	-10.7395
▁बिजुली	-10.7395
▁Research	-10.7396
▁depend	-10.7396
▁आकर्षित	-10.7397
▁Asia	-10.7397
▁nine	-10.7399
▁एमाले	-10.74
▁cases	-10.74
▁एदोम	-10.7401
▁सहज	-10.7402
▁लगाएको	-10.7403
▁bull	-10.7408
▁रानी	-10.7408
▁seeing	-10.7409
प्ल	-10.7413
ूँ	-10.7416
▁stored	-10.742
▁गरीबी	-10.7422
rad	-10.7423
▁Comp	-10.7424
▁२८	-10.7424
SS	-10.7426
▁बोले	-10.7427
▁determined	-10.7431
▁मनश्शे	-10.7437
▁educational	-10.7437
▁bi	-10.7441
त्र्	-10.7443
▁looks	-10.7443
ताले	-10.7444
३०	-10.7446
▁exports	-10.7447
▁operations	-10.7448
वर्ग	-10.7448
verse	-10.7455
▁आठ	-10.7457
▁tr	-10.7461
▁मिल्ने	-10.747
raj	-10.7474
▁ग्र	-10.7475
▁scheme	-10.7481
▁coordinate	-10.7482
ण्ट	-10.7483
▁quot	-10.7483
▁starts	-10.7484
▁बेच	-10.7486
▁1991/92	-10.7488
▁License	-10.7488
▁expensive	-10.7488
▁कृपा	-10.7488
▁दायित्व	-10.7488
▁लज्जित	-10.7488
▁संयोजन	-10.7488
▁GUI	-10.7488
▁Download	-10.7488
▁knew	-10.7488
▁indeed	-10.7488
▁route	-10.7488
▁solve	-10.7488
▁trend	-10.7488
▁प्रतिकूल	-10.7489
▁रिसेट	-10.7489
▁layout	-10.7489
▁छायाँ	-10.7489
▁फो	-10.7491
▁झन्	-10.7495
▁लुकाउनुहोस्	-10.7496
▁मेरी	-10.7499
▁दुःखी	-10.7499
▁Tab	-10.7501
▁correctly	-10.7506
▁रोज	-10.7508
▁meaning	-10.7515
▁क्रि	-10.7515
▁देशहरू	-10.752
▁मण्डली	-10.7524
मात्र	-10.7527
▁जनसंख्याको	-10.7533
▁रोज्न	-10.7534
आर	-10.7537
TF	-10.7537
▁होइनन्	-10.754
▁चलाउने	-10.754
द्व	-10.7554
सक्छ	-10.7554
▁बनाइ	-10.7557
ger	-10.7557
िश	-10.7557
▁चरा	-10.756
▁साथमा	-10.756
▁बह	-10.7573
▁संभाव्य	-10.7573
▁article	-10.7575
▁Service	-10.7575
▁highway	-10.7578
▁glad	-10.7581
▁आश्चर्य	-10.7581
▁incense	-10.7581
▁अग्लो	-10.7581
▁डोमेन	-10.7581
▁दृष्टान्त	-10.7581
▁सिंचाई	-10.7581
▁Pokhara	-10.7581
▁विशिष्ट	-10.7581
▁माउन्ट	-10.7581
▁thick	-10.7582
▁“”	-10.7582
▁bill	-10.7582
cl	-10.7583
पर्ने	-10.7584
▁le	-10.7585
▁भीड	-10.7586
▁integrated	-10.7586
▁till	-10.7587
३२	-10.7587
▁क्षण	-10.7587
▁सूचकाङ्क	-10.7588
▁mixed	-10.7592
▁वित्त	-10.7595
ँदैन	-10.7597
▁configured	-10.76
▁गरिन्	-10.7601
▁छोप	-10.7603
▁बिग्र	-10.7604
▁पुर्	-10.7604
ाका	-10.7605
▁foundation	-10.7611
▁desired	-10.7611
कको	-10.7614
ification	-10.7619
ज्ञ	-10.7619
▁ढाल	-10.7621
▁minutes	-10.7628
▁टी	-10.7635
▁walked	-10.7638
mark	-10.764
सर्वदा	-10.7641
off	-10.7641
Z	-10.7641
ny	-10.7643
▁bow	-10.7651
▁parents	-10.7652
ध्य	-10.7659
▁former	-10.7659
▁friend	-10.7662
▁picture	-10.7671
▁Se	-10.7671
▁व्यवसायी	-10.7675
▁Would	-10.7676
▁choice	-10.7676
▁modify	-10.7676
▁proposal	-10.7676
▁religious	-10.7676
▁गार्हस्थ्य	-10.7676
▁योआश	-10.7676
▁परिश्रम	-10.7676
▁fuel	-10.7676
▁चलचित्र	-10.7676
▁तौल	-10.7677
▁बुबा	-10.7677
▁wound	-10.7678
▁चलाउनुहोस्	-10.7678
▁backup	-10.7681
▁reward	-10.7682
▁goal	-10.7682
fa	-10.7682
zer	-10.7683
▁वातावरणीय	-10.7684
▁percentage	-10.7688
q	-10.7691
▁departed	-10.7692
▁गरिएमा	-10.7697
▁pray	-10.7698
AN	-10.7699
▁idols	-10.7702
hy	-10.7705
ants	-10.7705
▁served	-10.7712
तम	-10.7724
▁असफलः	-10.7726
लर	-10.7726
▁टिप	-10.773
▁मास्क	-10.7731
▁नो	-10.7734
▁तिनीहरूसित	-10.7739
▁कैद	-10.7743
खु	-10.7749
हुने	-10.7749
dical	-10.775
▁heat	-10.775
▁निस्के	-10.7753
▁tasks	-10.7755
▁क्षमताको	-10.7757
▁भोज	-10.7758
▁विच्छेद	-10.776
▁Current	-10.7763
ाधिकार	-10.7764
▁विदेश	-10.7764
▁pen	-10.7765
▁bookmark	-10.7768
▁Isaac	-10.7771
▁currency	-10.7771
▁grace	-10.7771
▁tabernacle	-10.7771
▁गैरसरकारी	-10.7771
▁भौगोलिक	-10.7771
▁म्यानुअल	-10.7771
▁योशियाह	-10.7771
▁slain	-10.7771
▁Chief	-10.7771
▁धितोपत्र	-10.7771
▁रिसाइज	-10.7771
▁उत्पादकत्व	-10.7771
▁sinned	-10.7772
ंगा	-10.7773
▁Nepalgunj	-10.7773
LR	-10.7773
▁Hide	-10.7774
▁अपमान	-10.7774
▁45	-10.7774
▁majority	-10.7775
▁उही	-10.7777
▁पालको	-10.7782
▁प्रशासनिक	-10.7783
▁हुनुभयो	-10.7785
धान	-10.7787
▁worked	-10.7788
▁वर्षहरुमा	-10.7794
▁ठिक	-10.7796
▁हेक्टरमा	-10.7799
▁आउ	-10.7801
▁therein	-10.7802
▁नसक	-10.7803
लै	-10.7805
▁गरिदिनु	-10.7806
▁centers	-10.7811
▁Kan	-10.7817
▁तहहरू	-10.7823
बाहिर	-10.7832
▁produc	-10.7838
▁columns	-10.784
▁horses	-10.7843
▁पस	-10.7843
▁Files	-10.7845
प्प	-10.7845
▁व्यापारी	-10.7851
▁कानून	-10.7855
▁दक्षता	-10.7856
▁स्वभाव	-10.7864
▁exercise	-10.7865
▁चम्क	-10.7867
▁complex	-10.7867
▁properties	-10.7867
▁फलफूल	-10.7867
▁पपअप	-10.7867
▁राणा	-10.7867
▁सराप	-10.7867
▁भक्तपुर	-10.7867
▁क्षति	-10.7868
▁गर्दथे	-10.787
▁Book	-10.7872
▁चाहन्छन्	-10.7873
▁व्यवस्थित	-10.7873
▁सूचि	-10.7873
▁भार	-10.7873
tar	-10.7874
pan	-10.7874
ाउँ	-10.7877
▁झरे	-10.7877
▁प्रष्ट	-10.7877
▁—	-10.788
▁Ph	-10.7882
▁possession	-10.7882
▁साझेदारी	-10.7886
छोरीहरू	-10.7888
▁लाश	-10.7889
गार	-10.789
ेश्वर	-10.7892
▁Take	-10.7893
▁notification	-10.7894
SD	-10.7895
त्यो	-10.7899
▁स्वतन्त्रता	-10.7899
स्य	-10.7899
प्	-10.7901
▁बित	-10.7903
efore	-10.7908
▁स्तरीय	-10.7908
▁Sal	-10.7909
▁Its	-10.7912
▁बास	-10.7913
▁चिनी	-10.7913
▁Day	-10.7917
1,	-10.7925
▁देखिएका	-10.7927
▁नेपालका	-10.7928
▁चल्ने	-10.7931
▁besides	-10.7934
▁गर्नाले	-10.7939
▁दिइ	-10.7946
▁व्यक्तिको	-10.7947
▁ratio	-10.7947
▁पृथ्वीको	-10.7952
▁disable	-10.7954
▁material	-10.7962
▁medicine	-10.7963
▁Women	-10.7964
▁TRANSLATORS	-10.7964
▁smooth	-10.7964
▁telephone	-10.7964
▁झन्डै	-10.7964
▁निर्दोष	-10.7964
▁म्याट्रिक्स	-10.7964
▁लगभग	-10.7964
▁साक्षी	-10.7964
▁बदल्नुहोस्	-10.7964
▁Replace	-10.7965
▁vow	-10.7965
▁firstborn	-10.7965
▁kde	-10.7969
▁domain	-10.797
▁revealed	-10.7973
▁successfully	-10.7974
▁धु	-10.7979
ong	-10.7983
▁completely	-10.7984
rc	-10.7989
▁अल्	-10.799
In	-10.799
▁तरीका	-10.7993
▁artist	-10.7994
▁sending	-10.7995
▁burned	-10.7995
▁whoever	-10.7996
▁नाउँमा	-10.8009
बन्ध	-10.8009
▁३५	-10.8012
▁corner	-10.8013
▁आदिको	-10.8014
▁जुट	-10.8015
▁Red	-10.8016
कर्मी	-10.8017
unt	-10.8017
▁strengthen	-10.8019
eth	-10.8022
▁den	-10.8027
▁परिवारको	-10.8032
▁लाम	-10.8033
आई	-10.8035
्याउन	-10.8036
▁300	-10.8045
सकेको	-10.8045
▁ended	-10.8048
▁कै	-10.805
▁दोहोर	-10.8052
▁गाड	-10.8057
▁तीस	-10.8057
▁flock	-10.8062
▁captivity	-10.8062
▁occasion	-10.8062
▁protest	-10.8062
▁begun	-10.8062
▁चाहन्थे	-10.8062
▁flee	-10.8062
▁सम्भार	-10.8062
▁executive	-10.8062
▁अधिकृत	-10.8063
▁fool	-10.8063
▁consumer	-10.8063
▁comment	-10.8063
▁थालनी	-10.8064
▁निजीकरण	-10.8064
▁paid	-10.8065
▁पत्रिका	-10.8065
▁बगैंचा	-10.8065
▁wickedness	-10.8066
▁branches	-10.8066
▁Auto	-10.8067
▁हरियो	-10.8068
्थ्यो	-10.8069
▁कर्मचारीहरू	-10.8071
▁मुलुकको	-10.8073
ler	-10.8073
ार्थ	-10.8075
▁रही	-10.8077
▁Shift	-10.8077
▁Alt	-10.8078
▁दर्शक	-10.808
खो	-10.809
view	-10.8096
दे	-10.8099
▁PC	-10.8103
▁वचनहरू	-10.8107
▁सत	-10.811
▁संस्थाको	-10.8111
▁व्या	-10.8112
▁icons	-10.8114
▁भत्क	-10.8114
▁भारतको	-10.8119
▁लैजान	-10.8119
▁विरोधी	-10.8122
▁u	-10.8124
▁garments	-10.8132
▁मनमा	-10.8136
▁लाग्न	-10.8136
text	-10.814
त्यस	-10.8143
▁जातिहरू	-10.8143
nath	-10.8144
▁decline	-10.8145
▁यि	-10.8148
▁greatly	-10.8151
ound	-10.8156
▁numbered	-10.8156
▁मानिन्छ	-10.8158
▁machine	-10.816
▁उत्पादक	-10.8161
▁Hospital	-10.8161
▁Specify	-10.8161
▁concept	-10.8161
▁identify	-10.8161
▁married	-10.8161
▁possibility	-10.8161
▁software	-10.8161
▁welfare	-10.8161
▁इन्कर्पोरेटिड	-10.8161
▁क्यालेन्डर	-10.8161
▁त्रिभुवन	-10.8161
▁थम्बनेल	-10.8161
▁फिल्म	-10.8161
▁पाइलट	-10.8161
▁wild	-10.8161
▁popular	-10.8161
▁वेश्या	-10.8161
▁adult	-10.8161
▁Automatically	-10.8161
▁brush	-10.8162
▁अवश्य	-10.8162
▁गिम्प	-10.8162
▁अनलाइन	-10.8162
▁<<	-10.8162
▁mailbox	-10.8162
▁मौका	-10.8162
▁Game	-10.8163
▁छोरीहरू	-10.8164
▁भोल्युम	-10.8166
▁methods	-10.8167
रहेका	-10.8167
▁busy	-10.8169
▁scattered	-10.817
▁boy	-10.8171
▁आराम	-10.8171
▁अन्यथा	-10.8173
▁introduced	-10.8173
▁वाक्य	-10.8175
ियर	-10.8175
▁बटनमा	-10.8182
▁एन्ड	-10.8184
▁doctors	-10.8184
rea	-10.8186
ze	-10.8188
ुद	-10.8189
king	-10.8194
ाउँने	-10.8199
ूट	-10.8203
▁lies	-10.8207
▁धा	-10.8207
▁birds	-10.8208
▁begin	-10.8209
▁वस्तुहरु	-10.8223
गरी	-10.8229
▁हल	-10.8231
▁जबसम्म	-10.8236
गल	-10.8237
▁जमीनमा	-10.8238
ST	-10.824
med	-10.8241
▁चलन	-10.8245
नका	-10.8246
▁clicking	-10.8251
▁मर्ने	-10.8252
▁requirements	-10.8256
▁branch	-10.8257
दैछ	-10.8261
▁GNU	-10.8261
▁Information	-10.8261
▁council	-10.8261
▁कन्क्वेरर	-10.8261
▁निमन्त्रणा	-10.8261
▁फागुन	-10.8261
▁सँधै	-10.8261
▁साँढे	-10.8261
▁हस्तान्तरण	-10.8261
▁अन्नबलि	-10.8261
▁POP	-10.8262
▁बोल्नु	-10.8264
▁backward	-10.8265
▁दिनेछ	-10.8266
▁located	-10.8267
▁प्रयोगशाला	-10.8269
▁highest	-10.8269
▁य्	-10.8269
धी	-10.8272
▁student	-10.8272
▁यिन	-10.8273
▁चर्चा	-10.8276
▁strengthened	-10.8281
▁hit	-10.8283
▁wants	-10.8283
▁effectively	-10.8289
▁प्रयोगकर्ताले	-10.8297
याँ	-10.8297
▁७०	-10.8298
▁Th	-10.8298
▁expenditures	-10.83
udi	-10.8302
▁पलिश्तीहरू	-10.8303
▁cr	-10.8307
▁actions	-10.8311
▁aspects	-10.8314
ire	-10.8316
ज्ञा	-10.8319
▁सेवामा	-10.8319
lan	-10.8322
मोन	-10.8324
ीहरूको	-10.8327
ove	-10.8329
▁lib	-10.8329
▁तहको	-10.8331
कुनै	-10.8331
▁गाडी	-10.8332
▁cross	-10.8333
▁इस्राएलमा	-10.8334
▁loved	-10.8338
▁तुल्याउन	-10.8342
▁एली	-10.8342
ev	-10.8343
▁ram	-10.8345
मण्डल	-10.8351
गान	-10.8353
▁cells	-10.8356
▁दुर्	-10.8358
होस्	-10.8358
िस्	-10.8359
ाड	-10.8361
▁Possible	-10.8362
▁Two	-10.8362
▁accelerat	-10.8362
▁buried	-10.8362
▁solution	-10.8362
▁ज्योति	-10.8362
▁टेलिफोन	-10.8362
▁खपत	-10.8362
▁Centre	-10.8362
▁उम्र	-10.8363
▁खानेकुरा	-10.8363
▁arise	-10.8364
▁medicines	-10.8365
▁memo	-10.8365
▁jobs	-10.8366
▁नच	-10.8369
▁गरिदिए	-10.837
run	-10.8371
ब्ल	-10.8375
जनक	-10.8376
▁director	-10.8376
पूर्व	-10.8376
▁parameters	-10.8377
▁trained	-10.8378
▁Path	-10.8383
▁सदस्यहरू	-10.8386
▁postal	-10.8386
्दो	-10.8386
▁uses	-10.8389
▁camera	-10.8391
▁clothing	-10.8391
▁showed	-10.8392
पाद	-10.8392
▁forced	-10.8396
ाएका	-10.8398
अब	-10.8406
▁५००	-10.8406
br	-10.841
▁शत्रुहरूलाई	-10.8411
▁matching	-10.8417
round	-10.842
▁bonds	-10.8427
uff	-10.8429
▁जेल	-10.8433
▁फोन	-10.8435
▁knows	-10.8437
ert	-10.8439
तिनीहरू	-10.8441
▁Her	-10.8443
▁सुन्नु	-10.8446
▁flat	-10.8454
▁प्रेरित	-10.8457
▁आजको	-10.8464
▁festival	-10.8464
▁honey	-10.8464
▁modified	-10.8464
▁pleasure	-10.8464
▁preserve	-10.8464
▁तुरही	-10.8464
▁सर्वसाधारण	-10.8464
▁सर्वोच्च	-10.8464
▁Ammon	-10.8464
▁कम्तिमा	-10.8464
▁खुबै	-10.8464
▁शिक्षण	-10.8464
▁बहुविध	-10.8465
▁angle	-10.8465
▁committed	-10.8465
▁zone	-10.8467
▁vote	-10.8467
▁मोटर	-10.8468
▁कम्ती	-10.847
▁RGB	-10.847
▁शास्त्र	-10.8471
nes	-10.8472
▁अल्प	-10.848
like	-10.8481
mission	-10.8491
▁fulfilled	-10.8495
▁belong	-10.8495
ेछ	-10.8496
▁रस	-10.8498
▁kinds	-10.8502
▁स्थित	-10.8502
▁सहन	-10.8503
▁हाँस	-10.8504
#	-10.8508
mas	-10.8514
▁cloth	-10.8515
▁डक	-10.8518
▁सां	-10.8519
▁Any	-10.852
▁inner	-10.852
▁गि	-10.8521
▁Pan	-10.8522
▁hearts	-10.8522
▁चाहन्छौ	-10.8522
▁भो	-10.8529
▁corporations	-10.8531
ाण	-10.8531
izing	-10.8532
▁containing	-10.8532
▁35	-10.8533
▁बसेको	-10.8537
▁जोग	-10.8541
ँग	-10.8544
१०	-10.8549
▁एका	-10.8549
▁Creat	-10.855
सकेका	-10.855
▁Far	-10.8556
▁समात	-10.8565
▁महत्त्व	-10.8566
▁terror	-10.8567
▁Institute	-10.8567
▁अन्धकार	-10.8567
▁उपर्युक्त	-10.8567
▁क्लाइन्ट	-10.8567
▁निषेध	-10.8567
▁शेकेल	-10.8567
▁सङ्गीत	-10.8567
▁हिन्दू	-10.8567
▁ह्रास	-10.8567
▁neck	-10.8567
▁बत्ती	-10.8567
▁थ्रेड	-10.8567
95	-10.8568
▁overwrite	-10.8568
ians	-10.8568
▁River	-10.8568
▁पोषण	-10.8568
▁भाडा	-10.8569
▁formulation	-10.857
▁consideration	-10.8571
मन	-10.8572
▁लिई	-10.8572
lah	-10.8572
▁wealth	-10.8572
▁cold	-10.8573
▁piece	-10.8579
▁बीस	-10.8581
://	-10.8583
▁किल्ला	-10.8585
हान	-10.8587
▁operated	-10.859
▁जान्ने	-10.859
▁भय	-10.8592
▁हटाउने	-10.8594
▁बर	-10.8594
▁भोक	-10.86
▁दिंदै	-10.8602
▁round	-10.8603
▁भाँडा	-10.8604
▁extract	-10.8606
डर	-10.8606
▁चढाउन	-10.8608
▁स्थानको	-10.861
सम्मको	-10.8617
अप	-10.8619
▁उठाउन	-10.862
▁मसँग	-10.8624
45	-10.8626
endra	-10.8628
▁bless	-10.863
▁ब्य	-10.8636
▁owner	-10.8646
▁नामको	-10.8646
▁नेताहरू	-10.8649
▁claim	-10.8652
▁expect	-10.8652
श्य	-10.8652
▁उद्योगहरुको	-10.8654
▁rows	-10.8656
yo	-10.8659
ाइयो	-10.866
▁27	-10.866
No	-10.8667
▁represent	-10.8669
▁Birgunj	-10.8671
▁Samaria	-10.8671
▁Special	-10.8671
▁earlier	-10.8671
▁journey	-10.8671
▁opposition	-10.8671
▁politics	-10.8671
▁वास्तवमै	-10.8671
▁सांस्कृतिक	-10.8671
▁breath	-10.8671
▁proceed	-10.8671
▁wives	-10.8672
▁खरीद	-10.8672
▁जलस्रोत	-10.8672
▁भित्ता	-10.8672
▁सामरिया	-10.8672
▁यकिन	-10.8672
▁विजेट	-10.8672
▁sad	-10.8673
▁राम्रा	-10.8673
▁questions	-10.8673
▁अपेक्षित	-10.8677
▁girl	-10.8677
▁requirement	-10.8678
▁Speak	-10.8686
▁केस	-10.8692
▁संस्थाहरू	-10.8698
▁शहरहरूमा	-10.8704
▁topic	-10.8706
▁investors	-10.8712
16	-10.8715
ाङ्क	-10.8715
▁समूहको	-10.8725
▁पिउन	-10.8725
▁रेल	-10.8725
▁आउँदै	-10.8726
▁suffer	-10.8728
▁बसेर	-10.8729
▁लेखिए	-10.873
▁देखेको	-10.8738
▁पारेर	-10.8739
▁posts	-10.8741
▁Again	-10.8742
बहादुर	-10.8742
आफ्नो	-10.8742
यता	-10.8743
▁32	-10.8747
▁ताल	-10.8753
भएको	-10.8756
▁विक	-10.8757
▁भाषामा	-10.876
्ध	-10.8764
िनी	-10.8765
▁earn	-10.8768
▁fix	-10.8772
▁widow	-10.8777
▁एक्लै	-10.8777
▁गिदोन	-10.8777
▁जनसहभागिता	-10.8777
▁थुप्रै	-10.8777
▁नबूकदनेस्सर	-10.8777
▁पश्चिमाञ्चल	-10.8777
▁मापदण्ड	-10.8777
▁SSL	-10.8777
▁zoom	-10.8777
▁पीडित	-10.8777
▁Insert	-10.8777
▁शिविर	-10.8777
▁taught	-10.8778
▁spot	-10.8778
▁धरान	-10.8778
▁एसाव	-10.8778
▁छोड्नुहोस्	-10.878
▁राख्छ	-10.8782
▁पुराना	-10.8782
▁सुन्ने	-10.8783
ंस	-10.8784
▁स्क	-10.8786
▁aside	-10.879
▁generated	-10.8793
ूत	-10.8796
▁सक्नेछ	-10.8801
▁जान्छन्	-10.8801
▁bringing	-10.8803
▁Shah	-10.8803
▁तुलना	-10.8808
▁लगिनेछ	-10.8814
▁आफन्तहरू	-10.8816
िसकेको	-10.8817
▁stayed	-10.8818
▁भेटी	-10.8821
फल	-10.8822
▁thanks	-10.8824
▁कट	-10.8824
▁बोल्ने	-10.8825
चक	-10.8836
▁URLs	-10.8839
▁हेर्नु	-10.8839
▁त्यहाँबाट	-10.8842
देव	-10.8843
▁बनाउ	-10.8846
▁शेल	-10.8846
print	-10.8851
▁रुमा	-10.8852
▁क्षमतामा	-10.8852
▁जाँदै	-10.8855
▁सर्	-10.8855
je	-10.8858
mini	-10.8869
▁खोज्न	-10.8872
▁तथ्याङ्	-10.8874
lect	-10.8875
ीर	-10.8878
▁फुल	-10.888
▁occur	-10.8883
▁Document	-10.8883
▁gradient	-10.8883
▁prostitute	-10.8883
▁1990/91	-10.8883
▁Hezekiah	-10.8883
▁beloved	-10.8883
▁explain	-10.8883
▁finance	-10.8883
▁trespass	-10.8883
▁झुण्ड	-10.8883
▁दृढ	-10.8883
▁सिँचाइ	-10.8883
▁खतना	-10.8883
▁किताब	-10.8883
▁relationship	-10.8883
▁earnings	-10.8883
▁excessive	-10.8884
▁bind	-10.8884
▁चासो	-10.8884
▁प्रतिनिधित्व	-10.8884
▁consciousness	-10.8884
हरूमाथि	-10.8886
▁initiated	-10.8887
ral	-10.8889
▁पाइप	-10.8889
ther	-10.8889
▁define	-10.8891
▁क्यु	-10.8891
▁उन	-10.8893
▁26	-10.8894
ीएल	-10.8896
▁processing	-10.8899
ef	-10.8899
▁एकाइ	-10.89
date	-10.89
▁sale	-10.8901
▁reforms	-10.8902
▁आदिवासी	-10.8902
▁कार्यकारी	-10.8902
▁भैरहेको	-10.8904
▁clearly	-10.8909
ाब	-10.8911
▁स्टे	-10.8911
▁खोज्ने	-10.8914
▁खाल	-10.8914
▁फु	-10.8914
▁देशबाट	-10.8922
तै	-10.8922
▁arguments	-10.8927
▁2000	-10.8931
ाली	-10.8931
▁पाठको	-10.8932
▁sing	-10.8932
त्तर	-10.8933
▁आव	-10.8938
▁बेत	-10.8944
▁प्राप्ति	-10.8946
यू	-10.8947
dh	-10.8948
नगर	-10.8949
▁छान	-10.8955
विरुद्ध	-10.8956
▁skill	-10.8957
kin	-10.8957
▁२७	-10.8957
स्तरीय	-10.8957
▁संसारको	-10.8957
सुकै	-10.8961
ेपछि	-10.8964
्वे	-10.8965
ako	-10.8968
▁सिद्ध	-10.8969
▁स्वा	-10.8969
▁मार्नु	-10.897
▁जंगल	-10.8974
▁विकल्पहरू	-10.8975
▁दिशामा	-10.898
five	-10.8982
▁पापको	-10.8984
▁राज्यमा	-10.8988
▁लडे	-10.8989
▁Year	-10.8991
▁झगडा	-10.8991
▁1984/85	-10.8991
▁Irrigation	-10.8991
▁blue	-10.8991
▁dictionary	-10.8991
▁thumbnail	-10.8991
▁पोशाक	-10.8991
▁यारोबाम	-10.8991
▁यसैकारण	-10.8991
▁felt	-10.8991
hel	-10.8991
▁आँगन	-10.8991
▁obey	-10.8991
▁thread	-10.8991
▁अधीन	-10.8991
▁trash	-10.8991
▁साँच्चिकै	-10.8991
2)	-10.8991
▁धूलो	-10.8991
▁sitting	-10.8993
▁Che	-10.8993
▁पीडा	-10.8994
▁encamped	-10.8995
▁खोस	-10.8998
▁ऐ	-10.9002
▁भनिएको	-10.9004
ele	-10.9004
ons	-10.901
▁सदस्यता	-10.9013
▁conf	-10.9015
▁Ti	-10.9015
▁Have	-10.9024
▁चाहिन्छ	-10.9024
▁व्यवस्थामा	-10.903
▁स्रोतको	-10.9033
▁किशोरी	-10.9036
▁लगाइ	-10.9037
यम	-10.904
▁फर्किए	-10.9043
शु	-10.9047
▁बिन्यामीन	-10.9048
▁songs	-10.9052
▁पाइने	-10.9053
body	-10.9059
▁पूर्वी	-10.906
▁तँलाई	-10.9062
जसो	-10.9065
▁जसो	-10.9073
▁Pe	-10.9077
▁हुनेछु	-10.9079
▁उत्तरी	-10.9084
▁खर्चमा	-10.909
ाँस	-10.9093
▁भनाइ	-10.9095
▁कसैको	-10.9096
▁धर	-10.9096
▁Agricultural	-10.9099
▁April	-10.9099
▁Background	-10.9099
▁adequate	-10.9099
▁independent	-10.9099
▁phrase	-10.9099
▁अन्वेषण	-10.9099
▁आंशिक	-10.9099
▁गन्तव्य	-10.9099
▁प्वाल	-10.9099
▁यशैया	-10.9099
▁सञ्चालक	-10.9099
▁स्तुति	-10.9099
▁distance	-10.9099
▁Besides	-10.9099
▁Small	-10.9099
▁निर्देशक	-10.9099
▁photograph	-10.9099
▁खारेज	-10.9099
▁भयानक	-10.9099
▁monetary	-10.91
▁धर्मशास्त्र	-10.91
▁salt	-10.9102
▁नगद	-10.9102
▁app	-10.9103
▁Trade	-10.9108
tha	-10.9109
▁Job	-10.9109
▁infrastructure	-10.911
▁arrangement	-10.911
▁formulated	-10.9115
स्थितिमा	-10.9117
▁sides	-10.912
▁फाल	-10.9121
िरहन्छ	-10.9124
िमा	-10.9126
▁लिइ	-10.9127
▁डुब	-10.9128
▁तोकिएको	-10.913
▁historical	-10.913
११	-10.9134
▁हुंदैन	-10.9134
▁पिउने	-10.9135
▁gas	-10.9135
▁Sri	-10.9136
▁लाज	-10.9136
▁सुस्त	-10.914
▁कसै	-10.9142
▁कम्पनीहरू	-10.9143
▁instruments	-10.9143
▁indicate	-10.9145
▁हिंडे	-10.9148
▁onto	-10.9151
▁para	-10.9151
ात्	-10.9161
▁देख्नु	-10.9165
▁देख्ने	-10.9166
▁Pal	-10.9169
रत	-10.9169
-8	-10.9169
▁नोक्सान	-10.917
▁शासकहरू	-10.9171
वश	-10.9172
<	-10.9174
▁streets	-10.9174
िक्स	-10.9178
ax	-10.9181
▁३२	-10.9183
▁seat	-10.9184
सबै	-10.9186
▁साझेदार	-10.9187
▁सालको	-10.9196
▁Shu	-10.9198
दल	-10.9199
▁कार्यकर्ता	-10.9203
▁नामक	-10.9205
च्छेद	-10.9206
▁Absalom	-10.9209
▁digiKam	-10.9209
▁अक्टोबर	-10.9209
▁अत्यावश्यक	-10.9209
▁निस्तार	-10.9209
▁लडाइँ	-10.9209
▁संविधान	-10.9209
▁grass	-10.9209
▁mill	-10.9209
▁गर्भवती	-10.9209
▁ध्वंस	-10.9209
▁घनत्व	-10.9209
▁authentication	-10.921
▁failure	-10.9211
ov	-10.9212
▁Reset	-10.9212
▁Land	-10.9214
▁Next	-10.9214
▁HTTP	-10.9218
▁moon	-10.9219
▁effort	-10.9221
▁poured	-10.9225
▁western	-10.9226
▁July	-10.9229
▁बुझ्ने	-10.9239
▁Programme	-10.9242
My	-10.925
▁सकिँदैनः	-10.9251
▁accepted	-10.9255
▁वाली	-10.9259
▁किसिमले	-10.9262
▁implementing	-10.9263
▁अर्ब	-10.9272
▁Rep	-10.9274
▁Ri	-10.9274
▁राज्यको	-10.9277
▁dev	-10.9282
▁प्रजातन्त्रको	-10.9285
▁tomb	-10.9289
▁तु	-10.9292
▁Hi	-10.9293
▁leaves	-10.9293
बहिनीहरू	-10.9293
work	-10.9297
सूची	-10.9297
90	-10.9305
▁generate	-10.9305
▁restore	-10.9306
ाउँन	-10.9307
how	-10.9312
▁प्राणी	-10.9313
मुख	-10.9314
▁pan	-10.9316
▁po	-10.9318
▁flag	-10.9319
▁उपन्यास	-10.9319
▁require	-10.932
▁चुनौती	-10.932
▁Additional	-10.932
▁Jonathan	-10.932
▁Plugin	-10.932
▁leaving	-10.932
▁trumpet	-10.932
▁अगमवाणी	-10.932
▁चेष्टा	-10.932
▁डाँडा	-10.932
▁तत्त्व	-10.932
▁परिभाषा	-10.932
▁heavy	-10.932
▁प्रकृया	-10.932
▁scroll	-10.932
▁२०१७	-10.9321
▁popup	-10.9321
▁delight	-10.9321
▁वहाँ	-10.9321
▁plot	-10.9322
▁तातो	-10.9322
▁Bhaktapur	-10.9323
▁२९	-10.9323
▁ल्याई	-10.9323
▁otherwise	-10.9323
▁workspace	-10.9325
▁आउँदा	-10.9325
▁खोला	-10.9325
▁स्तन	-10.9326
▁permanently	-10.9327
▁commitment	-10.9329
▁जनाएको	-10.933
▁Home	-10.9337
ight	-10.9338
▁लाल	-10.9338
▁hang	-10.9344
▁आङ्ग	-10.9352
▁executed	-10.9352
▁प्रतिस्पर्धा	-10.9354
ID	-10.9354
▁consist	-10.9354
ष्टि	-10.9355
▁गरौं	-10.9357
add	-10.936
▁प्रहार	-10.9361
85	-10.9361
▁स्तरको	-10.9361
▁गर्नुको	-10.9362
इस	-10.9362
ज्यू	-10.9364
▁ate	-10.9366
To	-10.9368
▁gets	-10.9369
चना	-10.9369
▁शे	-10.9369
र्ग	-10.937
▁meat	-10.9375
▁लुकाउन	-10.9377
▁pillars	-10.938
▁chat	-10.9385
▁किशोर	-10.9386
▁cha	-10.9393
lip	-10.9395
▁रथ	-10.9397
var	-10.9399
▁America	-10.94
sec	-10.9401
can	-10.9405
tric	-10.9406
rain	-10.9411
▁lift	-10.9413
गन	-10.9415
▁हल्ल	-10.9416
▁Post	-10.9416
▁४५	-10.9417
्याइ	-10.9423
▁serious	-10.9424
▁ये	-10.9429
▁साइन	-10.9432
▁उद्धार	-10.9433
▁पाकिस्तान	-10.9433
▁floor	-10.9433
▁raising	-10.9433
▁रुपान्तरण	-10.9433
▁सकारात्मक	-10.9433
▁सिक्किम	-10.9433
▁Saving	-10.9433
Various	-10.9433
▁क्वान्टा	-10.9433
▁Dharan	-10.9433
▁quantity	-10.9433
▁बोसो	-10.9433
▁UML	-10.9433
▁About	-10.9434
▁finger	-10.9434
▁देखाइएको	-10.9435
वट	-10.9435
▁efficiency	-10.9436
▁गर्नलाई	-10.9439
▁हटाइ	-10.9439
्नेछु	-10.9439
▁Format	-10.9439
▁प्रेरितहरू	-10.9441
▁distributed	-10.9441
▁अंक	-10.9442
▁anointed	-10.9444
▁धुन	-10.9446
▁Test	-10.9449
▁pr	-10.9449
▁lose	-10.9451
▁दिनुपर्छ	-10.9451
▁touch	-10.9455
▁निर्भरता	-10.9457
▁Mah	-10.946
▁ठग	-10.9461
▁चिया	-10.9464
asa	-10.9465
▁maintained	-10.9468
▁Did	-10.9469
▁recorded	-10.9471
▁wo	-10.9475
▁अङ्ग	-10.9479
▁provisions	-10.9479
▁chariots	-10.9489
क्टर	-10.9493
▁योराम	-10.9503
▁Among	-10.9505
▁स्थानहरू	-10.9506
▁online	-10.9507
▁वर्षका	-10.9513
एर	-10.9519
▁depart	-10.9519
▁सुनेर	-10.9523
AR	-10.9528
▁cu	-10.9532
▁commit	-10.9537
▁vertical	-10.9538
▁wash	-10.9541
ley	-10.9543
▁Remote	-10.9546
▁ancient	-10.9546
▁circle	-10.9546
▁desolate	-10.9546
▁testimony	-10.9546
▁मानाङ्कन	-10.9546
▁captive	-10.9546
▁रासायनिक	-10.9546
▁अन्धा	-10.9546
▁शैतान	-10.9546
▁Font	-10.9547
▁sugar	-10.9547
▁Remember	-10.9547
▁पुस्तकालय	-10.9547
▁प्रसिद्ध	-10.9547
▁awareness	-10.9547
▁transit	-10.9547
▁२६	-10.9547
▁आग्रह	-10.9548
▁appearance	-10.955
▁backend	-10.9551
▁खेल्न	-10.9552
▁Command	-10.9552
▁सेनापति	-10.9552
▁अस्पतालमा	-10.9553
▁rejected	-10.9555
vel	-10.9556
ालाई	-10.9557
▁वाध्य	-10.9559
पति	-10.9559
▁vine	-10.9559
▁captain	-10.9561
rah	-10.9562
▁75	-10.957
▁उल्लेखित	-10.9571
hal	-10.9572
▁चुन	-10.9579
छा	-10.958
▁retrieve	-10.958
्नी	-10.9581
▁बेंसी	-10.9586
▁इलाका	-10.9586
▁अश्शूरका	-10.959
▁walls	-10.9591
केन्द्र	-10.9599
भो	-10.9599
ero	-10.9602
.>	-10.9618
key	-10.9621
bed	-10.9622
▁समूहले	-10.9624
सँगको	-10.9625
▁जिउँद	-10.9632
विना	-10.9632
▁उनीहरुको	-10.9635
▁प्रो	-10.9637
▁ज्या	-10.9641
▁notes	-10.9642
▁insert	-10.9644
▁captains	-10.9646
▁walking	-10.9647
ढा	-10.9649
▁टाँस	-10.9652
लक	-10.9656
▁Connect	-10.9657
▁उब्ज	-10.966
िको	-10.9661
▁hydro	-10.9661
▁बात	-10.9661
▁Facebook	-10.9661
▁Pakistan	-10.9661
▁Source	-10.9661
▁आषाढ	-10.9661
▁लोग्ने	-10.9661
▁prevail	-10.9661
▁सायद	-10.9661
▁grew	-10.9662
▁कर्मचारीहरु	-10.9662
▁स्वामी	-10.9662
▁हिँड	-10.9662
▁ज्याला	-10.9665
▁हुदा	-10.9665
▁केन्द्रमा	-10.9667
▁Levi	-10.9669
▁वृत्त	-10.967
▁ignored	-10.967
▁यिनै	-10.9671
घाट	-10.9672
▁Jan	-10.9674
▁पुर्याए	-10.9683
▁mine	-10.9684
▁sufficient	-10.9685
▁बढि	-10.9685
▁साटोमा	-10.9685
४५	-10.9688
▁fr	-10.9688
▁adopt	-10.9689
▁नजिकै	-10.9689
▁भएँ	-10.9689
84	-10.9695
▁Action	-10.9696
▁लुगाहरू	-10.9702
दन	-10.9702
▁signs	-10.9705
▁समूहहरू	-10.9706
▁Dhan	-10.9706
▁अम्मोनी	-10.9707
▁देखिन्छन्	-10.9709
▁७५	-10.9711
75	-10.9714
▁जान्नु	-10.9716
▁वर्षदेखि	-10.9719
▁isn	-10.9721
▁corrupt	-10.9722
▁पूजाहारीहरूले	-10.9725
▁gr	-10.9726
सम	-10.973
▁Ki	-10.9733
▁End	-10.9733
▁lambs	-10.9734
▁मानिसहरुले	-10.9735
hich	-10.9737
▁thoughts	-10.9737
▁brings	-10.9739
१९	-10.974
उन्	-10.9742
अर्का	-10.9743
click	-10.9743
▁bath	-10.9749
▁नियोजन	-10.975
▁मोर	-10.975
▁editing	-10.9751
▁photo	-10.9756
▁आगोमा	-10.9758
▁जोन	-10.9759
पश्चात	-10.9761
▁rulers	-10.9762
path	-10.9765
▁सधै	-10.9767
70	-10.9768
▁Rai	-10.977
▁Ch	-10.9772
▁ऋणको	-10.9773
▁Construct	-10.9775
▁harm	-10.9777
▁गरिब	-10.9777
▁Width	-10.9778
▁happy	-10.9778
▁stomach	-10.9778
▁डुङ्गा	-10.9778
▁मौद्रिक	-10.9778
▁crowd	-10.9778
▁divine	-10.9778
▁येहू	-10.9778
▁Layer	-10.9778
▁प्रवेशद्वार	-10.9778
▁शिमोन	-10.9778
▁shot	-10.9779
▁2016	-10.9779
▁Rename	-10.978
AND	-10.978
मत	-10.978
▁धारा	-10.9781
▁eighth	-10.9781
▁उठाउने	-10.9781
▁उहां	-10.9782
▁पारदर्शी	-10.9785
ाइदिए	-10.9786
तया	-10.9787
▁Western	-10.9787
eep	-10.9788
▁लिन्छ	-10.9788
▁फोल्डरको	-10.9791
▁usage	-10.9793
▁हजारौं	-10.9794
लाइन	-10.9794
Do	-10.9795
▁किन्न	-10.9798
▁गर्यौं	-10.9798
▁publication	-10.98
▁धो	-10.98
योजना	-10.98
top	-10.9803
▁techniques	-10.9804
▁ruler	-10.9804
▁अर	-10.9806
▁blessing	-10.981
▁reports	-10.9814
▁Hear	-10.9815
▁विकासकर्ता	-10.9816
▁ordinances	-10.9819
▁ट्री	-10.982
▁ठाँउ	-10.982
पू	-10.9821
▁तरकारी	-10.9822
del	-10.9826
▁पूर्वाधार	-10.9829
▁पाइएको	-10.9833
▁War	-10.9837
मलाई	-10.9846
▁reader	-10.9847
▁Air	-10.9848
▁छविमा	-10.9858
evi	-10.9864
▁त्य	-10.9865
▁monitor	-10.9866
▁spend	-10.9867
१२	-10.9868
▁stars	-10.9871
▁Mal	-10.9871
▁मरेको	-10.9871
तान्त	-10.9875
वाल	-10.9876
▁सल	-10.9876
▁समयसम्म	-10.9876
▁seconds	-10.9877
ुस	-10.9883
▁Mon	-10.9893
▁लुट	-10.9894
struct	-10.9895
९५	-10.9895
▁शरीरलाई	-10.9895
▁British	-10.9895
▁Configuration	-10.9895
▁Krishna	-10.9895
▁Sikkim	-10.9895
▁applied	-10.9895
▁enjoy	-10.9895
▁execution	-10.9895
▁इत्यादि	-10.9895
▁प्रशोधन	-10.9895
▁बसोबास	-10.9895
▁sharp	-10.9895
▁अभिवृद्धि	-10.9895
▁zero	-10.9895
▁अफलाइन	-10.9896
▁applet	-10.9896
▁cease	-10.9896
▁Like	-10.9896
▁सामान्यतया	-10.9896
▁२०४१	-10.9897
▁अफिस	-10.9897
▁आकर्षक	-10.9897
▁सङ्कुचन	-10.9898
▁बनायो	-10.9899
▁भन्नुभएको	-10.9899
▁pair	-10.9899
▁offline	-10.99
▁निर्माता	-10.9901
▁बिच	-10.9903
▁आहार	-10.9903
लाल	-10.9903
▁Union	-10.9905
७५	-10.9907
▁declared	-10.9909
▁Both	-10.9909
ाइरहेका	-10.9912
▁ग्रे	-10.9912
▁attain	-10.9914
▁नल	-10.9915
▁household	-10.9918
▁replaced	-10.9918
▁पुग्छ	-10.992
▁farmer	-10.9921
▁चाहनुभए	-10.9923
▁costs	-10.9923
▁traveled	-10.9923
▁Options	-10.993
▁उन्नति	-10.9933
▁फर्काउन	-10.9935
ायौ	-10.9936
▁बिर्स	-10.9944
्याई	-10.9946
▁फर्म	-10.9947
▁रङहरू	-10.9947
▁हुनै	-10.9951
ाउनेछु	-10.9952
▁organisations	-10.9956
▁क्रमिक	-10.9956
स्था	-10.9965
▁buildings	-10.9966
▁panchayats	-10.9974
▁कदमहरु	-10.9981
Now	-10.9984
▁Industrial	-10.9986
direct	-10.9987
्नुहुन्छ	-10.9988
▁सचेत	-10.9999
पूर	-11
▁observe	-11.0002
▁1989/90	-11.0004
iel	-11.0006
▁careful	-11.0007
arch	-11.0011
▁जित्न	-11.0013
▁accident	-11.0014
▁fifth	-11.0014
▁murder	-11.0014
▁temperature	-11.0014
▁इन्टिजर	-11.0014
▁कान्तिपुर	-11.0014
▁सिदकियाह	-11.0014
▁बाँण	-11.0014
▁वाक्यांश	-11.0014
▁Network	-11.0014
▁mask	-11.0014
▁Airport	-11.0015
▁ब्रुस	-11.0015
▁दानियल	-11.0015
▁भोलि	-11.0015
▁grid	-11.0016
▁फड्क	-11.0017
▁warning	-11.0017
▁9.	-11.0017
▁ताजा	-11.002
▁Edom	-11.002
▁साह	-11.0021
▁सामग्रीहरु	-11.0022
▁तीनवटा	-11.0025
▁लिएका	-11.0026
▁नारायण	-11.0028
▁टेप	-11.0029
▁चामल	-11.0033
▁dog	-11.0034
▁शु	-11.004
मिति	-11.0046
▁नगरे	-11.0046
▁ड्र	-11.0056
▁visited	-11.0063
▁फलक	-11.0067
▁Ham	-11.0069
▁गर्छन	-11.0071
▁प्रहरीले	-11.0073
anga	-11.0074
ियस	-11.0076
▁संवादमा	-11.0081
▁मान्न	-11.0087
▁ki	-11.0092
▁पर्वतमा	-11.0094
▁Devi	-11.0094
▁BAR	-11.0098
▁th	-11.0098
्टा	-11.0108
तान	-11.0108
्दिन	-11.0111
▁चर	-11.0117
▁purchase	-11.0118
▁छर्क	-11.012
त्री	-11.0122
▁skills	-11.0126
स्थल	-11.0128
▁डिजिक्याम	-11.0135
▁advice	-11.0135
▁alcohol	-11.0135
▁इन्जिन	-11.0135
▁ढुवानी	-11.0135
▁बाँडफाँड	-11.0135
▁सगरमाथा	-11.0135
▁सामुदायिक	-11.0135
▁Always	-11.0135
▁परिचित	-11.0135
▁विधवा	-11.0135
▁वृक्षारोपण	-11.0135
2,000	-11.0135
▁ल्याऊ	-11.0135
▁demonstrat	-11.0135
▁प्रतीक	-11.0135
▁poet	-11.0136
▁रेखाचित्र	-11.0136
▁hot	-11.0136
▁नोड	-11.0138
▁प्रथा	-11.0142
▁चे	-11.0143
▁ब्लग	-11.0143
▁random	-11.0143
▁नून	-11.0144
▁टेवा	-11.0146
▁shell	-11.0146
▁encrypted	-11.0148
▁publicity	-11.015
▁स्वतः	-11.015
▁treated	-11.015
एफ	-11.0151
कुमार	-11.0153
स्त्र	-11.0154
▁officers	-11.0155
▁Date	-11.0155
▁official	-11.0157
▁brick	-11.0157
▁se	-11.0165
▁हाइ	-11.0168
▁Asian	-11.0168
▁station	-11.0168
ल्लो	-11.017
▁पार्दै	-11.0172
gan	-11.0173
▁Selected	-11.0173
table	-11.0174
▁Mode	-11.0175
▁सक्छौं	-11.0179
▁Sy	-11.0179
▁मैदान	-11.0183
यत	-11.0186
▁नारा	-11.0186
▁बलिहरू	-11.0186
▁हर्	-11.0186
▁कार्यक्रमहरू	-11.0188
▁apart	-11.0193
▁चलाए	-11.0194
१८	-11.0198
▁planted	-11.0198
▁राखेका	-11.02
▁कनान	-11.0203
▁ability	-11.0205
▁कन्या	-11.0206
िदेऊ	-11.0208
▁ओर्	-11.0211
▁डोरी	-11.0214
▁मृत्युको	-11.0216
▁केन्द्रको	-11.0221
safe	-11.0222
▁थाक	-11.0228
▁invest	-11.023
▁त्यसबाट	-11.023
दिनु	-11.0233
▁गरेकी	-11.0237
▁आयोगको	-11.0238
४४	-11.0241
!'	-11.0244
▁exported	-11.0245
▁देशहरूमा	-11.0249
▁ह्या	-11.0256
▁East	-11.0257
▁प्राधिकरण	-11.0257
▁बिषय	-11.0257
▁Black	-11.0257
▁Elijah	-11.0257
▁Foreign	-11.0257
▁closing	-11.0257
▁principal	-11.0257
▁prophesy	-11.0257
▁understood	-11.0257
▁yesterday	-11.0257
▁अँध्यारो	-11.0257
▁आह्वान	-11.0257
▁उद्धरण	-11.0257
▁पासफ्रेज	-11.0257
▁वनस्पति	-11.0257
▁स्वाभाविक	-11.0257
▁personnel	-11.0257
▁queen	-11.0257
▁saints	-11.0257
▁tape	-11.0257
▁निष्पक्ष	-11.0257
▁डिग्री	-11.0257
▁हेरोद	-11.0257
▁huge	-11.0257
▁diff	-11.0258
▁बैंकले	-11.0258
▁चिसो	-11.0258
▁हदसम्म	-11.0259
▁सन्धि	-11.0259
▁Log	-11.026
▁दुइजना	-11.0261
▁पर्यटकहरु	-11.0261
▁सचिव	-11.0263
▁बेन	-11.0264
▁लहर	-11.0264
▁संघीय	-11.0264
▁आइपुग	-11.0264
▁Mag	-11.0265
▁कल्याण	-11.0265
▁sync	-11.0267
▁छुट्टै	-11.0267
▁expressed	-11.0268
▁आउँछन्	-11.0269
हुन्छ	-11.0269
▁Gad	-11.027
▁बिते	-11.0274
ula	-11.0275
▁लेखन	-11.0279
▁स्मरण	-11.0285
▁पर्वतहरू	-11.0287
शन	-11.0288
▁{0}	-11.0288
▁engine	-11.0292
▁ब्राउज	-11.0293
▁ball	-11.0293
ाइज	-11.0304
ache	-11.0307
▁पञ्चायती	-11.0309
aba	-11.0312
▁शहरलाई	-11.0315
▁विश्रामको	-11.0317
▁माल	-11.0319
क्री	-11.032
acy	-11.0324
▁drawing	-11.0324
▁अनुमानित	-11.0325
मेट	-11.0328
▁moves	-11.0328
▁Fa	-11.0329
चो	-11.0332
▁सङ्केतक	-11.0342
▁पिताको	-11.0343
समूह	-11.0343
user	-11.0348
▁देखेका	-11.0348
पना	-11.035
ग्रस्त	-11.0355
But	-11.0358
▁खुद	-11.0365
▁pane	-11.0365
परमप्रभुले	-11.037
▁सहमत	-11.0371
▁योजनाहरू	-11.0371
▁particular	-11.0372
▁मिश्रमा	-11.0373
▁जीव	-11.0374
▁सरकारबाट	-11.0376
▁ल्या	-11.0378
▁Science	-11.038
▁Tourism	-11.038
▁spoil	-11.038
▁suburbs	-11.038
▁unique	-11.038
▁wheat	-11.038
▁अंग्रेजी	-11.038
▁काठमाण्डौ	-11.038
▁कारबाही	-11.038
▁गोष्ठी	-11.038
▁बप्तिस्मा	-11.038
▁मिठाई	-11.038
▁सिफारिस	-11.038
▁climb	-11.038
▁shift	-11.038
▁समुह	-11.038
▁अन्तर्राष्टि्रय	-11.038
▁बनावट	-11.038
▁Turn	-11.038
▁गुम्बा	-11.038
▁1991	-11.0381
▁महेन्द्र	-11.0381
▁discipline	-11.0381
▁आकर्षण	-11.0381
▁conservation	-11.0381
▁healed	-11.0381
▁gedit	-11.0381
▁hunt	-11.0381
▁दाजु	-11.0382
▁साथसाथै	-11.0382
▁एकातिर	-11.0383
▁Port	-11.0384
▁crown	-11.0385
▁blank	-11.0386
▁कार्यरत	-11.0387
▁Services	-11.0388
▁institution	-11.0388
▁Mail	-11.0388
▁दोश्रो	-11.039
▁MIME	-11.0391
▁acts	-11.0393
▁electric	-11.0393
▁छैनौं	-11.0395
▁Size	-11.0395
▁भाइहरू	-11.0397
पश्चात्	-11.0398
▁donkey	-11.0406
▁riches	-11.0407
▁उद्देश्यहरु	-11.0408
▁आसा	-11.0408
rant	-11.0409
▁पू	-11.0413
ाग	-11.0415
▁सन	-11.0417
ON	-11.0417
▁Oh	-11.0419
▁फर्काउँछ	-11.0422
▁महीनाको	-11.0424
▁Bir	-11.0424
NC	-11.0425
▁helped	-11.0428
▁वेदीमा	-11.0429
▁घरहरू	-11.0434
▁संस्थाहरुको	-11.0434
▁क्ष	-11.0434
▁वर्षीय	-11.0437
▁गुणा	-11.0438
▁Kha	-11.0441
▁stat	-11.0441
▁sum	-11.0442
dir	-11.0446
▁समुद्रको	-11.045
▁deposits	-11.0456
▁pressing	-11.0457
▁train	-11.0459
▁राखि	-11.0463
पक्ष	-11.0469
▁गाद	-11.0469
विश्वास	-11.047
▁पानीमा	-11.0471
▁31	-11.048
ेशन	-11.048
सिया	-11.0483
▁su	-11.0487
पटक	-11.0492
ुहुन्न	-11.0493
▁मकै	-11.0496
▁plugins	-11.0497
▁पसे	-11.0503
िनेछन्	-11.0504
्दथे	-11.0504
▁DTD	-11.0505
▁December	-11.0505
▁PGP	-11.0505
▁definition	-11.0505
▁examination	-11.0505
▁extreme	-11.0505
▁indigenous	-11.0505
▁ritual	-11.0505
▁इमान्दार	-11.0505
▁कम्युनिष्ट	-11.0505
▁घाइते	-11.0505
▁परामर्श	-11.0505
▁शिमशोन	-11.0505
▁सन्तुष्ट	-11.0505
▁सोभियत	-11.0505
▁distress	-11.0505
▁चमत्कार	-11.0505
▁रूबेन	-11.0505
Maximum	-11.0505
▁doubt	-11.0505
▁integer	-11.0505
▁अनुशासन	-11.0505
▁Daniel	-11.0505
▁Keyboard	-11.0505
▁Express	-11.0506
▁Link	-11.0506
▁lakh	-11.0506
▁स्वार्थ	-11.0506
▁capable	-11.0507
▁Shri	-11.0508
▁गारो	-11.0512
▁समितिको	-11.0515
▁Planning	-11.0516
▁Blessed	-11.0518
▁बोकेर	-11.0519
▁Custom	-11.052
▁शाह	-11.052
ुरा	-11.0522
▁भएकोमा	-11.0526
▁pot	-11.053
ारा	-11.0532
स्ती	-11.0533
▁दाग	-11.0534
▁जानेछन्	-11.0535
▁oriented	-11.0537
▁गोरू	-11.0541
▁किसिम	-11.0542
▁दुर	-11.0544
▁Kh	-11.0544
▁बढ्ने	-11.0546
art	-11.0548
▁गर्छौं	-11.0552
▁tools	-11.0555
▁सर्वदा	-11.0555
▁सामग्रीहरू	-11.0555
▁मै	-11.0556
▁west	-11.0562
▁जनावर	-11.0571
▁grains	-11.0579
शाली	-11.0579
▁बन्दी	-11.058
ाउँछु	-11.0583
इन्	-11.059
ईं	-11.0596
२७	-11.0596
▁सुविधाहरु	-11.0596
connect	-11.0597
Come	-11.0597
▁States	-11.06
▁सिंहासन	-11.06
▁भेटे	-11.0602
lon	-11.061
▁फर	-11.0611
▁promise	-11.0615
▁subjects	-11.0616
▁वी	-11.0621
lthough	-11.0625
▁ख्रीष्टमा	-11.0626
ओस्	-11.063
▁एशिया	-11.063
पद	-11.0631
▁Ignore	-11.0632
▁October	-11.0632
▁atmosphere	-11.0632
▁communities	-11.0632
▁competition	-11.0632
▁ministry	-11.0632
▁passphrase	-11.0632
▁prime	-11.0632
▁substance	-11.0632
▁substantial	-11.0632
▁अवास्तविक	-11.0632
▁प्राचीन	-11.0632
▁उर्जा	-11.0632
▁गोदाम	-11.0632
▁लम्बाइ	-11.0632
▁स्क्रोल	-11.0632
▁खाडल	-11.0632
▁शोषण	-11.0632
▁ग्रिड	-11.0632
▁womb	-11.0632
▁rising	-11.0632
▁poem	-11.0633
▁Board	-11.0633
▁illness	-11.0633
▁२०१८	-11.0633
▁shop	-11.0633
चल	-11.0633
▁हुर्क	-11.0633
▁मिश्रदेश	-11.0634
▁Just	-11.0635
▁स्कुल	-11.0636
▁confidence	-11.0636
▁उत्सव	-11.0637
▁sixth	-11.0638
▁Wall	-11.0639
▁partial	-11.064
▁नोट	-11.064
▁आयोजक	-11.064
▁सेकेन्ड	-11.0643
▁जङ्गली	-11.0644
▁गर्व	-11.0652
▁चक	-11.0653
ulation	-11.0653
▁नत्र	-11.0655
▁निरन्तरता	-11.0656
lai	-11.0656
jo	-11.0657
▁corresponding	-11.0657
▁bridge	-11.066
जाति	-11.0662
▁मार्च	-11.0664
▁centre	-11.0666
▁किनार	-11.0669
▁Come	-11.067
▁Hor	-11.0671
▁एफ	-11.0673
हू	-11.0674
▁स्वर्गदूतहरू	-11.0675
▁धन्य	-11.0676
▁सहर	-11.0677
▁मान्नु	-11.0678
▁factor	-11.0679
▁छक्क	-11.0679
▁separated	-11.068
▁समस्याहरू	-11.0684
cy	-11.0685
▁आत्म	-11.0685
▁signed	-11.0692
ken	-11.0694
mail	-11.0697
▁नाउँको	-11.0699
▁समस्याको	-11.0702
ature	-11.0706
nagar	-11.0712
प्ट	-11.0712
▁Sen	-11.0716
▁Ver	-11.0722
यहूदीहरू	-11.0725
▁सिध	-11.0731
▁डरलाग्द	-11.0733
▁घातक	-11.0734
▁राष्ट्रको	-11.0734
14	-11.0742
भी	-11.0743
▁prove	-11.0749
▁Narayan	-11.0755
▁चौडा	-11.0758
▁नबन	-11.0759
नौं	-11.0759
▁कार्यान्व	-11.076
▁नेपालगञ्ज	-11.076
▁Fifth	-11.076
▁insurance	-11.076
▁sequence	-11.076
▁डिजिटल	-11.076
▁freedom	-11.076
▁पुतली	-11.076
▁मतलब	-11.076
▁liberal	-11.076
▁मेमो	-11.076
▁Database	-11.076
▁%.25	-11.076
▁suspension	-11.076
▁भर्याङ	-11.0761
▁उहा	-11.0762
▁विश्वासी	-11.0762
▁wings	-11.0763
▁चौकी	-11.0764
▁घडी	-11.0766
▁star	-11.0767
▁अनिकाल	-11.077
▁attached	-11.077
▁स्वच्छ	-11.077
लिङ	-11.0771
▁कविता	-11.0774
▁सर्प	-11.0776
▁टोली	-11.078
▁Ban	-11.078
वस्था	-11.0782
▁आउनेछन्	-11.0783
▁भिन्नता	-11.0784
▁scan	-11.0785
▁दब	-11.0792
▁Give	-11.0792
▁संसारका	-11.0792
म्भ	-11.0796
ik	-11.0799
▁मानिसहरूसँग	-11.0801
▁नाच	-11.0802
▁हराइरहेको	-11.0803
▁न्यु	-11.081
कस	-11.081
▁bones	-11.0811
▁leader	-11.0812
ान्	-11.0817
▁linen	-11.0817
▁carrying	-11.0829
▁पुर्याउनु	-11.0829
▁29	-11.083
ade	-11.083
▁गराइने	-11.0833
▁किनारमा	-11.0836
hen	-11.0836
यान	-11.0839
रात	-11.0839
▁सडकको	-11.0841
▁चेतना	-11.0844
▁मुद्राको	-11.0848
▁समूहलाई	-11.0848
imp	-11.0849
शास्त्र	-11.0855
mal	-11.0859
२००	-11.0862
▁thinking	-11.0871
ची	-11.0877
▁सम्भाव्य	-11.0877
ोग	-11.0881
▁नीतिको	-11.0882
▁ग्राफ	-11.089
▁बंगलादेश	-11.089
▁Soviet	-11.089
▁disaster	-11.089
▁magazine	-11.089
▁pleasant	-11.089
▁reserve	-11.089
▁stroke	-11.089
▁करूणा	-11.089
▁ग्लोबल	-11.089
▁Social	-11.089
▁श्रीमती	-11.089
▁consult	-11.089
▁density	-11.089
▁Secretary	-11.089
▁severe	-11.089
▁मसला	-11.089
▁website	-11.089
▁टायल	-11.089
▁पुस्ता	-11.0891
▁टेबल	-11.0891
▁जलविद्युत्	-11.0891
▁भइरहेका	-11.0891
▁दिगो	-11.0891
रोक्त	-11.0892
,500	-11.0893
▁फेरी	-11.0894
▁ग्या	-11.0897
▁factory	-11.0898
▁tower	-11.0898
▁पृष्ठमा	-11.09
▁नी	-11.09
▁पठाएको	-11.0901
▁लागु	-11.0903
▁बानी	-11.0905
▁cons	-11.0909
कालमा	-11.091
्मा	-11.0916
▁थोक	-11.0917
▁उता	-11.0922
ुपर्दछ	-11.0928
▁तथापि	-11.0929
▁shekels	-11.0935
ाइरहेको	-11.0936
▁माने	-11.0937
▁Sets	-11.0938
▁Egyptians	-11.0938
▁मीका	-11.0938
ालय	-11.0939
थर	-11.0941
▁गतिमा	-11.0942
▁कालमा	-11.0943
▁घेर	-11.0946
link	-11.0948
ूद	-11.0951
▁करोडको	-11.0955
ेयर	-11.0956
▁राख्दछ	-11.0958
ेन्द्र	-11.0959
▁पहिर	-11.0962
▁fly	-11.0967
प्रधानहरू	-11.0969
▁बाहिरी	-11.0969
सम्बन्ध	-11.097
▁भग	-11.0972
▁Za	-11.0974
▁दूत	-11.0986
▁पालमा	-11.0987
हुन	-11.0988
वर्ष	-11.0989
३७	-11.0989
▁render	-11.0992
▁चिकित्सक	-11.0998
िरहनु	-11.1003
gal	-11.1004
मह	-11.1005
▁decrease	-11.1005
▁specifie	-11.1005
▁खासगर	-11.1005
▁थुमा	-11.1008
▁Lu	-11.1015
▁महसु	-11.1016
▁गर्नुभन्दा	-11.1017
▁गिरिजा	-11.1021
▁सुदूर	-11.1021
▁Certificate	-11.1021
▁Commerce	-11.1021
▁Internal	-11.1021
▁cheap	-11.1021
▁preparing	-11.1021
▁teeth	-11.1021
▁आखिर	-11.1021
▁कचौरा	-11.1021
▁कन्सोल	-11.1021
▁धैर्य	-11.1021
▁२०४६ङ्ग४७	-11.1021
▁injured	-11.1021
▁मरियम	-11.1021
▁बिन्ती	-11.1021
▁ओछ्यान	-11.1022
▁सान	-11.1022
▁पापबलि	-11.1022
▁भैसकेको	-11.1022
▁खालको	-11.1022
▁devices	-11.1022
▁विवेक	-11.1023
▁attractive	-11.1023
▁bitter	-11.1024
▁sample	-11.1024
▁जाभा	-11.1024
▁संगीत	-11.1024
▁लिनुहोस्	-11.1025
र्फ	-11.1028
▁pictures	-11.1028
▁arrested	-11.1029
▁articles	-11.103
▁क्व	-11.1033
▁आसन	-11.1033
▁noise	-11.1035
sen	-11.1036
▁Warning	-11.1037
▁chain	-11.1041
ाउंछ	-11.1043
▁preferences	-11.1051
▁Pur	-11.1052
▁node	-11.1053
▁horse	-11.1054
▁इतिहासमा	-11.1055
▁parent	-11.1056
▁व्यापारीहरू	-11.1059
▁payment	-11.106
▁State	-11.106
▁fee	-11.1061
म्बर	-11.1065
बेल	-11.1069
▁लगानीकर्ता	-11.1069
वधिक	-11.1072
▁हल्ला	-11.1074
uring	-11.1076
▁improvements	-11.1077
hand	-11.1081
सक्ने	-11.1082
format	-11.1091
▁जीउ	-11.1091
▁सिं	-11.1094
LC	-11.1095
▁अश्शूर	-11.1104
▁विष	-11.1105
▁दिनहरूमा	-11.1105
▁फिड	-11.1106
▁छिन्	-11.1109
hold	-11.1114
चित्र	-11.1116
How	-11.1123
स्तरमा	-11.1127
using	-11.1127
ाउँथे	-11.113
▁मागे	-11.1131
▁केश	-11.1133
▁attract	-11.1136
▁अल	-11.1138
▁मानचित्रमा	-11.1144
cess	-11.1144
uri	-11.1144
atha	-11.1146
▁थालेका	-11.1148
▁औपचारिक	-11.1155
▁GnuPG	-11.1155
▁Industry	-11.1155
▁Jeroboam	-11.1155
▁School	-11.1155
▁September	-11.1155
▁White	-11.1155
▁eternal	-11.1155
▁famous	-11.1155
▁fought	-11.1155
▁invitation	-11.1155
▁palette	-11.1155
▁perspective	-11.1155
▁relevant	-11.1155
▁schema	-11.1155
▁silent	-11.1155
▁sorrow	-11.1155
▁violence	-11.1155
▁उत्पादित	-11.1155
▁औषधी	-11.1155
▁निःशुल्क	-11.1155
▁निक्षेप	-11.1155
▁निवारण	-11.1155
▁प्रौढ	-11.1155
▁मुनाफा	-11.1155
▁dollar	-11.1155
▁segment	-11.1155
▁मेशिन	-11.1155
▁proud	-11.1155
▁टाइम	-11.1155
▁स्लाइड	-11.1155
▁hole	-11.1155
▁chairman	-11.1155
▁जुत्ता	-11.1155
▁घुसाउनुहोस्	-11.1156
▁Resource	-11.1156
▁फर्काउनुहोस्	-11.1156
▁stick	-11.1156
▁सूत्र	-11.1157
ण्डा	-11.1157
▁सवै	-11.1158
▁उडान	-11.1158
▁Construction	-11.1158
▁alarms	-11.1158
▁अश	-11.1158
▁continually	-11.1159
▁गराउँछ	-11.1159
▁seventy	-11.116
▁contribute	-11.116
▁टिकट	-11.1163
select	-11.1163
▁filters	-11.1164
nah	-11.1164
▁भन्छौ	-11.1166
wal	-11.1171
▁माझमा	-11.1172
▁worthy	-11.1173
▁qua	-11.1175
are	-11.1176
सू	-11.1178
▁Sea	-11.1178
18	-11.1179
▁laws	-11.118
▁stocks	-11.1181
▁faithful	-11.1183
▁बदलि	-11.1183
▁Zi	-11.1185
▁होस	-11.1186
even	-11.1186
▁bell	-11.1187
ुहुनेछ	-11.1188
ised	-11.1192
▁achievement	-11.1192
तल	-11.1197
▁रोजे	-11.1199
▁परा	-11.1202
द्धा	-11.1204
▁quarter	-11.1205
▁व्यापारको	-11.1205
▁arc	-11.1206
जन्य	-11.121
▁CC	-11.1212
▁भारी	-11.1213
▁Inter	-11.1217
क्ल	-11.1217
▁नहुनु	-11.1223
▁गइरहेको	-11.1226
▁selling	-11.1229
▁भन्नेछन्	-11.1229
dar	-11.123
28	-11.1233
▁छानिए	-11.1235
▁कैदी	-11.1242
▁पेशा	-11.1244
▁Part	-11.1247
{0}	-11.1255
two	-11.1255
When	-11.1256
▁foreigner	-11.126
▁bridges	-11.126
▁जोडी	-11.1265
र्ति	-11.1266
▁wanted	-11.1268
wan	-11.1269
▁shout	-11.1271
ेग	-11.1272
▁influence	-11.1273
वेल	-11.1274
▁1/	-11.1274
▁ड्राइभ	-11.1278
▁pour	-11.1281
tai	-11.1283
▁कार्यान्वयनमा	-11.1288
▁habit	-11.1288
As	-11.1289
▁श्रेणी	-11.129
nbsp	-11.129
▁GDP	-11.129
▁Organization	-11.129
▁beneficial	-11.129
▁broad	-11.129
▁cattle	-11.129
▁census	-11.129
▁fierce	-11.129
▁harvest	-11.129
▁nutrition	-11.129
▁province	-11.129
▁storage	-11.129
▁surplus	-11.129
▁खाँचो	-11.129
▁जुलुस	-11.129
▁डीपीआई	-11.129
▁दुर्घटना	-11.129
▁भेंडा	-11.129
▁निन्दा	-11.129
▁utility	-11.129
▁Girija	-11.129
▁रिपोर्ट	-11.129
▁race	-11.129
▁धागो	-11.1291
▁गन्ती	-11.1291
किन	-11.1291
▁commands	-11.1291
▁नायक	-11.1291
▁थाह	-11.1292
▁दृश्यमा	-11.1292
▁कुलसमूह	-11.1292
▁दाबी	-11.1292
द्धारा	-11.1293
▁ढाँचाबद्ध	-11.1293
▁प्यार	-11.1293
▁association	-11.1295
▁भन्दछन्	-11.1295
▁Sort	-11.1296
▁Ru	-11.1297
▁नभएमा	-11.1301
२२	-11.1303
▁पार्नेछु	-11.1303
▁कुकी	-11.1305
▁estimate	-11.131
▁लामा	-11.1314
▁touched	-11.1315
▁बसिरहेका	-11.1319
PP	-11.132
▁पानीले	-11.1322
▁अर्कोतिर	-11.133
86	-11.1333
ँझ	-11.1339
▁Mrs	-11.134
▁लाग्नु	-11.1342
ुहुन्थ्यो	-11.1345
▁id	-11.1349
pre	-11.1352
▁कन	-11.1353
▁participate	-11.1353
▁goat	-11.1354
ल्यान्ड	-11.136
वाणी	-11.1362
▁फरिसीहरू	-11.1367
▁नगर्नु	-11.1374
▁घट्ने	-11.1376
शाला	-11.1376
▁हुदै	-11.1376
▁हुनुको	-11.1391
oriented	-11.1392
part	-11.1393
▁भक्त	-11.1394
▁झण्ड	-11.1396
▁वर्	-11.1398
nan	-11.14
मेरा	-11.14
wn	-11.14
▁दरमा	-11.1401
▁सुरक्षाको	-11.1405
DB	-11.1405
▁कोर्न	-11.1406
सितै	-11.1407
▁documents	-11.1407
▁arm	-11.1413
17	-11.1415
िंदै	-11.1418
ाओस्	-11.1419
▁स्या	-11.1419
▁फुक	-11.1423
▁confirm	-11.1424
▁customs	-11.1425
▁grave	-11.1426
▁automatic	-11.1426
▁द्रुत	-11.1426
▁palace	-11.1427
▁अबीमेलेक	-11.1427
▁Communist	-11.1427
▁Gentiles	-11.1427
▁Regard	-11.1427
▁buffer	-11.1427
▁capture	-11.1427
▁crisis	-11.1427
▁earthquake	-11.1427
▁practical	-11.1427
▁refresh	-11.1427
▁अचम्म	-11.1427
▁पचास	-11.1427
▁पिलातस	-11.1427
▁माओवादी	-11.1427
▁रहबाम	-11.1427
▁सौन्दर्य	-11.1427
▁belief	-11.1427
▁changing	-11.1427
▁घिउ	-11.1427
▁निगम	-11.1427
▁Frame	-11.1427
▁Likewise	-11.1427
▁repeat	-11.1427
▁dispute	-11.1427
▁worse	-11.1427
▁super	-11.1428
▁इन्धन	-11.1428
▁रहेकेा	-11.1428
▁पुलिस	-11.1428
▁सरदर	-11.1429
▁डबल	-11.143
▁राखिएका	-11.1431
▁बफर	-11.1431
▁approved	-11.1431
▁upgrade	-11.1432
▁appointment	-11.1432
तन्त्र	-11.1438
▁पहिलेको	-11.1438
▁depends	-11.1438
▁Call	-11.144
▁grown	-11.1441
▁CVS	-11.1442
▁वैद्य	-11.1442
▁पासो	-11.1443
▁हुनुहोस्	-11.1444
तालाई	-11.1444
▁सम्भवत	-11.1445
▁हामीसित	-11.1447
▁चलेको	-11.145
99	-11.1451
ica	-11.1452
▁आनन्दित	-11.1452
अर	-11.1454
▁देशहरु	-11.1458
▁photos	-11.1458
▁ग्राहक	-11.1463
▁bed	-11.1463
dict	-11.1464
acc	-11.1467
▁खोल्ने	-11.1468
▁reduc	-11.1473
▁प्रजा	-11.1477
▁degrees	-11.1478
▁घोडाहरू	-11.1478
▁margin	-11.1483
▁समूहबाट	-11.1484
aya	-11.1486
यल	-11.1487
ीक	-11.1488
▁उनीहरूका	-11.1488
▁doors	-11.1492
▁cards	-11.1497
▁Selection	-11.1501
()	-11.1503
▁sand	-11.1506
hur	-11.151
▁ढु	-11.1511
दायी	-11.1511
न्द्र	-11.1513
वद्ध	-11.1517
▁पसल	-11.1517
▁Asa	-11.1517
try	-11.1521
▁extra	-11.1523
▁सिम	-11.1525
▁holding	-11.1525
▁banking	-11.1527
निर्देश	-11.1528
भूमि	-11.153
unch	-11.1533
▁विदेशमा	-11.1535
76	-11.1536
▁विना	-11.1536
पल्ट	-11.1545
पाठ	-11.1547
▁declare	-11.1549
ancy	-11.155
▁Pra	-11.155
▁studying	-11.1557
▁reflect	-11.1558
भाष	-11.1559
▁targeted	-11.1559
▁2.0	-11.1562
▁interpret	-11.1563
▁क्षेत्रहरुको	-11.1564
▁attend	-11.1565
▁भागे	-11.1565
_	-11.1566
▁Jehoshaphat	-11.1566
▁Transport	-11.1566
▁advantage	-11.1566
▁concrete	-11.1566
▁curve	-11.1566
▁drew	-11.1566
▁elected	-11.1566
▁license	-11.1566
▁mutual	-11.1566
▁precious	-11.1566
▁उत्कृष्ट	-11.1566
▁ग्रेडियन्ट	-11.1566
▁चिन्तित	-11.1566
▁देब्रे	-11.1566
▁भल्भ	-11.1566
▁Follow	-11.1566
▁draft	-11.1566
▁बिरुवा	-11.1566
▁रङदानी	-11.1566
▁loud	-11.1566
▁seminar	-11.1566
▁prompt	-11.1566
▁translate	-11.1566
▁वेबसाइट	-11.1566
▁प्रकोप	-11.1566
▁reliable	-11.1567
▁Count	-11.1567
▁भाँच	-11.1567
▁विलाप	-11.1567
▁hotel	-11.1568
▁नहुन	-11.1568
▁envisaged	-11.1568
▁boat	-11.1568
▁settlement	-11.1569
▁sixty	-11.1569
▁पाठक	-11.1569
▁ठाउं	-11.1569
▁अल्फा	-11.1571
▁traders	-11.1572
्याएर	-11.1572
▁सातौ	-11.1572
▁चाहना	-11.1573
▁utterly	-11.1573
सकेसम्म	-11.1573
▁anyway	-11.1574
▁regime	-11.1574
▁Shall	-11.1578
▁registered	-11.1579
▁tenth	-11.1579
band	-11.158
▁विगतमा	-11.158
▁Editor	-11.158
▁कृष्ण	-11.1581
ou	-11.1581
▁पाउनेछन्	-11.1584
▁गरिरहनु	-11.1585
▁inputs	-11.1585
▁whereas	-11.1586
ंदै	-11.1589
▁तलब	-11.159
▁released	-11.1591
=...	-11.1595
▁मर्न	-11.1598
▁195	-11.1601
▁फर्की	-11.1604
ied	-11.1604
▁सरह	-11.1605
▁vessel	-11.1607
▁garment	-11.1608
▁ढुङ्गाहरू	-11.1611
74	-11.1614
66	-11.1616
▁`':	-11.1617
▁hint	-11.1619
▁बोक	-11.1621
aint	-11.1624
▁मर्छ	-11.1627
▁थिइन	-11.1628
▁प्रसाद	-11.1629
▁सँगै	-11.1629
avi	-11.1632
ञ्जेल	-11.1632
▁कनानी	-11.1633
▁formulat	-11.1643
dha	-11.1646
her	-11.1647
▁बाकसमा	-11.1651
▁किसानहरू	-11.1652
zar	-11.1665
32	-11.1666
▁अध	-11.1671
lung	-11.1672
▁surround	-11.1677
समक्ष	-11.1678
जसले	-11.1679
▁souls	-11.1679
▁Bal	-11.168
संख्या	-11.1683
code	-11.1684
▁activate	-11.169
प्रा	-11.169
▁विश्वका	-11.17
▁कन्	-11.1706
▁Instead	-11.1707
▁Tuesday	-11.1707
▁feasible	-11.1707
▁intercourse	-11.1707
▁opinion	-11.1707
▁remnant	-11.1707
▁respond	-11.1707
▁अवलम्बन	-11.1707
▁आलोचना	-11.1707
▁एलाजार	-11.1707
▁कर्तव्य	-11.1707
▁जनसङ्ख्या	-11.1707
▁नकारात्मक	-11.1707
▁निस्क्रिय	-11.1707
▁पञ्चवर्षीय	-11.1707
▁प्रसन्न	-11.1707
▁प्रेषक	-11.1707
▁फलस्वरुप	-11.1707
▁बहुभुज	-11.1707
▁ब्याकइन्ड	-11.1707
▁विलम्ब	-11.1707
▁व्यावहारिक	-11.1707
▁हिज्जे	-11.1707
▁atonement	-11.1707
▁humble	-11.1707
▁ईश्वर	-11.1707
▁यात्रु	-11.1707
▁Word	-11.1707
▁dress	-11.1707
▁Passover	-11.1707
▁सकिंदैन	-11.1707
▁impart	-11.1707
▁Management	-11.1707
▁दुर्गम	-11.1707
▁Return	-11.1707
▁भेटघाट	-11.1708
्चा	-11.1708
▁लक्षण	-11.1708
▁अपवित्र	-11.1709
▁Char	-11.1709
▁दिइयो	-11.171
▁सकिन्न	-11.171
▁upload	-11.1711
ology	-11.1712
▁reality	-11.1712
▁भाला	-11.1715
ियम	-11.1717
▁upright	-11.1718
▁सक्तैनन्	-11.172
▁forms	-11.1724
▁reminder	-11.1726
▁अना	-11.1726
SA	-11.1726
▁भनाई	-11.1726
▁tender	-11.1728
मेन्ट	-11.1728
▁mar	-11.1732
▁larger	-11.1735
vas	-11.1737
▁मेनुमा	-11.1738
▁errors	-11.1739
मुलेट	-11.1739
▁coal	-11.1742
▁बाँचे	-11.1744
▁थु	-11.1745
▁Dev	-11.1749
▁airport	-11.175
▁थुन	-11.1751
▁सुनेका	-11.1755
▁जेठा	-11.1757
▁चेक	-11.176
▁नापी	-11.1761
▁Icon	-11.1769
going	-11.1775
िएन	-11.1779
US	-11.1786
▁angels	-11.1787
▁Ag	-11.179
▁पट	-11.179
▁highly	-11.1794
▁leading	-11.1796
▁जन्मेको	-11.18
ियोस्	-11.1804
तब	-11.1807
नेट	-11.1809
▁प्रयोगमा	-11.1811
8226	-11.1814
ठूला	-11.1815
▁बिल	-11.1815
▁standards	-11.182
कर्म	-11.1823
▁bricks	-11.1824
▁विल	-11.1829
▁गइ	-11.1829
▁150	-11.1829
▁obtain	-11.183
▁dwelling	-11.183
iness	-11.1832
▁damage	-11.1834
▁झ्याल	-11.1836
९८	-11.1841
▁aware	-11.1848
▁Chinese	-11.1849
▁Library	-11.1849
▁Nebuchadnezzar	-11.1849
▁comparison	-11.1849
▁competitive	-11.1849
▁conference	-11.1849
▁everlasting	-11.1849
▁अवधारणा	-11.1849
▁कल्पना	-11.1849
▁सेप्टेम्बर	-11.1849
▁housing	-11.1849
▁बाधा	-11.1849
▁stress	-11.1849
▁Vertical	-11.185
▁instruction	-11.185
▁taste	-11.185
▁केटा	-11.185
▁Mahendra	-11.185
▁Otherwise	-11.185
▁गोल	-11.185
▁series	-11.185
▁दिल्ली	-11.185
▁देखापरे	-11.185
▁Highway	-11.185
▁foolish	-11.1851
▁fellow	-11.1851
▁semi	-11.1851
▁username	-11.1853
▁संशोधन	-11.1853
▁अवलोकन	-11.1854
▁Sign	-11.1854
▁सहि	-11.1854
▁सुगन्धित	-11.1855
▁annum	-11.1856
▁पात्र	-11.1856
▁अम्	-11.1859
बै	-11.1859
ैया	-11.1859
▁काँड	-11.186
▁एकपटक	-11.1861
आज	-11.1861
▁professional	-11.1862
▁बने	-11.1865
▁संचाल	-11.1866
▁paths	-11.1866
lat	-11.1868
▁बनाउँदै	-11.1869
▁जाग	-11.1869
▁Event	-11.187
▁viewer	-11.1876
पथ	-11.1877
she	-11.1877
▁सक्दैनन्	-11.1878
▁bowed	-11.188
▁नहर	-11.1885
▁hu	-11.1885
UN	-11.189
▁(0	-11.1891
▁था	-11.1891
▁वढ	-11.1895
▁rooms	-11.1897
▁sow	-11.1901
kot	-11.1902
▁तपाइँ	-11.1905
कुरा	-11.1905
▁थर	-11.1906
▁functions	-11.1908
▁citizens	-11.1914
▁Ya	-11.1916
long	-11.1918
्याल	-11.1925
▁पप	-11.1931
▁dynamic	-11.1933
▁छुट्याउन	-11.1935
सक्नु	-11.1935
▁Windows	-11.1935
▁अह	-11.1937
▁खोले	-11.1937
प्स	-11.1939
१५	-11.1944
▁रहोस्	-11.1947
▁sacrifices	-11.1949
get	-11.195
light	-11.195
▁घटेको	-11.1951
▁goats	-11.1955
▁आदेशहरू	-11.1957
▁भइरह	-11.1959
^	-11.1959
month	-11.196
Thus	-11.196
▁तिमीसित	-11.1961
▁पाउनेछौ	-11.1962
▁elections	-11.1963
▁correspond	-11.1964
▁रोम	-11.1965
hari	-11.1972
९९	-11.1972
▁devour	-11.1975
▁beside	-11.1975
▁हुंदै	-11.1975
वेद	-11.1977
hra	-11.1978
▁foreigners	-11.1978
रै	-11.1979
▁आइपुगे	-11.1986
▁permanent	-11.1986
▁हराए	-11.1986
▁अस्पष्ट	-11.1987
▁Encrypt	-11.1994
▁PNG	-11.1994
▁Pharisees	-11.1994
▁Policy	-11.1994
▁Stock	-11.1994
▁abundance	-11.1994
▁bought	-11.1994
▁slave	-11.1994
▁swore	-11.1994
▁पुँजी	-11.1994
▁शोधनान्तर	-11.1994
▁स्वास्नी	-11.1994
▁Reuben	-11.1994
▁quiet	-11.1994
▁तैपनि	-11.1994
▁यकीन	-11.1994
▁diagram	-11.1994
▁अभिभावक	-11.1994
▁leadership	-11.1995
▁laugh	-11.1995
▁शर्मा	-11.1995
▁रहस्य	-11.1995
▁moral	-11.1996
▁flocks	-11.1996
▁खोप	-11.1996
▁पीठो	-11.1996
▁भन्छिन्	-11.1996
▁ASCII	-11.1998
▁प्राप्ताङ्क	-11.1999
▁हात्ती	-11.2
▁Connection	-11.2
▁Point	-11.2
▁Chandra	-11.2001
स्टर	-11.2002
▁Setup	-11.2003
▁Maoist	-11.2003
▁रीस	-11.2004
▁Manager	-11.2004
वै	-11.2004
▁particularly	-11.2004
▁seal	-11.2009
▁journalist	-11.2011
▁नीतिगत	-11.2011
▁विमान	-11.2012
▁शिव	-11.2017
तपाईँको	-11.2017
▁पार्नेछ	-11.2017
▁कम्प	-11.2018
▁स्वाद	-11.2018
▁गर्नुपर्नेछ	-11.2021
dge	-11.2024
▁joined	-11.2027
des	-11.2031
▁promot	-11.2032
रूवा	-11.2032
▁residents	-11.2032
▁sets	-11.2035
▁विकल्पमा	-11.2036
▁headers	-11.2037
▁street	-11.2041
▁towns	-11.2044
▁dec	-11.2044
ign	-11.2051
rous	-11.2056
▁ग्राम	-11.2059
▁worshiped	-11.2062
▁tea	-11.2064
▁बैंकको	-11.2074
▁घरबाट	-11.2074
▁spaces	-11.2091
▁van	-11.2094
▁गरिरहे	-11.2096
▁भन्यौ	-11.2096
▁records	-11.21
▁Canaan	-11.2103
▁अराम	-11.2103
▁waiting	-11.2105
group	-11.2107
Please	-11.2107
Yahweh	-11.2107
Take	-11.211
▁ममाथि	-11.2111
न्डा	-11.2112
▁कोट	-11.2115
ओटा	-11.2117
lib	-11.212
▁स्वदेश	-11.2123
▁हामीसँग	-11.2124
▁पुगेका	-11.2124
▁बोलाउनु	-11.2124
▁भागको	-11.2126
इर	-11.2126
▁preach	-11.2126
▁adjust	-11.2133
▁बुट	-11.2135
▁सकेका	-11.2136
▁witness	-11.2137
▁फर्काए	-11.2139
);	-11.2141
▁कुलका	-11.2141
▁व्यभिचार	-11.2141
decentralization	-11.2141
▁Capital	-11.2141
▁Myanmar	-11.2141
▁depth	-11.2141
▁foodgrain	-11.2141
▁identified	-11.2141
▁preservation	-11.2141
▁reproach	-11.2141
▁slogan	-11.2141
▁अमस्याह	-11.2141
▁कप्तान	-11.2141
▁कुकुर	-11.2141
▁गोप्य	-11.2141
▁दशमलव	-11.2141
▁समकक्ष	-11.2141
▁Attach	-11.2141
▁किरिङ	-11.2141
▁Esau	-11.2142
▁rotate	-11.2142
▁Through	-11.2142
▁Location	-11.2142
▁Ahab	-11.2142
▁जनगणना	-11.2142
▁Level	-11.2142
▁समतल	-11.2142
▁(*.	-11.2142
▁campus	-11.2143
▁flight	-11.2143
▁सेवन	-11.2143
▁ढिलो	-11.2143
▁performance	-11.2144
▁आफु	-11.2144
▁प्रतिबन्ध	-11.2145
▁अर्कै	-11.2146
▁shortage	-11.2146
▁announced	-11.2146
▁होशियार	-11.2146
▁रोकिए	-11.2148
▁समेट	-11.2148
▁सिकाई	-11.2149
▁Party	-11.215
▁CRL	-11.215
कोनिम्ति	-11.2153
▁Bad	-11.2153
▁overall	-11.2155
▁classes	-11.2157
▁निकास	-11.2157
▁enterprises	-11.216
▁फोटोः	-11.2162
▁स्वीकृति	-11.2164
▁मुखमा	-11.2165
▁भात	-11.2165
सेन	-11.2167
▁tents	-11.2169
▁signal	-11.2169
बोध	-11.2177
▁writer	-11.218
▁sweets	-11.2188
▁जन्मेका	-11.2188
▁figure	-11.2191
▁अनुकूलन	-11.2194
रूपमा	-11.2201
▁तुल्याउने	-11.2204
▁सर्भरबाट	-11.2205
क्ष्	-11.2208
▁नभन	-11.2212
▁burning	-11.2212
▁relations	-11.2221
▁सामानहरु	-11.2224
र्श	-11.2228
▁पथ	-11.223
टिक	-11.2233
uni	-11.2234
द्वार	-11.2248
ून्	-11.2249
▁सुविधाको	-11.2254
डाइरेक्टरी	-11.2256
बिन्दु	-11.2256
▁थाल्छ	-11.2261
▁mourn	-11.2262
बाबु	-11.2262
▁श्रोत	-11.2263
भन	-11.2263
▁stations	-11.2264
▁par	-11.2266
RO	-11.2269
▁अनुमतिहरू	-11.2273
▁थियोः	-11.228
पेट	-11.228
yan	-11.2286
न्याह	-11.2288
▁inherit	-11.229
▁खण्डको	-11.2291
अन्तर्राष्टिँ्रय	-11.2291
▁Nevertheless	-11.2291
▁college	-11.2291
▁extensive	-11.2291
▁queue	-11.2291
▁virgin	-11.2291
▁उपाध्यक्ष	-11.2291
▁दर्ुइ	-11.2291
▁सिलसिलामा	-11.2291
▁स्क्रिनसेभर	-11.2291
▁Style	-11.2291
▁गोरखा	-11.2291
▁split	-11.2291
▁अभिलेख	-11.2291
▁द्वन्द्व	-11.2291
▁खट	-11.2291
▁तुलनात्मक	-11.2291
eshwar	-11.2292
▁keyword	-11.2292
▁सिमा	-11.2292
▁discard	-11.2293
Missing	-11.2294
▁खिच	-11.2294
▁XDMCP	-11.2294
▁तपाईंहरू	-11.2297
▁शिक्षकहरु	-11.2298
▁ठोक	-11.2298
▁ठुल	-11.2299
▁कार्यले	-11.2299
▁MP	-11.23
▁breadth	-11.23
▁नजान	-11.2301
▁governor	-11.2303
▁भङ्ग	-11.2306
▁("	-11.2307
▁views	-11.2308
▁पाइला	-11.2309
▁रहेछन्	-11.2313
▁कानूनी	-11.2317
▁park	-11.2321
dai	-11.2323
सङ्ग	-11.2324
▁8226	-11.2327
▁ल्याउ	-11.2329
";	-11.233
▁अक्ष	-11.2335
48	-11.2338
cation	-11.2339
▁जिल्लाका	-11.2341
▁gift	-11.2342
▁स्त्रीलाई	-11.2344
▁मुखबाट	-11.2346
ably	-11.2347
▁ट्रक	-11.2347
र्प	-11.2347
mount	-11.2348
▁अरामी	-11.2349
▁पढाइ	-11.235
▁weeks	-11.2357
anda	-11.2358
▁IP	-11.2358
सिनो	-11.2358
छन	-11.236
▁links	-11.2363
script	-11.2365
वित	-11.2365
▁Flo	-11.2368
▁समाजको	-11.2368
▁tags	-11.237
▁घमण्ड	-11.2371
uel	-11.2378
▁अवि	-11.2378
▁(1	-11.2379
ither	-11.2387
▁tracks	-11.239
▁patterns	-11.2393
सम्ममा	-11.2393
apa	-11.2393
वेश	-11.2394
▁couldn	-11.2395
ाउदा	-11.2395
tta	-11.2396
्की	-11.2398
▁san	-11.24
▁सन्देशको	-11.2402
▁payments	-11.2405
सल	-11.241
▁अज	-11.2412
▁भाग्य	-11.2413
औं	-11.2417
▁leg	-11.2419
ाउदै	-11.242
▁रोजगार	-11.2425
▁उपस्थित	-11.2426
▁खुल	-11.2429
▁600	-11.243
▁formal	-11.2432
▁Area	-11.2433
▁Delhi	-11.2442
▁OpenPGP	-11.2442
▁Sharma	-11.2442
▁Tribhuvan	-11.2442
▁commodities	-11.2442
▁convention	-11.2442
▁pollution	-11.2442
▁polygon	-11.2442
▁tomorrow	-11.2442
▁एनिमेसन	-11.2442
▁निरीक्षण	-11.2442
▁रिसर्च	-11.2442
▁Royal	-11.2442
▁Specifie	-11.2442
▁proportion	-11.2442
▁गहुँ	-11.2442
▁पारवहन	-11.2442
▁विपरित	-11.2442
▁agency	-11.2442
▁nurse	-11.2442
▁नाटक	-11.2442
▁vain	-11.2442
▁denied	-11.2442
▁सर्वप्रथम	-11.2443
▁बिभिन्न	-11.2443
▁साम्बा	-11.2443
▁घुमाउनुहोस्	-11.2444
▁संवाददाता	-11.2444
▁उदास	-11.2444
▁ढंग	-11.2444
▁पर्थ्यो	-11.2445
▁Asher	-11.2445
▁Report	-11.2445
▁ऋणपत्र	-11.2446
▁ढङ्ग	-11.2447
▁जानुभयो	-11.2448
▁उल्टो	-11.2449
▁attachment	-11.2449
▁नसक्नु	-11.245
▁चारवटा	-11.245
▁सक्यो	-11.2451
▁लगाऊ	-11.2451
▁पर्नु	-11.2453
organiz	-11.2453
▁बस्छन्	-11.2454
▁सिल	-11.2454
▁बलिया	-11.2455
हुनेछ	-11.2456
▁कार्यस्थान	-11.2456
▁speaks	-11.2457
▁Chi	-11.2459
▁स्वदेशी	-11.2462
▁भएता	-11.2463
▁हरू	-11.2463
ample	-11.2464
▁gnome	-11.2464
▁तवर	-11.2467
▁inserted	-11.2468
▁upward	-11.2472
त्रो	-11.2473
▁Art	-11.2473
49	-11.2474
६८	-11.2474
▁अवसरहरु	-11.2475
63	-11.2479
ाउँनेछु	-11.2481
▁hearing	-11.2481
▁ends	-11.2484
▁फ्या	-11.2489
▁issued	-11.2491
lot	-11.2491
▁सेवालाई	-11.2494
than	-11.2495
▁corporation	-11.2496
▁४७	-11.2496
▁listed	-11.2498
▁बाँचेका	-11.2499
▁गरेनौ	-11.2504
▁गरिन्छन्	-11.2504
▁केटीहरू	-11.2506
दछ	-11.2507
ुत	-11.2513
▁Nar	-11.2515
▁contacts	-11.2517
istic	-11.2517
भव	-11.2518
▁क्रस	-11.2523
▁लगत	-11.2528
▁Para	-11.2528
राखेको	-11.2529
▁adding	-11.253
र्जन	-11.2546
▁लियो	-11.2548
वारी	-11.2555
▁चढाउने	-11.2555
▁मिल्दैन	-11.2559
Because	-11.2561
तिम्रो	-11.2561
Lord	-11.2561
िकन	-11.2563
▁cents	-11.2563
हामीले	-11.2564
ker	-11.2566
▁treat	-11.2568
▁outer	-11.2568
जीवन	-11.2569
SE	-11.257
▁households	-11.2572
▁वर्षे	-11.2572
▁स्थ	-11.2574
▁फर्कि	-11.2574
▁exceed	-11.2576
अन	-11.258
▁निर्माणको	-11.2585
्याउनु	-11.2586
▁ल्याउँछ	-11.2592
▁Sam	-11.2593
▁Syria	-11.2596
▁अनुक्रम	-11.2596
▁Application	-11.2596
▁August	-11.2596
▁Lebanon	-11.2596
▁Perhaps	-11.2596
▁Police	-11.2596
▁TRUE	-11.2596
▁encouraging	-11.2596
▁improving	-11.2596
▁initiative	-11.2596
▁ourselves	-11.2596
▁shield	-11.2596
▁shoot	-11.2596
▁timber	-11.2596
▁victim	-11.2596
▁wheel	-11.2596
▁अचानक	-11.2596
▁पदवर्णन	-11.2596
▁बनायाह	-11.2596
▁बाक्लो	-11.2596
▁मलखाद	-11.2596
▁विजार्ड	-11.2596
▁सहुलियत	-11.2596
▁हेब्रोन	-11.2596
▁stumble	-11.2596
▁करूब	-11.2596
▁Sorry	-11.2596
▁handmaid	-11.2596
▁hin	-11.2596
▁म्यानमार	-11.2596
▁scene	-11.2596
▁स्नेह	-11.2596
▁Rotate	-11.2596
▁abuse	-11.2596
▁माइम	-11.2596
▁conversation	-11.2596
▁phone	-11.2597
▁authorities	-11.2597
▁Bug	-11.2597
▁अग्रिम	-11.2597
▁२०३८	-11.2597
▁फार्म	-11.2597
▁Everyone	-11.2597
▁borders	-11.2597
▁safety	-11.2597
▁liter	-11.2597
▁कैयौं	-11.2598
▁Paper	-11.2599
▁मासिक	-11.2599
▁Using	-11.2599
▁शर्त	-11.2599
▁नजीक	-11.2599
▁संचार	-11.2599
▁भर्खरै	-11.26
▁बताउंछ	-11.2602
▁lying	-11.2603
▁सित्र्चाइ	-11.2603
▁agreed	-11.2605
▁देशलाई	-11.2606
rd	-11.2606
▁हुनुहुनेछ	-11.2606
▁तीनजना	-11.2606
▁विधा	-11.2607
▁सेवाहरु	-11.2607
▁daemon	-11.2609
▁गराइएको	-11.2611
ट्स	-11.2613
rack	-11.2616
▁Back	-11.2616
▁तिनै	-11.2616
▁declined	-11.2621
64	-11.2625
▁बेस	-11.2628
1)	-11.2628
▁Web	-11.2629
▁सञ्जालमा	-11.2633
▁spending	-11.2634
lf	-11.2637
▁messengers	-11.2639
▁ahead	-11.2639
्नुपर्ने	-11.2642
क्षण	-11.2643
▁प्रि	-11.2643
▁चारै	-11.2645
▁उल्ट	-11.2651
▁कानुनी	-11.2651
▁bond	-11.2652
▁रक्त	-11.2657
▁हुँदैनन्	-11.2658
▁आउँदछ	-11.2665
▁३००	-11.2666
वृत्ति	-11.2667
पुर्खा	-11.2667
▁बिन्यामीनका	-11.2669
मानिसहरू	-11.267
▁cup	-11.267
▁diet	-11.2676
पर्	-11.2678
▁धार्मिकता	-11.2682
स्थापना	-11.2683
▁cow	-11.2687
▁bars	-11.2692
▁requests	-11.2694
३९	-11.2701
▁ज्यान	-11.2701
▁1,000	-11.2708
government	-11.2712
▁तालिकामा	-11.2712
▁भाई	-11.2713
▁तिर्न	-11.2714
▁यह	-11.2714
बेर	-11.2715
दोस्रो	-11.2717
बस	-11.2719
version	-11.2719
विकास	-11.2721
वाइ	-11.2726
क्षेत्रमा	-11.2728
▁मान्ने	-11.2734
▁pursue	-11.2736
▁Programmes	-11.2737
▁quick	-11.2744
▁यथा	-11.2744
▁बुद्धिमान	-11.2746
▁33	-11.2747
ban	-11.275
▁नदीमा	-11.2751
rough	-11.2752
▁लगाएका	-11.2752
▁HMG	-11.2752
▁institute	-11.2752
▁चेताउनी	-11.2752
▁विद्रोह	-11.2752
▁विभाजित	-11.2752
▁संक्षिप्त	-11.2752
▁सम्बोधन	-11.2752
▁हाकिम	-11.2752
▁Greek	-11.2752
▁Retriev	-11.2752
▁couple	-11.2752
▁एमोरी	-11.2752
▁समझदारी	-11.2752
▁कोइला	-11.2752
▁तैयार	-11.2752
▁composition	-11.2753
▁Help	-11.2753
▁compound	-11.2753
▁यिनीहरु	-11.2753
▁Copyright	-11.2753
▁Elisha	-11.2753
▁यसैगरी	-11.2754
▁variety	-11.2754
▁आइरहेको	-11.2754
▁winter	-11.2754
▁शेयर	-11.2754
▁खनिज	-11.2754
▁existence	-11.2754
▁२०४०	-11.2755
▁consumers	-11.2755
▁बिस्तारै	-11.2755
▁App	-11.2755
▁सीमान्त	-11.2756
▁विक्री	-11.2756
▁प्रान्त	-11.2757
▁manually	-11.276
▁2001	-11.276
gram	-11.276
▁नभएसम्म	-11.276
▁largest	-11.2766
69	-11.2766
▁बहस	-11.2766
▁ICC	-11.2768
भल	-11.2768
▁discussed	-11.277
▁काटेर	-11.2771
iff	-11.2771
▁certificates	-11.2772
हाँ	-11.2773
▁lands	-11.2775
▁grade	-11.2775
▁मिलेर	-11.2776
▁परिवारहरू	-11.2779
हरुमध्ये	-11.278
▁troubled	-11.278
▁बस्तु	-11.2781
▁रहनेछन्	-11.2783
दिने	-11.2784
▁सकिएनः	-11.2785
▁designed	-11.279
▁क्षेत्रहरू	-11.2793
▁काठको	-11.2794
▁दूतहरू	-11.2795
▁performed	-11.2795
▁इस्राएललाई	-11.2799
▁उत्पादनशील	-11.2804
▁ideas	-11.2805
▁पृष्ठको	-11.2806
77	-11.2811
▁परामितिहरू	-11.2812
▁lamb	-11.2812
▁da	-11.2812
▁सन्देशमा	-11.2816
▁दूरी	-11.2817
▁pressed	-11.2819
awa	-11.282
▁धोका	-11.282
lock	-11.2824
▁knowing	-11.2824
▁शुभ	-11.2827
ियल	-11.2828
▁कार्यक्षेत्र	-11.2829
▁ख्या	-11.2829
▁पर्दामा	-11.2834
▁सेल	-11.2835
▁listened	-11.2835
▁आकाशमा	-11.2836
▁झा	-11.2839
▁उठाउनु	-11.2839
रहेछु	-11.284
▁selecting	-11.2841
▁Adjust	-11.2844
▁घटाउने	-11.2846
▁reg	-11.2848
▁bid	-11.2849
▁du	-11.285
46	-11.2861
TM	-11.2862
▁सकिन	-11.2863
▁लगानीकर्ताहरू	-11.2867
दिन्छ	-11.2869
amp	-11.2873
hir	-11.2873
pher	-11.2874
www	-11.2876
पछाडि	-11.2876
check	-11.2878
▁डु	-11.288
▁न्यू	-11.2881
▁बुढ	-11.2882
▁सुर	-11.2887
▁स्वीकृत	-11.2887
▁बदल्न	-11.2892
▁forces	-11.2895
▁calculat	-11.2897
▁पञ्चायतहरु	-11.2899
▁cancel	-11.29
▁scripts	-11.2902
ological	-11.2903
▁utter	-11.2904
ink	-11.2905
▁temp	-11.2907
▁इन्टर	-11.2907
▁पोख	-11.291
▁विद्यार्थीहरु	-11.2911
▁क्रूस	-11.2911
▁Contact	-11.2911
▁SVG	-11.2911
▁Software	-11.2911
▁Three	-11.2911
▁identity	-11.2911
▁अभिषेक	-11.2911
▁पुनरावृत्ति	-11.2911
▁भैरहवा	-11.2911
▁1989	-11.2911
▁allocation	-11.2911
▁प्याड	-11.2911
▁प्रावधान	-11.2911
▁सांसद	-11.2911
▁repent	-11.2911
▁अब्राम	-11.2911
▁boast	-11.2911
▁चालीस	-11.2911
▁पारिएमा	-11.2911
▁Nations	-11.2911
▁mineral	-11.2911
▁trail	-11.2912
▁तिनिहरू	-11.2912
▁क्लिप	-11.2912
▁१९९०	-11.2912
▁Twitter	-11.2912
▁Foundation	-11.2912
▁चुनिएका	-11.2912
▁Trash	-11.2913
▁शेष	-11.2913
▁दयालु	-11.2913
▁mobilisation	-11.2913
▁affliction	-11.2913
▁dependent	-11.2914
▁अबनेर	-11.2914
▁बेलायत	-11.2914
▁beaten	-11.2914
▁नदेखाउने	-11.2914
▁parable	-11.2914
▁चौध	-11.2914
▁एयर	-11.2915
▁push	-11.2915
▁खोल्दा	-11.2916
▁एचटीएमएल	-11.2917
▁Hence	-11.2917
▁Cartr	-11.2917
▁पञ्च	-11.2918
▁exalted	-11.2918
▁~	-11.2918
▁हुनुहुन्न	-11.292
▁emphasized	-11.292
▁कीरा	-11.292
▁फसल	-11.2922
▁फेर्न	-11.2923
▁1989/90.	-11.2925
▁floating	-11.2929
▁canceled	-11.2931
▁रहन्छन्	-11.2931
▁उज्ज	-11.2932
▁cor	-11.2932
त्रा	-11.2932
▁expenses	-11.2936
▁Az	-11.2936
▁विश्वासीहरू	-11.2938
▁delivery	-11.2938
गामी	-11.2941
▁विदेशीहरू	-11.2946
▁रोज्नु	-11.2947
▁dock	-11.2949
्यान्ड	-11.2949
▁outline	-11.2951
▁नह	-11.2952
▁हरि	-11.2954
▁गरेन	-11.2957
▁अन्तर्	-11.2958
▁अन्तसम्म	-11.2965
▁सम्पदा	-11.2966
▁states	-11.2967
▁II	-11.2972
▁गराएको	-11.2972
▁challenge	-11.2972
▁remembered	-11.2974
४३	-11.2975
▁ज्ञ	-11.2977
न्जेल	-11.2979
▁किलो	-11.2979
iti	-11.2982
▁pleased	-11.2983
▁servers	-11.2984
▁पठाएका	-11.2988
▁accus	-11.2991
▁establishing	-11.2992
▁flower	-11.2997
▁मनश्शेका	-11.2999
55	-11.3005
uda	-11.3006
ility	-11.3007
प्रकार	-11.3013
▁चन्द्र	-11.3013
▁ठाँउमा	-11.3014
pass	-11.3015
▁सेनाका	-11.3016
▁Install	-11.3016
▁सकिनेछ	-11.3019
▁tabs	-11.3019
७०	-11.3023
▁विधिहरू	-11.3023
▁मन्त्र	-11.3024
▁३६	-11.3027
▁तहका	-11.303
▁राखिनेछ	-11.3032
मोर	-11.3035
राष्ट्रिय	-11.3038
▁Khan	-11.3039
▁निकाले	-11.3042
भरी	-11.3045
ण्	-11.3048
प्रतिको	-11.3053
▁प्रश्नहरू	-11.3054
▁Mid	-11.3055
माझ	-11.3058
▁गालील	-11.3059
All	-11.3059
▁beat	-11.306
▁ताराहरू	-11.3063
▁Africa	-11.3063
▁पोष्ट	-11.3065
▁sustain	-11.307
वर्	-11.307
▁नगरेको	-11.3071
▁फेसबूक	-11.3072
▁Horizontal	-11.3072
▁Jhapa	-11.3072
▁Place	-11.3072
▁examine	-11.3072
▁investigation	-11.3072
▁supplied	-11.3072
▁ticket	-11.3072
▁अलिकति	-11.3072
▁गुनासो	-11.3072
▁डिसेम्बर	-11.3072
▁परिक्रमण	-11.3072
▁भ्वाइसेज	-11.3072
▁लोकप्रिय	-11.3072
▁Hebron	-11.3072
▁जनकपुर	-11.3072
▁desert	-11.3072
▁फारम	-11.3072
▁ब्रह्म	-11.3072
▁lady	-11.3072
▁Great	-11.3072
▁parsing	-11.3073
▁मेलबलि	-11.3073
▁bright	-11.3074
▁trap	-11.3075
▁confirmation	-11.3075
▁sustainable	-11.3075
▁वक्र	-11.3077
▁Total	-11.3078
▁Track	-11.3079
▁प्याक	-11.3079
▁गर्नुहोस	-11.3079
▁चो	-11.308
रिस	-11.3083
▁पुकार	-11.3086
▁पक्का	-11.3087
cro	-11.3088
▁नजर	-11.3089
उने	-11.3089
▁ban	-11.3089
▁३३	-11.3093
जाऊ	-11.3093
▁दिनुपर्ने	-11.3093
▁faces	-11.3094
▁rent	-11.3094
▁प्रेस	-11.3095
▁whenever	-11.3096
▁Ste	-11.3101
▁clothed	-11.3104
▁sheets	-11.3104
▁आँ	-11.3105
▁urge	-11.3106
▁लाने	-11.3107
▁गरिबी	-11.3112
▁talked	-11.3116
हदद	-11.3118
पानी	-11.3118
▁converted	-11.3119
▁grant	-11.3119
23	-11.3119
▁strengthening	-11.3121
नेर	-11.3125
▁dies	-11.3125
▁marked	-11.3126
▁Force	-11.3126
▁योग	-11.313
▁पक्र	-11.3131
▁lt	-11.3131
▁arrow	-11.3136
▁deposit	-11.3136
▁talking	-11.3136
▁relatives	-11.3137
भित्रै	-11.314
▁crying	-11.3145
भए	-11.3151
▁जोर	-11.3152
क्कै	-11.3154
▁decades	-11.3159
▁मर्नु	-11.316
▁band	-11.3162
सेर	-11.317
poli	-11.3172
▁grants	-11.3173
pple	-11.3173
▁चुने	-11.3174
hai	-11.3181
▁समुद्रमा	-11.3182
दिनेछु	-11.3184
सुन	-11.3187
▁चुन्नु	-11.3189
▁judges	-11.319
▁उभिन	-11.319
▁pop	-11.3191
▁वस्तुमा	-11.3194
▁समितिले	-11.3194
▁achievements	-11.3194
प्रथम	-11.3201
SQL	-11.3201
http	-11.3201
command	-11.3201
▁Ben	-11.3203
ाउनेछन्	-11.3209
▁committees	-11.3211
वाहक	-11.3212
▁na	-11.3218
▁receiv	-11.3219
ब्बा	-11.3224
//	-11.3226
▁क्याम्प	-11.3234
▁spi	-11.3235
elcome	-11.3235
▁खालि	-11.3235
ऋ	-11.3236
▁Finance	-11.3236
▁condemn	-11.3236
▁disappointed	-11.3236
▁easier	-11.3236
▁financing	-11.3236
▁rebuke	-11.3236
▁worried	-11.3236
▁अपर्याप्त	-11.3236
▁एक्सचेन्ज	-11.3236
▁तस्विर	-11.3236
▁पिसाब	-11.3236
▁पुनरावलोकन	-11.3236
▁प्रतिसेयर	-11.3236
▁मुकुट	-11.3236
▁सैन्य	-11.3236
▁heritage	-11.3236
▁धातु	-11.3236
▁विपक्षी	-11.3236
▁शिखर	-11.3236
▁Simon	-11.3236
▁console	-11.3236
▁dozen	-11.3236
▁outlay	-11.3236
▁cedar	-11.3236
▁literacy	-11.3236
▁पतन	-11.3236
▁truck	-11.3236
▁cooperation	-11.3236
▁pride	-11.3237
▁होटल	-11.3237
▁reduction	-11.3237
▁रक्सी	-11.3237
▁खरानी	-11.3237
▁stability	-11.3238
▁दरबार	-11.3238
▁Apar	-11.3238
▁सिमाना	-11.324
इस्राएलका	-11.324
▁दिइन्छ	-11.3241
▁प्रजनन	-11.3241
▁हेरी	-11.3241
▁खालीस्थान	-11.3241
▁हेटौंडा	-11.3242
▁partner	-11.3242
▁tray	-11.3242
▁सलह	-11.3243
▁invited	-11.3243
ivity	-11.3244
▁Write	-11.3246
▁लेख्नुहोस्	-11.3246
ising	-11.3247
▁रोए	-11.3247
▁recognized	-11.3248
▁मान्य	-11.3249
▁Lock	-11.325
lly	-11.325
tail	-11.325
▁हिमाली	-11.3253
▁hilly	-11.3254
विध	-11.3254
▁equally	-11.3255
▁mount	-11.3255
▁नामाकरण	-11.3257
▁विच्छेदन	-11.3258
▁Access	-11.3259
ball	-11.3259
agon	-11.326
▁भुल	-11.326
▁roll	-11.3262
देवी	-11.3263
▁जरा	-11.3265
हिं	-11.3267
well	-11.3267
पर्दछ	-11.3268
▁hire	-11.3269
▁soldiers	-11.3274
▁locked	-11.3276
▁NO	-11.3278
▁कुर	-11.3283
aries	-11.3287
▁Generate	-11.3287
▁देख्यौ	-11.3287
▁Share	-11.3291
इसके	-11.3294
मणि	-11.3299
▁प्रयासहरु	-11.3299
▁Named	-11.33
▁पछ्याउन	-11.3301
▁vineyard	-11.3302
▁reference	-11.3303
▁bio	-11.3306
▁येन	-11.3312
▁maintaining	-11.3313
▁विद्यार्थीहरू	-11.3315
▁sites	-11.3318
▁तास	-11.3322
▁हानि	-11.3324
isation	-11.3324
▁47	-11.3324
▁10,000	-11.3328
col	-11.3329
▁वित	-11.3331
▁foods	-11.3338
बर्ग	-11.3341
▁कवि	-11.3344
era	-11.3349
▁खेतहरू	-11.336
५४	-11.3361
बमोजिम	-11.3368
▁channels	-11.3372
गर्न	-11.3374
▁mix	-11.3376
▁जिम्मेवार	-11.3376
ूक	-11.3376
▁काट्ने	-11.3377
▁newly	-11.3382
▁जित	-11.3383
▁सडकमा	-11.3384
Alt	-11.3386
▁कामदार	-11.3386
▁marketing	-11.339
▁Dec	-11.3391
cumulative	-11.3391
▁पिक्सेलमा	-11.3397
▁mention	-11.3397
fr	-11.3399
▁बोके	-11.34
79	-11.3403
▁alpha	-11.3403
▁Hetauda	-11.3403
▁January	-11.3403
▁Template	-11.3403
▁Video	-11.3403
▁absence	-11.3403
▁basket	-11.3403
▁compassion	-11.3403
▁illegal	-11.3403
▁operator	-11.3403
▁slaughter	-11.3403
▁swear	-11.3403
▁आयुर्वेद	-11.3403
▁कब्जा	-11.3403
▁तुरून्त	-11.3403
▁दाज्यु	-11.3403
▁पंक्ति	-11.3403
▁एवम्	-11.3403
▁पर्यावरण	-11.3403
▁प्रचलन	-11.3403
▁Audio	-11.3403
▁innocent	-11.3403
▁श्राप	-11.3403
▁यातना	-11.3403
▁concentrat	-11.3403
▁Chaldeans	-11.3403
threw	-11.3403
▁इजाजतपत्र	-11.3403
.148	-11.3403
▁Court	-11.3403
बारी	-11.3403
▁begins	-11.3404
▁कार्यसम्पादन	-11.3404
▁horizontal	-11.3404
▁झापा	-11.3405
▁असहाय	-11.3406
बन्द	-11.3406
▁पावर	-11.3406
▁विवरणिका	-11.3406
▁गन्ध	-11.3408
▁संझ	-11.3408
▁बढाउनुहोस्	-11.3409
▁गरिसकेको	-11.3409
▁प्रदायक	-11.341
▁yen	-11.3412
▁श्रमिक	-11.3412
▁strip	-11.3414
▁नियुक्ति	-11.3418
▁प्रतिदिन	-11.3418
▁दिएनन्	-11.342
▁Cho	-11.342
▁सकिए	-11.342
▁widely	-11.3421
जान	-11.3422
▁ताप	-11.3423
▁पत्नीहरू	-11.3424
▁Stop	-11.3426
▁geographical	-11.3427
▁ओर्ल	-11.343
▁यहा	-11.3432
▁mourning	-11.3436
▁विदा	-11.3439
▁गरिएन	-11.3442
▁विभागको	-11.3444
वत्	-11.3445
▁चाहिँ	-11.3446
समय	-11.3446
▁छे	-11.3447
▁Canaanite	-11.3447
▁नभएर	-11.3448
▁Dia	-11.3451
ग्रह	-11.3454
▁fla	-11.3457
ोडेर	-11.3459
▁includes	-11.3463
▁powerful	-11.3464
▁मिल्दछ	-11.3464
▁बटनले	-11.3464
▁इन्च	-11.3468
िसकेका	-11.3477
pu	-11.348
▁wear	-11.3484
▁बनाउँन	-11.3485
▁३१	-11.3485
▁घेरा	-11.3486
▁जनावरहरू	-11.3488
७९	-11.3489
▁किनारामा	-11.349
रेस	-11.3491
15	-11.3496
श्च	-11.3497
▁हिमाल	-11.3501
▁arrows	-11.3506
▁Ask	-11.3506
भार	-11.3508
▁covering	-11.3509
rch	-11.3511
▁gifts	-11.3515
▁flowers	-11.3515
ically	-11.3516
▁बेल	-11.3517
card	-11.3517
MP	-11.3518
#8	-11.3518
९७	-11.3518
▁beds	-11.352
▁continues	-11.3525
▁era	-11.3526
प्रणाली	-11.3538
धेरै	-11.3538
▁द्वि	-11.3539
uck	-11.3543
▁विन	-11.3544
itude	-11.3552
ाइड	-11.3553
152	-11.3554
▁advance	-11.3556
vin	-11.3558
▁ill	-11.3561
▁farm	-11.3563
▁Changes	-11.3565
▁throw	-11.3567
▁assist	-11.3568
▁stands	-11.3572
una	-11.3572
▁मोल	-11.3572
▁Eleazar	-11.3572
▁JPEG	-11.3572
▁Kantipur	-11.3572
▁Survey	-11.3572
▁executable	-11.3572
▁mechanism	-11.3572
▁prelimin	-11.3572
▁virtual	-11.3572
▁अनावश्यक	-11.3572
▁कटौती	-11.3572
▁क्षयरोग	-11.3572
▁ध्रुव	-11.3572
▁Gorkha	-11.3572
▁continuous	-11.3572
▁कूवा	-11.3572
▁Full	-11.3572
▁अनुचित	-11.3572
▁movie	-11.3572
▁array	-11.3572
▁वचत	-11.3572
▁वाह्य	-11.3572
▁railway	-11.3573
▁निकट	-11.3573
▁तापक्रम	-11.3573
▁solid	-11.3573
▁Update	-11.3573
▁conversion	-11.3573
▁बिलाम	-11.3573
▁testify	-11.3574
▁Reload	-11.3574
▁Profile	-11.3574
▁suddenly	-11.3574
▁जाडो	-11.3575
▁त्यहां	-11.3575
▁comments	-11.3576
तपाईँले	-11.3576
▁boil	-11.3577
▁corruption	-11.3577
▁vice	-11.3578
▁टक्स	-11.3578
▁कथाहरू	-11.358
ठीक	-11.358
▁पार्क	-11.3581
ftp	-11.3581
▁हुनसक्ने	-11.3581
▁नगरिएका	-11.3583
▁climate	-11.3585
▁taxes	-11.3589
▁advanced	-11.3589
▁config	-11.359
▁दिइए	-11.3591
▁मिश्रण	-11.3593
मूल	-11.3595
▁संघको	-11.3595
mod	-11.3596
ich	-11.36
८५	-11.36
▁क्रे	-11.3601
▁stretched	-11.3601
▁सल्लाहकार	-11.3608
▁शास्त्रीहरू	-11.3608
▁prey	-11.361
▁रोजगारीको	-11.3617
▁regularly	-11.3619
▁स्त्रीको	-11.3624
▁Qt	-11.3625
▁talks	-11.3631
▁मू	-11.3633
▁झोल	-11.3633
नुभयो	-11.3635
▁सम्पर्कहरू	-11.3635
▁emerg	-11.3636
▁मोह	-11.3638
▁Put	-11.364
ney	-11.3642
▁साधनहरु	-11.3647
▁३७	-11.3649
▁hundreds	-11.3653
▁देखाएको	-11.3653
▁abominations	-11.366
▁principles	-11.366
ठित	-11.367
▁maker	-11.367
place	-11.3672
▁लास	-11.3672
▁भेग	-11.3672
▁स्तम्भहरू	-11.3673
cho	-11.3676
MM	-11.3683
▁loves	-11.3687
िणी	-11.3688
ii	-11.3691
▁ob	-11.3691
ola	-11.3694
दर्शी	-11.3695
▁एकता	-11.3697
िदै	-11.3705
▁listening	-11.3705
source	-11.3706
sufficient	-11.371
frame	-11.3711
▁बताइ	-11.3716
▁सावधान	-11.372
▁हातहरू	-11.3722
▁ut	-11.3726
▁जङ्गल	-11.3728
▁36	-11.3728
There	-11.3729
▁डाय	-11.373
▁साइ	-11.3734
▁बाँधे	-11.3736
▁greet	-11.3737
▁adverse	-11.3737
▁बताउने	-11.3738
▁फर्काउने	-11.374
▁तत्वहरू	-11.374
▁rams	-11.3744
▁Calendar	-11.3745
▁Include	-11.3745
▁Indonesia	-11.3745
▁adversaries	-11.3745
▁analyst	-11.3745
▁dignity	-11.3745
▁federal	-11.3745
▁hungry	-11.3745
▁smoke	-11.3745
▁straight	-11.3745
▁एजेन्सी	-11.3745
▁जरिवाना	-11.3745
▁निलम्बन	-11.3745
▁प्रक्षेपण	-11.3745
▁रजस्वला	-11.3745
▁समारोह	-11.3745
▁Janakpur	-11.3745
▁newspaper	-11.3745
▁profane	-11.3745
3,000	-11.3745
▁तनाव	-11.3745
▁ग्रन्थ	-11.3745
▁assigned	-11.3745
▁उत्तेज	-11.3745
▁sometimes	-11.3745
▁Short	-11.3745
▁स्किमा	-11.3745
▁Bookmark	-11.3745
▁अपलोड	-11.3745
▁परिपाटी	-11.3745
▁परिप्रेक्ष्य	-11.3745
▁पैदा	-11.3746
▁मार्गदर्शन	-11.3746
▁Talk	-11.3746
▁अनौठ	-11.3746
▁व्यर्थ	-11.3746
ounce	-11.3746
परे	-11.3746
लाग्दो	-11.3747
▁सम्बद्ध	-11.3747
▁दावी	-11.3747
▁बोन्ड	-11.3747
▁प्रसङ्ग	-11.3747
▁बेग्ल	-11.3747
वर्ती	-11.3747
▁spare	-11.3748
▁fake	-11.3748
▁इट्टा	-11.3748
▁rare	-11.3748
▁मार्	-11.3749
▁2003	-11.3749
▁असन्तुलन	-11.3749
▁oppression	-11.375
▁2002	-11.375
ुपरेको	-11.3751
▁ह्यु	-11.3751
▁डाटा	-11.3752
▁stir	-11.3753
▁ox	-11.3754
फु	-11.3757
▁सकेट	-11.3759
▁नपार	-11.3759
यौं	-11.376
▁भारतले	-11.3761
तर्फबाट	-11.3762
▁Collection	-11.3762
▁इन्ड	-11.3763
▁ब्रा	-11.3767
▁हाँसो	-11.3773
▁differences	-11.3773
▁बस्छ	-11.3776
▁features	-11.3779
▁surrounding	-11.3781
▁२०००	-11.3781
▁बमोजिम	-11.3781
▁पाएँ	-11.3781
▁पौ	-11.3785
▁Pu	-11.3785
▁अधि	-11.3786
दिया	-11.3787
▁कृषकहरुलाई	-11.379
▁दिनेछन्	-11.3793
▁हाँगाहरू	-11.3802
▁भनिने	-11.3803
ट्रि	-11.3806
▁कारोबारमा	-11.3807
peg	-11.3808
▁handled	-11.381
▁पोस्ट	-11.381
वासीहरू	-11.3811
▁फैलिएको	-11.3811
▁रहेर	-11.3813
▁गै	-11.3815
▁बनाइनेछ	-11.3817
▁प्रविष्टिहरू	-11.3819
36	-11.3819
च्छा	-11.3823
८६	-11.3827
▁smaller	-11.383
erial	-11.3835
▁चन्द्रमा	-11.3836
न्थ्यो	-11.3838
▁corners	-11.384
rely	-11.384
▁छोडी	-11.3841
▁घट्न	-11.3842
ius	-11.3844
13	-11.3847
▁लगायत	-11.3848
ila	-11.3853
▁संस्थानको	-11.3853
लभ	-11.3854
सभा	-11.3856
▁भयौ	-11.3858
▁बेंसीमा	-11.3859
▁पापी	-11.3862
▁39	-11.3862
dev	-11.3864
PC	-11.3866
▁poll	-11.387
▁सक्तैनौ	-11.3871
%%	-11.3871
board	-11.3885
▁donkeys	-11.3885
what	-11.3886
tified	-11.3886
▁म्याक	-11.3886
▁मातृ	-11.389
पोर्ट	-11.389
▁दियौ	-11.3895
▁३९	-11.3897
▁ठूल	-11.3898
मन्त्री	-11.3901
▁चाहने	-11.3902
५००	-11.3907
▁encrypt	-11.391
१४	-11.3911
रोग	-11.3914
▁constitution	-11.3914
ावली	-11.392
▁Administration	-11.392
▁Everest	-11.392
▁Street	-11.392
▁curtain	-11.392
▁opposite	-11.392
▁perhaps	-11.392
▁registration	-11.392
▁sprinkle	-11.392
▁swallow	-11.392
▁unnecessary	-11.392
▁उपासना	-11.392
▁उम्मेदवार	-11.392
▁कन्ड्युट	-11.392
▁कारागार	-11.392
▁नमुना	-11.392
▁प्रेरणा	-11.392
▁बन्दरगाह	-11.392
▁रक्तचाप	-11.392
▁रमाइलो	-11.392
▁विधेयक	-11.392
▁सदैव	-11.392
▁हस्तक्षेप	-11.392
▁Attempt	-11.392
▁Scale	-11.392
▁पब्लिक	-11.392
▁लाभदायक	-11.392
▁folk	-11.392
▁salary	-11.392
▁spear	-11.392
▁शकेम	-11.392
▁Thank	-11.392
▁snare	-11.392
▁नम्र	-11.392
▁residential	-11.3921
▁Praise	-11.3921
▁KDEPrint	-11.3921
▁NFS	-11.3921
▁renew	-11.3922
▁directories	-11.3922
▁पङ्क्तिबद्ध	-11.3922
▁देखिँदैन	-11.3923
▁पार्टीका	-11.3925
▁सार्दा	-11.3925
▁Fund	-11.3926
▁गुणात्मक	-11.3927
▁देख्यो	-11.3928
▁रेखाहरू	-11.3929
▁स्केल	-11.3929
▁नयां	-11.393
▁educated	-11.393
▁शीत	-11.3931
▁यसप्रकार	-11.3931
▁अग्ला	-11.3932
▁रथहरू	-11.3932
▁लू	-11.3933
▁कपाल	-11.3933
▁वृक्ष	-11.3934
▁Drag	-11.3935
▁पार्यो	-11.3935
▁sex	-11.3936
लोक	-11.3939
▁सर्त	-11.3939
▁described	-11.394
▁साहसी	-11.394
▁bowl	-11.394
▁Listen	-11.3941
▁कोशी	-11.3943
▁documentation	-11.3945
▁clouds	-11.3946
eather	-11.3947
▁बढाउनु	-11.3948
देऊ	-11.395
apt	-11.3952
▁None	-11.3954
▁टर्	-11.3966
▁surveys	-11.397
▁judged	-11.397
▁singing	-11.3974
रहनु	-11.3974
▁experts	-11.3975
▁यसअघि	-11.3975
भेद	-11.3976
५७	-11.3977
▁शै	-11.3981
▁recipients	-11.3982
▁learning	-11.3984
▁fertilizers	-11.3988
▁horns	-11.3989
▁bag	-11.3989
24	-11.3991
▁बनेका	-11.3991
्रेट	-11.3993
▁employee	-11.3999
▁pole	-11.4002
▁लेखा	-11.4003
▁fun	-11.4007
▁origin	-11.4008
▁linked	-11.4008
▁सुपर	-11.4015
▁प्रभुको	-11.4028
्ड	-11.4032
▁इकाई	-11.4033
▁क्षेत्रहरु	-11.4034
३८	-11.4039
▁वस	-11.4045
wise	-11.4046
▁अपनाइ	-11.4049
▁चाहिए	-11.4055
▁tiles	-11.4056
▁देशभित्र	-11.4057
ीकृत	-11.4057
▁दाम	-11.4058
▁क्षेत्रहरूमा	-11.4059
▁discuss	-11.4064
Where	-11.4064
पश्चिम	-11.4064
बाकस	-11.4065
▁Sho	-11.4067
्तु	-11.4068
▁भूइँमा	-11.4073
ख्या	-11.4075
▁शक्तिले	-11.4077
▁consume	-11.4078
ष्य	-11.4078
▁उपहारहरू	-11.4078
▁stretch	-11.4079
्थें	-11.4084
▁helps	-11.4088
▁boot	-11.4089
्मोन	-11.4091
▁belongs	-11.4093
nick	-11.4094
▁accounts	-11.4095
▁College	-11.4099
▁provoke	-11.4099
▁stories	-11.4099
▁synagogue	-11.4099
▁translation	-11.4099
▁आइतबार	-11.4099
▁आत्मनिर्भर	-11.4099
▁आविष्कार	-11.4099
▁टेलिभिजन	-11.4099
▁निर्वाचित	-11.4099
▁परिवर्तित	-11.4099
▁प्रवर्धन	-11.4099
▁रेखदेख	-11.4099
▁रेखाङ्कन	-11.4099
▁वीरगञ्ज	-11.4099
▁सन्तुलित	-11.4099
▁समग्र	-11.4099
▁1988	-11.4099
▁स्ट्रोक	-11.4099
▁ल्याटिन	-11.4099
▁animation	-11.4099
▁exceedingly	-11.4099
▁बथान	-11.4099
▁युवक	-11.4099
▁James	-11.4099
6,000	-11.4099
▁पीडीए	-11.4099
▁tendency	-11.4099
▁चाँडो	-11.4099
▁knee	-11.4099
▁इन्जिनियर	-11.4099
▁महासंघ	-11.4099
Result	-11.4099
▁Example	-11.4099
▁मौन	-11.4099
▁छाती	-11.4099
▁राजकुमार	-11.41
▁लाग्दैन	-11.41
▁prosperity	-11.41
▁welcome	-11.4101
▁punishment	-11.4101
▁pace	-11.4103
▁उत्तिक	-11.4103
▁personality	-11.4103
▁offset	-11.4103
▁आत्मिक	-11.4103
▁manual	-11.4105
▁यन्त्रमा	-11.4105
विहिन	-11.4105
▁gpg	-11.4106
▁अहँ	-11.4106
▁Shiva	-11.4107
▁नपर्ने	-11.4108
▁रुख	-11.4109
▁CPU	-11.411
They	-11.4111
▁बन्यो	-11.4113
▁bulls	-11.4113
RA	-11.4114
▁Big	-11.4114
▁खोर	-11.4115
▁कोनिक	-11.4115
▁sensitive	-11.4116
aji	-11.4118
▁greatest	-11.412
▁proved	-11.4122
▁गर्जन	-11.4122
▁४३	-11.4123
क्ता	-11.4124
▁obtained	-11.4124
▁City	-11.4135
▁SQL	-11.4137
▁बनाएँ	-11.4141
▁चलाउनु	-11.4142
▁demons	-11.4145
▁spices	-11.4149
▁खोलिएको	-11.4151
▁आयु	-11.4151
▁नदिन	-11.4166
शान	-11.417
्डर	-11.4172
▁scribes	-11.4175
▁variables	-11.4176
lies	-11.4178
▁बाख्रा	-11.4183
▁बढे	-11.4184
▁ठाउँको	-11.4185
▁needy	-11.4188
▁सोझै	-11.4191
▁oppose	-11.4201
▁गर्दैछन्	-11.4202
EN	-11.4203
▁entering	-11.4203
भुत	-11.421
▁अप्र	-11.4212
gas	-11.4216
८२	-11.4217
▁इलाकामा	-11.4217
▁परेर	-11.4222
▁डोर	-11.4224
▁34	-11.4225
▁wouldn	-11.4227
▁मन्द	-11.423
प्लेट	-11.423
▁इन्ट	-11.4237
system	-11.4239
ाकार	-11.4242
&	-11.4246
▁weigh	-11.4247
▁हुन्थे	-11.4247
बजार	-11.4247
▁सास	-11.4249
▁cap	-11.4249
▁नपाए	-11.4251
अक्षम	-11.4251
ठो	-11.4252
GL	-11.4254
▁turns	-11.426
▁asking	-11.4261
▁गेट	-11.4269
▁calling	-11.427
▁अँ	-11.4272
१६	-11.4275
▁ठाउ	-11.4277
▁निर	-11.4278
▁दी	-11.4279
▁Brazil	-11.4281
शमशेर	-11.4281
▁Factory	-11.4281
▁Galilee	-11.4281
▁Meanwhile	-11.4281
▁Psalm	-11.4281
▁Shankar	-11.4281
▁activist	-11.4281
▁afforestation	-11.4281
▁blemish	-11.4281
▁conduit	-11.4281
▁drought	-11.4281
▁fetch	-11.4281
▁goddess	-11.4281
▁imbalance	-11.4281
▁intellectual	-11.4281
▁resolution	-11.4281
▁अहज्याह	-11.4281
▁भरपर्दो	-11.4281
▁यहोयादा	-11.4281
▁सान्त्वना	-11.4281
▁disturb	-11.4281
▁मिद्यान	-11.4281
▁हड्डी	-11.4281
▁आहाज	-11.4281
▁शङ्कर	-11.4281
▁utilis	-11.4281
▁Earlier	-11.4281
▁पहल	-11.4281
▁बतास	-11.4281
▁मर्यो	-11.4281
▁Neither	-11.4281
बास	-11.4281
▁आवश्यकतानुसार	-11.4281
▁स्टेशन	-11.4282
▁interval	-11.4282
▁गौरव	-11.4282
▁हतार	-11.4282
▁infant	-11.4282
▁justified	-11.4283
▁Device	-11.4283
▁Long	-11.4283
▁अन्तराल	-11.4283
▁habitation	-11.4284
▁Without	-11.4284
▁व्यक्तित्व	-11.4285
▁बदला	-11.4285
▁weakness	-11.4285
▁इँट	-11.4285
▁नाघ	-11.4286
Teacher	-11.4287
▁ल्याउनेछु	-11.4287
▁filesystem	-11.4288
▁वृद्धिदर	-11.4289
▁बस्ती	-11.4289
▁४२	-11.4289
▁arranged	-11.4289
▁indicator	-11.4291
▁dance	-11.4293
▁बनाउनेछु	-11.4294
▁expired	-11.4295
▁प्रतिष्ठान	-11.4295
▁score	-11.4297
खण्ड	-11.4299
▁activated	-11.4302
▁उसै	-11.4303
▁सचेतक	-11.4304
▁शाय	-11.4305
▁सुनें	-11.4308
Pro	-11.4309
▁लड्न	-11.431
Arise	-11.4311
▁बोल्छ	-11.4312
स्कृत	-11.4313
▁addresses	-11.4314
▁विश्वस्त	-11.4315
▁चल्न	-11.4317
▁सामानहरू	-11.4318
▁परिवारमा	-11.4321
weekday	-11.4339
▁Loading	-11.4342
▁expanding	-11.4342
▁स्वरुप	-11.4347
राख	-11.4359
▁रोजगारीका	-11.4365
▁hectare	-11.4366
▁हराउन	-11.4369
▁फ्याँकि	-11.437
hum	-11.437
परमेश्वर	-11.4371
जिन	-11.4373
▁जसबाट	-11.4374
▁\\	-11.4375
▁(@	-11.4377
▁बनिएको	-11.4378
▁घटे	-11.438
▁समयदेखि	-11.4381
▁लागेर	-11.4381
▁तुल्याए	-11.4384
ency	-11.4384
▁उभिएका	-11.4385
▁रक्षक	-11.4385
atory	-11.4386
ाएँ	-11.4386
▁फोटोहरू	-11.4386
▁कृषकहरु	-11.4386
▁मेनुबाट	-11.4387
▁तुल्याउनु	-11.4393
▁नोकरहरू	-11.4394
▁लेखेका	-11.4398
▁१५०	-11.4399
६९	-11.4403
▁figures	-11.4405
87	-11.4413
▁reporter	-11.4414
▁म्यान	-11.4423
View	-11.4431
टुक्रा	-11.4431
सार्वजनिक	-11.4431
47	-11.4431
गुण	-11.4431
प्रयोगकर्ता	-11.4432
उपयोग	-11.4432
▁नराख	-11.4436
93	-11.4437
jan	-11.444
Face	-11.444
उठ	-11.4449
▁चाहेका	-11.4449
▁decide	-11.445
▁माटोको	-11.4452
▁माता	-11.4454
▁विश्वमा	-11.4458
▁सुगन्ध	-11.4459
▁तर्कहरू	-11.4461
IP	-11.4462
{1}	-11.4466
▁DTEP	-11.4466
▁Economic	-11.4466
▁KPilot	-11.4466
▁Package	-11.4466
▁Should	-11.4466
▁catalog	-11.4466
▁entrance	-11.4466
▁evidence	-11.4466
▁familiar	-11.4466
▁magnet	-11.4466
▁removing	-11.4466
▁silence	-11.4466
▁vocabulary	-11.4466
▁अभिग्रहण	-11.4466
▁गिरावट	-11.4466
▁निशुल्क	-11.4466
▁न्यायकर्त्ता	-11.4466
▁परमात्मा	-11.4466
▁प्रतीक्षा	-11.4466
▁भद्राक्ष	-11.4466
▁रेन्डर	-11.4466
▁eleven	-11.4466
▁clay	-11.4466
▁strict	-11.4466
▁फोहोर	-11.4466
▁threat	-11.4466
▁जहिले	-11.4466
▁मामिला	-11.4466
▁paddy	-11.4466
▁आँधी	-11.4466
▁ruin	-11.4466
▁Highlight	-11.4466
▁Midian	-11.4466
▁prefix	-11.4466
▁baby	-11.4467
▁latter	-11.4467
▁गर्मी	-11.4467
▁बताउनुहुन्छ	-11.4467
▁brook	-11.4467
▁पुनलोड	-11.4467
▁प्रतिव्यक्ति	-11.4467
▁bride	-11.4467
▁चिल्लो	-11.4467
▁दर्जन	-11.4467
▁देखाउँदछ	-11.4467
▁बेतेल	-11.4467
▁इराक	-11.4468
▁faint	-11.4468
▁Increase	-11.4468
▁शीर्षकपट्टी	-11.4468
▁exploitation	-11.4468
▁पाउँदैन	-11.4468
▁मुख्यतया	-11.4469
▁ल्याउनुहोस्	-11.4469
▁क्षेत्रफल	-11.447
▁मुखिया	-11.447
▁२०४७ङ्ग	-11.447
▁नदेऊ	-11.4471
▁असुल	-11.4471
▁clip	-11.4472
▁Directory	-11.4472
▁फर्काई	-11.4473
▁तुरुन्तै	-11.4473
▁औंला	-11.4473
▁आदान	-11.4474
र्ुपर्छ	-11.4475
▁aren	-11.4475
▁आयोजनाअन्तर्गत	-11.4475
▁निर्मित	-11.4476
▁Login	-11.4477
▁recommended	-11.4478
▁dam	-11.4479
▁matches	-11.448
▁refused	-11.448
▁schemes	-11.448
▁Village	-11.448
▁डाउन	-11.448
▁Tim	-11.4482
▁initialize	-11.4486
▁कम्प्युटरमा	-11.4486
▁decreased	-11.4489
▁किरण	-11.4489
▁कारक	-11.4493
▁सावधानी	-11.4493
▁आउट	-11.4495
31	-11.4495
▁invested	-11.4496
▁इन्स	-11.4497
▁suffered	-11.4501
▁escaped	-11.4503
बिन	-11.4505
▁forgive	-11.4505
▁updated	-11.4506
▁falls	-11.4508
ED	-11.4509
▁क्रिया	-11.4515
▁counter	-11.4515
▁measured	-11.4516
▁practices	-11.4516
▁गर्	-11.452
छिन्	-11.4523
▁हेरेर	-11.4523
auto	-11.4524
▁धनु	-11.4529
cular	-11.453
▁चढाएको	-11.4536
▁vehicles	-11.4537
▁hat	-11.4543
▁sleeping	-11.4544
▁tile	-11.4546
▁कमजोरी	-11.4547
ाँउछ	-11.4547
▁ठाउँहरूमा	-11.4549
▁socket	-11.4554
▁घमण्डी	-11.4554
▁decade	-11.4554
▁pillar	-11.4554
▁aspect	-11.4555
▁lamp	-11.4556
▁relation	-11.4559
▁डट	-11.456
▁purposes	-11.456
▁बोध	-11.4562
▁gro	-11.4565
▁बिग	-11.4568
▁गएँ	-11.4573
▁tear	-11.4575
▁बुल	-11.4576
▁older	-11.4577
▁भएकी	-11.4578
▁संस्थाहरुलाई	-11.458
▁शब्दमा	-11.458
ML	-11.4582
▁ph	-11.4583
▁38	-11.4584
▁संलग्नता	-11.4586
▁connecting	-11.459
हास	-11.4592
ाउँनु	-11.4592
▁भूमिबाट	-11.4595
्याङ	-11.4595
▁Over	-11.4597
edit	-11.4599
▁गल	-11.4601
▁cave	-11.4607
▁रिसाए	-11.461
1"	-11.4613
▁metal	-11.4619
होइन	-11.4622
sheet	-11.4622
▁घन	-11.4622
चय	-11.4625
▁चर्च	-11.4627
will	-11.4627
▁मरेका	-11.4629
पुग	-11.4629
पर्यो	-11.4633
▁journal	-11.4633
▁एच	-11.4633
ज्जा	-11.4634
▁anoint	-11.4635
▁pra	-11.4637
▁resolve	-11.4638
▁नाक	-11.4643
▁धू	-11.4644
ब्य	-11.4645
▁Top	-11.4649
▁expressions	-11.4653
▁कोषको	-11.4653
▁42	-11.4654
▁flour	-11.4654
4,000	-11.4654
▁desolation	-11.4654
▁आत्महत्या	-11.4654
▁प्रदूषण	-11.4654
▁भूमिसुधार	-11.4654
▁स्क्रिन	-11.4654
▁1983/84	-11.4655
▁Chairman	-11.4655
▁Quanta	-11.4655
▁bottle	-11.4655
▁forgotten	-11.4655
▁guarantee	-11.4655
▁अगाडी	-11.4655
▁पिछडिएक	-11.4655
▁सुख्खा	-11.4655
▁PDA	-11.4655
▁borrow	-11.4655
▁swap	-11.4655
▁Power	-11.4655
▁Value	-11.4655
▁अलावा	-11.4655
▁गवाही	-11.4655
▁solar	-11.4655
▁reply	-11.4655
▁Resize	-11.4655
▁Selah	-11.4655
▁summer	-11.4655
▁cherubim	-11.4655
▁ownership	-11.4655
▁कृति	-11.4655
▁धर्ती	-11.4655
▁statue	-11.4655
▁भाषण	-11.4655
▁सभामुख	-11.4655
▁सहवास	-11.4656
▁herbs	-11.4656
▁spell	-11.4656
▁२०१६	-11.4656
▁motor	-11.4656
▁2017	-11.4656
▁playlist	-11.4657
▁Jeho	-11.4657
▁स्टेसन	-11.4657
65	-11.4657
▁पेपर	-11.4657
▁spiritual	-11.4657
मंत्र	-11.4657
▁शिमी	-11.4657
▁वीउ	-11.4657
▁सोध्नुहोस्	-11.4658
▁guilty	-11.4659
▁Undo	-11.466
▁unread	-11.466
▁बाटा	-11.466
▁fig	-11.4661
▁फूलहरू	-11.4662
▁futures	-11.4664
▁Bush	-11.4665
▁निर्वाह	-11.4666
ाइन्	-11.4666
▁बाबा	-11.4666
▁नदिने	-11.4667
▁एण्ड	-11.4667
▁आलु	-11.4667
▁Sheol	-11.4668
▁कित्ता	-11.4668
▁Sheet	-11.4669
▁Station	-11.4669
▁क्रियाशील	-11.4673
▁Sil	-11.4675
सिल	-11.4677
▁passes	-11.4678
▁नेट	-11.4678
▁केबल	-11.4681
▁अफ्रिका	-11.4682
▁annually	-11.4687
▁छाने	-11.4688
▁नर्स	-11.4689
▁गइरहे	-11.4693
▁interests	-11.4695
गण	-11.4701
रियो	-11.4708
▁बचाउँन	-11.471
fully	-11.4711
▁Christian	-11.4713
▁यसपछि	-11.4713
▁खेर	-11.4714
▁पिए	-11.4715
िदियो	-11.4716
▁55	-11.4716
▁भर्न	-11.4718
▁experienced	-11.4722
हिल	-11.4723
पीएन	-11.4723
्युट	-11.4726
पाई	-11.473
▁procedures	-11.4732
▁पहाडमा	-11.4734
▁कार्यालयमा	-11.4737
option	-11.4739
▁rob	-11.4742
▁stranger	-11.4749
मीन	-11.475
▁भनेः	-11.4751
ानुसार	-11.4751
▁65	-11.4752
▁bases	-11.4756
▁पाई	-11.4756
▁tears	-11.4757
▁poles	-11.4763
▁Win	-11.4765
LE	-11.4769
▁references	-11.477
भने	-11.4772
६७	-11.4777
▁सिकाउनु	-11.4777
▁suit	-11.478
▁सक्रियता	-11.4781
८७	-11.4782
▁रिड	-11.4788
▁fulfil	-11.4794
case	-11.4795
स्कर	-11.4795
▁gar	-11.4802
▁तान्न	-11.4802
▁locally	-11.4804
▁सुनेको	-11.4806
▁43	-11.4811
Ctrl	-11.4812
एउटा	-11.4812
हुंदैन	-11.4812
▁पै	-11.4815
▁पाउनेछ	-11.4815
▁दगुर	-11.4816
भारत	-11.482
▁अधिराज्यभर	-11.4821
सेवा	-11.4822
itch	-11.4822
▁फर्कन	-11.4827
▁पस्न	-11.4829
नीति	-11.4829
▁चिहानमा	-11.483
▁रेड	-11.4833
▁स्तनको	-11.4837
▁सञ्झ्यालहरू	-11.4839
▁प्रदाय	-11.4839
▁desires	-11.4839
▁तुरुन्त	-11.484
range	-11.4843
▁बाजा	-11.4843
ota	-11.4843
▁पुनसुरु	-11.4844
ंड	-11.4844
▁transform	-11.4845
▁लैजानु	-11.4845
▁खुव	-11.4846
▁त्यसमाथि	-11.4846
▁मास	-11.4846
▁Jericho	-11.4847
▁category	-11.4847
▁continuing	-11.4847
▁happiness	-11.4847
▁platform	-11.4847
▁satisfied	-11.4847
▁अप्रत्यक्ष	-11.4847
▁अभिवादन	-11.4847
▁पदयात्रा	-11.4847
▁भौगर्भिक	-11.4847
▁मूल्याङ्न	-11.4847
▁रित्तो	-11.4847
▁सादोक	-11.4847
▁Shechem	-11.4847
▁century	-11.4847
▁junk	-11.4847
▁teenager	-11.4847
▁trigger	-11.4847
▁उजाड	-11.4847
▁चुम्बक	-11.4847
▁जङ्धल	-11.4847
▁विपत्ति	-11.4847
ilateral	-11.4847
▁Details	-11.4847
▁verify	-11.4847
▁कम्बो	-11.4847
▁निद्रा	-11.4847
▁सर्भेक्षण	-11.4847
▁North	-11.4847
▁relief	-11.4847
▁transmission	-11.4847
Generic	-11.4847
ोन्मुख	-11.4847
▁नैतिक	-11.4847
▁Mailbox	-11.4847
▁decree	-11.4847
▁ग्रीक	-11.4847
▁Process	-11.4847
▁छेऊ	-11.4847
▁अग्रसर	-11.4848
▁flame	-11.4848
▁वाचन	-11.4848
▁मतदान	-11.4848
▁pointer	-11.4848
▁२०१५	-11.4848
▁wool	-11.4849
▁समर्पण	-11.4849
▁duplicate	-11.4849
▁motion	-11.4849
▁बाछा	-11.4849
▁खन्नुहोस्	-11.485
▁blow	-11.4851
▁कालेब	-11.4851
▁Market	-11.4851
▁पढ्नुहोस्	-11.4853
▁villagers	-11.4853
▁हुँदछ	-11.4853
▁स्टोर	-11.4853
ipped	-11.4853
▁evaluate	-11.4853
▁थापा	-11.4855
▁tests	-11.4855
▁specification	-11.4855
▁पाइयो	-11.4857
▁अगमवक्ताहरूले	-11.4858
▁dump	-11.4861
▁चढाउँछ	-11.4861
▁प्रादेश	-11.4863
▁शैया	-11.4864
▁Currently	-11.4864
▁पूज	-11.4864
▁देखाइ	-11.4864
▁सागर	-11.4864
▁complaint	-11.4865
▁पाँचौं	-11.4865
▁mal	-11.4868
▁afterward	-11.487
▁भनौं	-11.4872
▁Must	-11.4875
▁fold	-11.4875
▁risen	-11.4876
▁incomplete	-11.4877
▁Dang	-11.4878
६६	-11.4878
▁{	-11.4879
▁बिहानै	-11.488
▁घण्टी	-11.4881
▁needle	-11.4882
▁contributed	-11.4883
plan	-11.4884
▁आयोज	-11.4885
▁mock	-11.4888
▁exception	-11.489
▁अपराधी	-11.4892
ंदैन	-11.4893
▁learned	-11.4895
▁सिङ्ग	-11.4897
▁आजसम्म	-11.4897
▁सुनाए	-11.49
बन	-11.4902
्ाा	-11.4903
▁खेल्ने	-11.4906
22	-11.4908
िङ्	-11.4909
▁games	-11.4911
▁दाह	-11.4915
▁protected	-11.492
▁increasingly	-11.4921
▁treasures	-11.4925
▁आँखाले	-11.4926
▁भोग्नु	-11.4929
▁labels	-11.4932
▁inquire	-11.494
▁परम	-11.4941
अनि	-11.4942
▁creature	-11.4942
▁abomination	-11.4942
▁principle	-11.4942
▁organisation	-11.4945
▁परमेश्वरसित	-11.4946
▁creatures	-11.4946
▁टिक	-11.4947
छोरी	-11.495
िन्न	-11.4953
▁pitch	-11.4953
▁वास्तविकता	-11.4954
▁Setting	-11.4955
▁मैदानमा	-11.4956
ूएल	-11.4957
▁बरु	-11.4957
▁चालक	-11.4959
▁revolution	-11.4963
▁farms	-11.4964
hri	-11.4965
▁specialist	-11.4965
▁भण्डारी	-11.4966
▁nose	-11.497
▁सुत्ने	-11.4972
▁cups	-11.4973
▁सकेमा	-11.4975
▁Mer	-11.4976
▁हराउने	-11.4977
▁पक्रन	-11.4977
▁हाड	-11.4978
▁reap	-11.4982
▁बसाल	-11.4991
▁तोक्न	-11.5002
hang	-11.5002
load	-11.5003
▁120	-11.5003
▁fan	-11.5004
घात	-11.5006
default	-11.5008
related	-11.5008
उत्पादन	-11.5008
▁उपत्यकामा	-11.5008
scale	-11.5012
मिटर	-11.5012
▁गर्द	-11.5014
भक्त	-11.5014
▁Medic	-11.5016
▁Men	-11.5017
▁oppress	-11.5018
97	-11.5018
▁जन्मे	-11.502
▁देखिदैन	-11.5021
▁finish	-11.5023
▁गतिशील	-11.5025
ुरु	-11.5027
▁37	-11.5034
teen	-11.5035
▁zones	-11.5038
▁timely	-11.5039
▁introduce	-11.504
▁59	-11.5042
मञ्जूषा	-11.5042
▁Abimelech	-11.5043
▁HotSync	-11.5043
▁Private	-11.5043
▁Progress	-11.5043
▁Technology	-11.5043
▁Zedekiah	-11.5043
▁combination	-11.5043
▁elephant	-11.5043
▁अनुमोदन	-11.5043
▁क्यान्सर	-11.5043
▁क्ष्ँेत्र	-11.5043
▁संक्रमण	-11.5043
▁Boston	-11.5043
▁Iraq	-11.5043
▁multiply	-11.5043
▁species	-11.5043
▁uncover	-11.5043
▁लाबान	-11.5043
▁वरदान	-11.5043
▁वीणा	-11.5043
▁राहेल	-11.5043
▁virus	-11.5043
▁प्रतिरोध	-11.5043
▁विनियोजन	-11.5043
▁dried	-11.5043
▁नूह	-11.5043
▁एकत्रित	-11.5043
▁उत्पत्ति	-11.5043
▁intensive	-11.5043
▁दाल	-11.5043
▁lodge	-11.5043
▁Eastern	-11.5043
▁आदर्श	-11.5043
▁informed	-11.5043
▁stirred	-11.5043
▁generating	-11.5043
▁wireless	-11.5043
▁Musician	-11.5044
▁Limit	-11.5044
▁देखापर्यो	-11.5044
▁पुर्याउँछ	-11.5044
▁दबाब	-11.5044
▁involvement	-11.5044
▁nakedness	-11.5044
▁append	-11.5044
▁रूपरेखा	-11.5044
▁cancer	-11.5044
▁साधारणतया	-11.5044
▁पारिवार	-11.5045
▁ghost	-11.5045
▁पठाइएको	-11.5045
▁kiss	-11.5045
xml	-11.5045
▁मैला	-11.5045
▁brain	-11.5045
▁oath	-11.5046
▁Road	-11.5046
▁obligation	-11.5046
▁असम्भव	-11.5046
▁businessmen	-11.5046
▁interpretation	-11.5046
▁उपनाम	-11.5046
▁conceived	-11.5047
▁Bethel	-11.5047
▁catch	-11.5047
▁chest	-11.5048
deb	-11.5051
▁बोक्ने	-11.5052
uz	-11.5052
▁keyring	-11.5053
▁Once	-11.5054
▁engaged	-11.5055
▁managed	-11.5057
▁deny	-11.5059
▁attraction	-11.5062
▁बरू	-11.5063
▁actually	-11.5063
▁वर्षअघि	-11.5064
▁BY	-11.5065
अमान्य	-11.5066
▁अस्	-11.5067
▁वास्ता	-11.5067
▁Arya	-11.5068
▁Projects	-11.5069
▁तीब्र	-11.5069
tech	-11.5071
26	-11.5073
▁अनुरूप	-11.5074
▁सेन्टर	-11.5074
▁मेटिए	-11.5076
▁finding	-11.5076
▁जोडाइ	-11.5078
▁armor	-11.508
▁आइरहेछ	-11.5086
now	-11.5087
▁^	-11.5091
▁counted	-11.5093
▁ल्याइएको	-11.5094
▁aimed	-11.5094
▁अस्त	-11.5095
▁गोठालाहरू	-11.5099
▁"%	-11.5102
▁हाम्र	-11.5105
▁प्रमुखहरू	-11.5106
▁demands	-11.5106
▁cookies	-11.5109
▁वृ	-11.5118
ट्रो	-11.5134
स्थिति	-11.5139
लोड	-11.5142
▁vegetable	-11.5142
▁chariot	-11.5143
▁नत	-11.5145
▁उपस्थिति	-11.5148
▁believes	-11.5149
▁भागहरू	-11.5152
▁पर्व	-11.5155
▁लान	-11.5163
▁राखियो	-11.5166
▁minute	-11.5168
▁आफन्त	-11.5168
▁राखिन्छ	-11.5173
▁निक्	-11.5175
▁spin	-11.5175
बाल	-11.5177
▁मूर्खता	-11.5182
▁sessions	-11.5185
▁निस्कन	-11.5188
▁फस	-11.5188
▁बचाउँनु	-11.5191
▁हिंड्न	-11.5194
▁Non	-11.5199
प्राप्त	-11.5207
born	-11.5207
उँछ	-11.5208
disabled	-11.5208
order	-11.5209
▁गराइ	-11.5209
सिंह	-11.5209
wide	-11.5213
▁लिब	-11.5219
party	-11.522
▁छान्नु	-11.5222
▁युरोप	-11.5222
▁inspir	-11.5224
दिनुहोस्	-11.5224
made	-11.5226
▁Sar	-11.5228
▁अर्कालाई	-11.523
had	-11.5234
▁rapid	-11.5234
▁immediate	-11.5235
▁owned	-11.5235
▁undertake	-11.5237
▁chose	-11.5238
Your	-11.524
▁liquid	-11.5241
room	-11.5242
â	-11.5243
दूषित	-11.5243
▁Lumbini	-11.5243
▁Modify	-11.5243
▁Position	-11.5243
▁Preferences	-11.5243
▁Zoom	-11.5243
▁criteria	-11.5243
▁engrave	-11.5243
▁kidney	-11.5243
▁purple	-11.5243
▁tremble	-11.5243
▁परस्पर	-11.5243
▁परिकल्पना	-11.5243
▁मालसामान	-11.5243
▁यहोयाकीम	-11.5243
▁सदुपयोग	-11.5243
▁Space	-11.5243
▁blasphem	-11.5243
▁खडेरी	-11.5243
▁पाखुरा	-11.5243
▁appeal	-11.5243
▁storm	-11.5243
▁रणनीति	-11.5243
▁काँध	-11.5243
▁प्रतिबद्धता	-11.5243
▁रिबेका	-11.5243
▁र्वष	-11.5243
▁Index	-11.5243
▁Russia	-11.5243
बित्तिकै	-11.5243
▁लाभांश	-11.5243
▁Thapa	-11.5243
▁किलोवाट	-11.5243
▁dividend	-11.5243
▁laboratory	-11.5243
▁संयन्त्र	-11.5243
▁उपसर्ग	-11.5244
▁Syrians	-11.5244
▁Samba	-11.5244
▁recommendation	-11.5244
▁परिच्छेद	-11.5244
▁Abner	-11.5244
▁हुंदा	-11.5244
▁सुदृढीकरण	-11.5245
▁deeds	-11.5245
▁rush	-11.5246
▁torn	-11.5246
▁Zone	-11.5246
▁Email	-11.5246
▁लिपि	-11.5247
▁Reform	-11.5247
▁2004	-11.5248
▁lightning	-11.5248
▁वृद्ध	-11.5248
▁forsaken	-11.5248
▁assistant	-11.5248
▁considerable	-11.5249
▁ग्यास	-11.5249
▁exactly	-11.525
▁संवेदनशील	-11.525
▁reset	-11.5252
▁economically	-11.5252
▁graph	-11.5254
▁सम्भवतः	-11.5254
▁clock	-11.5256
▁कुकर्म	-11.5256
▁html	-11.5259
Mo	-11.5259
▁सादा	-11.526
▁highlighted	-11.5261
▁redeemed	-11.5262
▁participants	-11.5262
WM	-11.5263
▁बनाउँदछ	-11.5264
▁thereby	-11.5264
▁तय	-11.5266
▁Multi	-11.5267
help	-11.5268
url	-11.5273
▁दीप	-11.5273
▁faster	-11.5275
▁setup	-11.5276
▁checking	-11.5279
▁वहु	-11.528
▁West	-11.528
▁Amorites	-11.5283
ela	-11.5288
▁tar	-11.5289
▁weapons	-11.5289
▁प्रयोगकर्ताहरू	-11.5291
host	-11.5294
dding	-11.5296
▁एकीकरण	-11.5297
▁कारणहरु	-11.53
▁ढि	-11.5302
▁घुसाउन	-11.5303
दश	-11.5306
िटि	-11.5308
▁trusted	-11.5309
▁collecting	-11.5311
▁यहो	-11.5313
ासाथ	-11.5314
▁lesson	-11.5318
▁पुष्टि	-11.5318
▁मेला	-11.5318
▁अर्कोतर्फ	-11.5322
▁periodic	-11.5327
▁cycle	-11.5329
▁वर्षपछि	-11.5333
▁नपुग	-11.5334
▁Mary	-11.5334
▁यथाश	-11.5337
▁Om	-11.5338
िदिने	-11.5342
▁डाक	-11.5342
▁vegetables	-11.5344
▁transaction	-11.5346
प्रो	-11.5347
▁पारियो	-11.5348
ाउण्ड	-11.5348
▁जातिहरूलाई	-11.535
ँङ	-11.5351
▁अही	-11.5351
▁धान्न	-11.5352
▁Accordingly	-11.5358
ोटी	-11.5365
▁Kamal	-11.5367
ञ्	-11.5367
▁interested	-11.5373
▁अञ्चलको	-11.5374
▁दिनपछि	-11.5375
active	-11.5378
▁आधारहरू	-11.5382
न्छु	-11.5383
▁refer	-11.5384
cut	-11.5386
▁MS	-11.5386
ाउँछौ	-11.5398
▁दर्श	-11.5407
▁पक्रे	-11.5408
निस	-11.5409
पूर्वनिर्धारित	-11.5412
▁सम्झनु	-11.5415
water	-11.5416
Co	-11.5419
▁appoint	-11.542
▁कता	-11.5423
पर्दा	-11.5424
▁ordered	-11.5425
FS	-11.5428
Admin	-11.5429
▁divide	-11.543
▁कुलबाट	-11.543
char	-11.5431
▁भाषाहरू	-11.5435
२४	-11.5435
▁खोजि	-11.5436
▁उपकरणहरु	-11.5436
▁unexpected	-11.5439
▁equ	-11.544
▁ब्याक	-11.544
num	-11.5442
▁Kumar	-11.5443
▁exploit	-11.5445
▁prosper	-11.5445
▁prior	-11.5445
▁naked	-11.5446
▁Script	-11.5446
▁Automatic	-11.5446
é	-11.5447
▁decrypt	-11.5447
▁Population	-11.5447
▁Restore	-11.5447
▁Student	-11.5447
▁circumstances	-11.5447
▁constellation	-11.5447
▁criminal	-11.5447
▁desirable	-11.5447
▁facilitate	-11.5447
▁fifteen	-11.5447
▁guest	-11.5447
▁herself	-11.5447
▁petition	-11.5447
▁studied	-11.5447
▁victory	-11.5447
▁आशिष	-11.5447
▁एघार	-11.5447
▁जनसाधारण	-11.5447
▁त्रिवर्षीय	-11.5447
▁ब्राजिल	-11.5447
▁लबानोन	-11.5447
▁सङ्घ	-11.5447
▁१९८८	-11.5447
▁History	-11.5447
▁PDF	-11.5447
▁copied	-11.5447
▁numeric	-11.5447
▁pluck	-11.5447
▁संजाल	-11.5447
▁Tux	-11.5447
▁खरायो	-11.5447
▁partition	-11.5447
Description	-11.5447
▁मूल्यांकन	-11.5447
▁advise	-11.5447
▁ashamed	-11.5447
▁Target	-11.5447
▁तथ्यांक	-11.5447
▁harp	-11.5447
▁macro	-11.5447
▁भइसकेका	-11.5448
▁crush	-11.5448
▁eastern	-11.5448
hood	-11.5448
▁लौरो	-11.5448
▁भाकल	-11.5448
▁fourteen	-11.5448
▁dropped	-11.5448
▁विविधीकरण	-11.5448
▁महसू	-11.5449
▁वक्ता	-11.5449
▁Madan	-11.5449
▁खान्छ	-11.545
▁Match	-11.545
बिना	-11.545
▁फिलिप	-11.5451
▁यात्री	-11.5451
▁अधर्म	-11.5451
▁वालेट	-11.5452
▁गधाहरू	-11.5452
▁chance	-11.5452
▁राज्यपाल	-11.5452
▁चर्को	-11.5452
▁ढाकेको	-11.5453
▁जङ्क	-11.5453
▁पाउँने	-11.5453
▁encountered	-11.5453
▁afflicted	-11.5454
▁व्याज	-11.5455
▁मर्नेछन्	-11.5455
▁हुँनेछ	-11.5456
▁wonderful	-11.5458
▁utilized	-11.5459
power	-11.546
▁६२	-11.546
▁highways	-11.546
▁allocated	-11.5461
▁vertically	-11.5462
▁भन्नुहोस्	-11.5464
▁sharing	-11.5466
▁निकाल्ने	-11.5466
▁undo	-11.5468
▁pursued	-11.5468
▁मिलाए	-11.547
६४	-11.5473
▁Sep	-11.5478
▁३४	-11.5478
▁बिदा	-11.5481
▁नोकरले	-11.5481
▁मदन	-11.5482
▁सिट	-11.5483
▁tune	-11.5483
▁कक्षमा	-11.5484
▁क्यारेक्टरहरू	-11.5485
▁लेख्नका	-11.5486
▁eliminate	-11.5486
▁cursed	-11.5487
▁गाडे	-11.5492
▁पूर्णरूप	-11.5494
▁Fla	-11.5495
▁सिंहासनमा	-11.5499
▁कष्टहरू	-11.5502
▁gained	-11.5503
▁बैठकमा	-11.5504
▁Say	-11.5507
▁उठेर	-11.5508
▁पाइन	-11.551
198	-11.551
▁सैनिकहरूले	-11.551
▁बहादुर	-11.5516
▁Has	-11.5518
▁निलो	-11.5518
▁दाना	-11.5519
▁नोक्सानी	-11.5521
▁निकाल्न	-11.5524
proof	-11.553
shan	-11.5532
▁endures	-11.5534
▁खम्बा	-11.5536
ेली	-11.5537
४६	-11.5543
▁संगत	-11.5543
▁ल्याएका	-11.5543
▁भागेर	-11.5548
७४	-11.5554
▁Baba	-11.5557
▁पल	-11.5559
ette	-11.5559
४००	-11.5565
▁robe	-11.5565
▁बच्न	-11.5566
▁250	-11.5568
▁सोध्नु	-11.5569
▁अस्पतालहरु	-11.5573
▁Chu	-11.5576
▁shed	-11.5579
▁जड	-11.5584
33	-11.5596
▁भोट	-11.5596
▁किरा	-11.5599
▁estimates	-11.5599
▁killing	-11.5602
▁warm	-11.5603
▁६००	-11.5605
▁भारतका	-11.5605
▁publish	-11.5606
tainment	-11.5606
▁आर्क	-11.5607
▁Tar	-11.5615
▁सकियो	-11.5617
standing	-11.5618
{	-11.5619
wood	-11.5619
▁51	-11.562
probability	-11.562
with	-11.5621
तालिका	-11.5621
tune	-11.5623
.50	-11.5623
▁accordingly	-11.5624
▁cure	-11.5626
ppa	-11.5626
four	-11.5628
▁विचारहरू	-11.563
▁restrict	-11.563
रङ	-11.5632
▁reveal	-11.5636
▁passing	-11.5637
▁expire	-11.5639
▁तिम्र	-11.5641
▁च्यात	-11.5645
▁देह	-11.5645
▁plug	-11.5649
▁thin	-11.5652
▁बताउँछ	-11.5653
▁Europe	-11.5653
पर्ूण्ा	-11.5655
▁Chicago	-11.5655
▁Human	-11.5655
▁Investment	-11.5655
▁Status	-11.5655
▁delegate	-11.5655
▁executing	-11.5655
▁unleavened	-11.5655
▁अजर्याह	-11.5655
▁आश्रित	-11.5655
▁इश्माएल	-11.5655
▁गिरफ्तार	-11.5655
▁चुरोट	-11.5655
▁जलवायु	-11.5655
▁दुलही	-11.5655
▁निवेदन	-11.5655
▁फ्रान्स	-11.5655
▁भ्रष्टाचार	-11.5655
▁लिमिटेड	-11.5655
▁वैशाख	-11.5655
▁व्यायाम	-11.5655
▁शताब्दी	-11.5655
▁१९८९	-11.5655
▁दिवस	-11.5655
▁behalf	-11.5655
▁contend	-11.5655
▁roof	-11.5655
▁Tyre	-11.5655
▁drama	-11.5655
▁कम्मर	-11.5655
▁Unexpected	-11.5655
▁श्रद्धा	-11.5655
▁Agency	-11.5655
▁accent	-11.5655
▁सुरुवात	-11.5656
▁सिक्का	-11.5656
▁Rural	-11.5656
▁micro	-11.5656
▁Food	-11.5656
▁Child	-11.5656
▁Drink	-11.5656
▁अप्रिल	-11.5656
▁Perform	-11.5656
डेल	-11.5656
▁श्रमशक्ति	-11.5656
▁सभापति	-11.5656
▁1997	-11.5656
▁crash	-11.5656
▁थोप्ला	-11.5657
▁Abram	-11.5657
212;	-11.5657
▁नगरिकन	-11.5657
▁shade	-11.5657
▁Leav	-11.5658
▁snow	-11.5658
▁बताउँछन्	-11.5659
▁tied	-11.566
▁देख्नेछन्	-11.566
▁विकृति	-11.5661
▁रोक्नुहोस्	-11.5661
▁चढे	-11.5662
▁मिलान	-11.5664
▁हत्यारा	-11.5664
▁Woe	-11.5667
वरण	-11.5668
▁एकपल्ट	-11.567
▁पाँचौ	-11.567
▁Mill	-11.567
▁स्टार	-11.5671
espite	-11.5673
▁quanti	-11.5674
▁Cor	-11.5676
▁researchers	-11.5676
▁छोए	-11.5676
▁HP	-11.5677
▁असमर्थित	-11.5679
atri	-11.5682
▁divisions	-11.5684
▁devoured	-11.5684
▁Dha	-11.5684
जुन	-11.5686
▁planet	-11.5687
▁क्यान	-11.5689
▁sexually	-11.5691
▁पूजाहारीहरूलाई	-11.5691
▁corrupted	-11.5691
▁बुद्धिमानी	-11.5693
▁skilled	-11.5694
▁कुलहरू	-11.5694
▁जापानमा	-11.5695
▁earned	-11.5696
▁थक	-11.5698
PL	-11.5698
▁बेच्न	-11.5699
▁उद्योगहरू	-11.5699
वार्ड	-11.5708
▁borne	-11.5708
▁representatives	-11.5712
▁शिक्षाहरू	-11.5712
▁चाहि	-11.5713
▁लागी	-11.5714
▁64	-11.5715
▁gener	-11.5718
▁happens	-11.572
▁लानु	-11.5722
▁चोरी	-11.5725
▁पर्खालहरू	-11.5727
▁कां	-11.573
▁hated	-11.5731
▁गुरू	-11.5732
▁balanced	-11.5736
▁६५	-11.5736
▁मारिने	-11.5736
arian	-11.5742
िस्ट	-11.576
▁तिर्नु	-11.5762
▁shepherd	-11.5767
▁bird	-11.5768
ल्हा	-11.5769
▁citizen	-11.5773
▁देखी	-11.5773
▁Bara	-11.5773
head	-11.5778
▁राजी	-11.5782
▁challenges	-11.5787
▁त्यागे	-11.579
yak	-11.579
गर्ने	-11.5792
▁Printer	-11.5794
्रान्त	-11.5798
ोचक	-11.5804
प्रतिस्पर्धात्मक	-11.5804
▁सक्थे	-11.5808
दैनन्	-11.5808
▁unusual	-11.5813
▁quarters	-11.5813
▁Class	-11.5818
▁पारिदिनु	-11.5819
ographic	-11.582
▁worker	-11.5824
फेस	-11.5827
defined	-11.5833
object	-11.5833
सिर्जना	-11.5833
meter	-11.5835
value	-11.5837
▁बीज	-11.5838
▁टेक	-11.5842
पाटी	-11.5846
▁register	-11.5848
▁scatter	-11.5848
संख्य	-11.585
▁सङ्लग्न	-11.5851
▁ignore	-11.5852
▁राख्दै	-11.5853
▁interesting	-11.5855
▁निम्नलिखित	-11.5855
▁Gal	-11.5857
▁लाग्दछ	-11.5857
घट	-11.586
▁एला	-11.5862
▁चिर	-11.5863
▁forsake	-11.5863
▁trans	-11.5865
▁Director	-11.5866
▁समर्प	-11.5867
▁parliament	-11.5867
elecommunication	-11.5868
▁Assembly	-11.5868
▁Bhairahawa	-11.5868
▁Financial	-11.5868
▁Lanka	-11.5868
▁Primar	-11.5868
▁Tokyo	-11.5868
▁availability	-11.5868
▁consensus	-11.5868
▁enforce	-11.5868
▁leprosy	-11.5868
▁occurrence	-11.5868
▁philosophy	-11.5868
▁primarily	-11.5868
▁zonal	-11.5868
▁कन्टेनर	-11.5868
▁गिबोन	-11.5868
▁टेलिस्कोप	-11.5868
▁दाँजोमा	-11.5868
▁द्रष्टब्य	-11.5868
▁मङ्गलबार	-11.5868
▁मस्तिष्क	-11.5868
▁मेगावाट	-11.5868
▁यरीहो	-11.5868
▁शिक्षित	-11.5868
▁समष्टिगत	-11.5868
▁Bagmati	-11.5868
▁Build	-11.5868
▁Civil	-11.5868
▁Request	-11.5868
▁irrigate	-11.5868
▁juice	-11.5868
▁अग्नि	-11.5868
▁पंचायत	-11.5868
▁बिशेष	-11.5868
▁सत्तरी	-11.5868
▁सिचाई	-11.5868
▁Consider	-11.5868
▁workshop	-11.5868
▁कच्ची	-11.5868
▁दांत	-11.5868
▁बाचन	-11.5868
▁कुशल	-11.5868
8,000	-11.5868
▁astray	-11.5868
▁Children	-11.5868
▁introduction	-11.5868
▁सचिवालय	-11.5868
▁wept	-11.5868
▁petroleum	-11.5868
सामयिक	-11.5868
▁betray	-11.5868
▁Title	-11.5869
▁lust	-11.5869
▁combine	-11.5869
▁submitted	-11.5869
▁cultivated	-11.5869
▁Cancel	-11.5869
खाना	-11.5869
▁सुलभ	-11.587
▁Light	-11.587
▁combo	-11.587
▁भन्दछ	-11.587
▁मारिदिए	-11.587
▁systematic	-11.587
▁सकृय	-11.587
▁pack	-11.587
▁अभिकर्ता	-11.5872
▁blog	-11.5873
▁artists	-11.5873
▁उपभोग्य	-11.5873
▁gray	-11.5874
▁बालिका	-11.5874
▁fade	-11.5874
▁thrown	-11.5875
▁constitutional	-11.5876
▁सङ्धठन	-11.5876
▁कठिनाइ	-11.5877
▁बिचार	-11.5878
▁उमेरका	-11.5878
▁Fill	-11.5878
▁तानेर	-11.5879
▁केन्या	-11.5879
▁correction	-11.5879
लाप	-11.5882
▁पार्दा	-11.5883
▁defiled	-11.5883
▁अमर	-11.5883
▁accuse	-11.5883
▁डरलाग्दा	-11.5884
▁विन्दु	-11.5884
▁Bharat	-11.5886
▁गाभ	-11.5886
▁रुपैयाँ	-11.5889
▁driven	-11.589
▁वो	-11.5894
▁painting	-11.5897
▁अन्याय	-11.5899
▁जंगली	-11.5902
▁tur	-11.5902
▁ride	-11.5905
▁interact	-11.5907
▁merge	-11.591
▁devotees	-11.5911
▁apostles	-11.5911
९४	-11.5912
▁prayed	-11.5913
▁कोटि	-11.5914
▁देशभर	-11.5922
▁projection	-11.5922
▁३८	-11.5924
▁sections	-11.5926
▁Officer	-11.5927
शेबा	-11.5928
▁चित्त	-11.593
▁describe	-11.593
▁गराएर	-11.5931
▁भिड	-11.5934
▁भन्नेछु	-11.5935
राजा	-11.594
▁हानी	-11.5942
▁चिज	-11.5948
थिए	-11.5956
मूर्त	-11.5957
▁झै	-11.5959
▁62	-11.596
▁Does	-11.5964
fold	-11.5967
राख्न	-11.5968
▁तोक	-11.5969
▁coat	-11.5971
▁प्राथमिकताहरू	-11.5975
प्रद	-11.5976
▁Vish	-11.5977
▁पक्राउ	-11.5978
▁बैङ्कहरु	-11.598
▁participat	-11.5981
▁tend	-11.5985
मानिस	-11.5985
▁elder	-11.5986
▁दिदै	-11.5986
▁५५	-11.5995
म्यान	-11.5996
दत्त	-11.5997
इस्राएल	-11.6
▁तपाइँको	-11.6001
▁लुकाए	-11.6003
▁गीतहरू	-11.6005
▁0.0	-11.601
ारण	-11.6013
▁उपायहरु	-11.6017
▁Hav	-11.6019
▁airports	-11.602
▁उठ्ने	-11.6029
ाधार	-11.603
▁heading	-11.603
बदल	-11.6034
▁निज	-11.6036
ेनी	-11.6037
७६	-11.6038
▁सिक्न	-11.6038
▁highlight	-11.6038
▁organize	-11.604
holders	-11.6041
▁४१	-11.6042
turn	-11.6048
▁फर्	-11.6048
▁समाजका	-11.6049
▁पेस	-11.6049
व्यवस्था	-11.605
position	-11.605
केडीई	-11.6051
र्व	-11.6051
वितरण	-11.6051
यसकारण	-11.6053
३५	-11.6055
AD	-11.6058
▁Ku	-11.606
्टन	-11.6063
ुक्क	-11.6064
▁redeem	-11.6066
▁refuse	-11.6069
RE	-11.607
▁लक	-11.6071
▁शिरमा	-11.6073
नयाँ	-11.6077
▁gradual	-11.6077
▁कन्फिग	-11.6079
CC	-11.608
▁mobilis	-11.6083
▁organis	-11.6084
▁danger	-11.6085
▁आउँन	-11.6085
परिमार्जित	-11.6085
▁Balaam	-11.6085
▁Efforts	-11.6085
▁Extension	-11.6085
▁Function	-11.6085
▁GConf	-11.6085
▁Policies	-11.6085
▁Unsupported	-11.6085
▁afford	-11.6085
▁brief	-11.6085
▁excellent	-11.6085
▁perceive	-11.6085
▁pregnant	-11.6085
▁senior	-11.6085
▁universe	-11.6085
▁widespread	-11.6085
▁कङ्ग्रेस	-11.6085
▁क्लिनिक	-11.6085
▁चुहावट	-11.6085
▁झोलुङ्धे	-11.6085
▁निर्ण्र्ाा	-11.6085
▁पुननिरन्तरता	-11.6085
▁प्रवक्ता	-11.6085
▁बेतलेहेम	-11.6085
▁हैसियत	-11.6085
▁acquisition	-11.6085
▁vagina	-11.6085
▁मजदुर	-11.6085
▁सींङ	-11.6085
▁typing	-11.6085
▁सीसरा	-11.6085
▁सघन	-11.6085
▁भक्तजनहरू	-11.6086
▁peak	-11.6086
▁हल्का	-11.6086
▁'{0}'	-11.6086
▁tube	-11.6086
▁yoke	-11.6086
▁palm	-11.6086
▁चिच्याए	-11.6086
▁मौरा	-11.6086
upreme	-11.6086
▁overcome	-11.6086
▁दाँत	-11.6086
▁Kenya	-11.6086
▁Coordination	-11.6086
▁Pilate	-11.6086
▁भोलिपल्ट	-11.6086
दृष्ट	-11.6086
▁अग्रभूमि	-11.6086
vocation	-11.6086
▁पुनप्रयास	-11.6086
▁राष्ट्रसंघ	-11.6086
▁खूब	-11.6086
▁leaf	-11.6086
[...]
