, 100
▁the 100
. 100
▁of 100
। 100
▁to 100
▁and 100
को 100
s 100
▁। 100
मा 100
▁in 100
ले 100
▁a 100
▁र 100
का 100
▁is 100
लाई 100
▁be 100
- 100
▁छ 100
▁for 100
▁, 100
▁" 100
▁ 100
▁you 100
▁will 100
▁गर्न 100
▁The 100
▁that 100
ing 100
' 100
▁not 100
▁गर्नुहोस् 100
▁पनि 100
▁( 100
▁अनि 100
▁यो 100
: 100
t 100
▁on 100
▁with 100
) 100
▁it 100
▁लागि 100
ed 100
; 100
▁I 100
हरू 100
बाट 100
▁are 100
▁this 100
▁म 100
▁from 100
▁have 100
▁was 100
▁by 100
ी 100
d 100
▁has 100
▁' 100
▁your 100
▁as 100
▁he 100
▁- 100
▁his 100
▁गर्ने 100
र 100
▁भने 100
▁तर 100
▁हो 100
▁. 100
▁भएको 100
▁all 100
? 100
▁who 100
▁तथा 100
न 100
▁थियो 100
▁shall 100
▁them 100
▁or 100
▁him 100
▁सबै 100
▁they 100
▁थिए 100
▁Yahweh 100
▁गरिएको 100
▁छन् 100
▁प्रयोग 100
▁एउटा 100
▁यस 100
▁at 100
▁छैन 100
▁हुन्छ 100
ा 100
▁which 100
▁नै 100
▁वा 100
▁त्यो 100
▁एक 100
▁said 100
▁their 100
▁भयो 100
क 100
▁my 100
▁ती 100
▁an 100
म 100
e 100
▁also 100
▁been 100
ly 100
er 100
▁In 100
▁can 100
▁were 100
▁फाइल 100
/ 100
▁me 100
▁आफ्नो 100
ै 100
▁मा 100
▁त्यस 100
▁कुनै 100
▁one 100
▁This 100
।" 100
स 100
▁A 100
▁out 100
" 100
▁मेरो 100
▁चयन 100
े 100
▁केही 100
▁but 100
▁people 100
▁हुने 100
y 100
▁मात्र 100
▁हुन 100
ो 100
▁file 100
▁He 100
▁up 100
▁there 100
ित 100
▁गर्नु 100
▁गरी 100
ल 100
ु 100
▁God 100
al 100
▁मानिसहरू 100
ि 100
▁गरे 100
▁यदि 100
हरु 100
▁गरेको 100
▁तिनीहरूले 100
n 100
सँग 100
▁when 100
▁मैले 100
▁तिनीहरू 100
▁धेरै 100
▁विकास 100
! 100
ँ 100
▁गर्दा 100
▁यी 100
▁no 100
▁के 100
▁It 100
▁कि 100
▁तपाईँले 100
." 100
▁had 100
▁निम्ति 100
▁मलाई 100
▁कार्य 100
▁रूपमा 100
▁should 100
▁You 100
▁do 100
ह 100
▁if 100
▁development 100
▁made 100
▁को 100
▁कुरा 100
c 100
ः 100
ता 100
▁more 100
▁काम 100
▁दिन 100
▁परमप्रभु 100
त 100
▁नयाँ 100
▁into 100
् 100
▁हुनेछ 100
▁: 100
▁) 100
▁time 100
▁But 100
▁its 100
▁other 100
ं 100
▁only 100
▁name 100
... 100
▁अ 100
r 100
m 100
▁land 100
▁जब 100
▁तब 100
in 100
▁% 100
ट 100
▁भए 100
▁new 100
▁? 100
▁man 100
▁like 100
▁राजा 100
▁हामी 100
▁For 100
▁त 100
▁If 100
▁योजना 100
▁भन्ने 100
▁we 100
▁गर्दछ 100
प 100
▁आवश्यक 100
ज 100
▁नाम 100
▁न 100
▁अन्य 100
▁may 100
▁मानिसहरूले 100
▁king 100
▁Israel 100
i 100
▁बढी 100
द 100
▁तपाईँ 100
▁after 100
▁these 100
▁before 100
▁S 100
▁day 100
es 100
छ 100
▁तिमीहरू 100
▁पर्छ 100
▁कार्यक्रम 100
▁children 100
▁तिनीहरूलाई 100
▁परमप्रभुले 100
▁house 100
▁about 100
हरूको 100
न् 100
ब 100
▁so 100
▁मानिसहरूलाई 100
▁सिर्जना 100
▁her 100
▁make 100
ेर 100
सम्म 100
▁son 100
▁समय 100
▁१ 100
▁use 100
▁त्यहाँ 100
द्वारा 100
▁Plan 100
u 100
▁They 100
▁year 100
▁जो 100
b 100
▁गरिनेछ 100
▁प्राप्त 100
▁मानिस 100
▁प्रत्येक 100
▁परमेश्वर 100
▁two 100
▁come 100
▁Nepal 100
▁भएका 100
▁आफ्ना 100
▁निर्माण 100
ला 100
व 100
able 100
▁वर्ष 100
▁because 100
▁परमेश्वरले 100
▁परिवर्तन 100
ग 100
▁used 100
▁यसको 100
▁तिमी 100
▁over 100
▁even 100
्ने 100
S 100
▁& 100
्न 100
▁than 100
▁सञ्चालन 100
or 100
▁बचत 100
▁set 100
▁रहेको 100
▁go 100
भन्दा 100
▁सेवा 100
▁country 100
हरूले 100
▁years 100
▁जसले 100
▁जस्तै 100
a 100
▁hand 100
▁विभिन्न 100
g 100
▁गर 100
▁व्यवस्था 100
▁came 100
▁against 100
▁गरेर 100
▁येशू 100
हरुको 100
▁government 100
▁any 100
▁जुन 100
o 100
▁those 100
▁some 100
▁number 100
▁our 100
हरूलाई 100
▁उपलब्ध 100
▁work 100
ौ 100
▁स 100
▁सेट 100
▁There 100
▁तपाईँको 100
▁तिमीहरूले 100
▁such 100
▁भन्दा 100
ना 100
▁आ 100
▁का 100
▁period 100
माथि 100
▁गर्दै 100
▁उत्पादन 100
▁त्रुटि 100
▁क 100
देखि 100
k 100
▁त्यसपछि 100
▁उहाँले 100
▁आर्थिक 100
▁`` 100
▁छोरा 100
▁उहाँ 100
▁होइन 100
x 100
▁प्रतिशत 100
ic 100
िक 100
▁us 100
सित 100
श 100
▁percent 100
ड 100
▁Could 100
▁first 100
▁सकेन 100
▁छवि 100
▁सन्देश 100
▁water 100
▁२ 100
th 100
▁want 100
▁रुपमा 100
▁गरेका 100
en 100
▁किनभने 100
▁उसले 100
▁men 100
f 100
▁down 100
?" 100
▁under 100
▁given 100
▁same 100
▁यहाँ 100
ation 100
▁मान 100
▁कम 100
य 100
▁अर्को 100
re 100
▁पाठ 100
की 100
▁यसलाई 100
▁रङ 100
▁कुञ्जी 100
▁selected 100
▁हुन् 100
▁-- 100
▁B 100
▁C 100
▁क्षेत्रमा 100
▁found 100
▁ठूलो 100
▁G 100
▁system 100
▁स्थापना 100
▁went 100
▁५ 100
▁पछि 100
▁way 100
▁says 100
▁When 100
यो 100
I 100
▁then 100
▁many 100
▁does 100
▁यस्तो 100
▁million 100
▁भन्नुभयो 100
▁सूची 100
▁through 100
▁पर्ने 100
पछि 100
▁सुरु 100
भ 100
▁t 100
री 100
▁छु 100
रा 100
se 100
▁तिमीहरूलाई 100
▁कुराहरू 100
▁did 100
ers 100
▁image 100
▁अहिले 100
▁गर्छ 100
्य 100
च 100
▁तिमीले 100
p 100
l 100
▁No 100
▁take 100
▁कारण 100
▁साथै 100
▁sector 100
▁गरिने 100
▁हुनुहुन्छ 100
▁तपाईं 100
ाइ 100
▁सुन 100
▁could 100
▁अब 100
▁place 100
छन् 100
▁now 100
▁dur 100
▁तिम्रो 100
▁un 100
▁प 100
▁परमेश्वरको 100
▁ग 100
▁would 100
▁परमप्रभुको 100
▁list 100
▁फेरि 100
ur 100
▁things 100
on 100
ar 100
▁हे 100
A 100
▁current 100
▁गरिएका 100
▁what 100
हरूमा 100
▁saying 100
▁सक्नुहुन्छ 100
▁Select 100
▁सञ्झ्याल 100
▁To 100
▁ब 100
▁1 100
ाई 100
▁कृषि 100
▁यसले 100
▁सक्छ 100
▁केडीई 100
▁वस्तु 100
▁हाम्रो 100
▁know 100
ण 100
▁किन 100
▁हुनु 100
an 100
▁window 100
▁क्षेत्र 100
▁अरू 100
▁माथि 100
▁good 100
B 100
▁प्रदर्शन 100
▁days 100
▁प्रयास 100
▁F 100
▁s 100
▁increase 100
le 100
▁plan 100
▁दिनु 100
▁As 100
▁३ 100
ने 100
▁So 100
▁उनले 100
▁स्थान 100
▁see 100
िन 100
▁विशेष 100
▁Do 100
▁राम्रो 100
▁इस्राएलका 100
▁key 100
▁जाँच 100
▁दुई 100
ू 100
▁very 100
▁फोल्डर 100
ion 100
▁while 100
▁फेला 100
▁प्रति 100
▁घर 100
▁भाग 100
\ 100
▁level 100
▁K 100
▁मेरा 100
▁या 100
▁open 100
▁रु 100
ख 100
▁बन्द 100
स् 100
▁E 100
▁available 100
▁यसकारण 100
▁सि 100
▁folder 100
▁सो 100
▁बाहिर 100
T 100
▁प्र 100
▁कृपया 100
it 100
▁पानी 100
▁P 100
▁गरियो 100
▁जस्तो 100
▁दिए 100
▁great 100
▁शहर 100
▁right 100
▁text 100
तिर 100
कै 100
▁get 100
▁उसको 100
▁तिमीलाई 100
M 100
▁where 100
▁between 100
▁Un 100
▁सम्म 100
▁असफल 100
▁गए 100
▁सक्षम 100
C 100
ीय 100
▁according 100
▁आदेश 100
्नु 100
▁विश्वास 100
▁am 100
▁every 100
▁स्थानीय 100
▁Then 100
तर्फ 100
▁जे 100
▁श्री 100
▁father 100
▁different 100
▁अवधिमा 100
2 100
▁जीवन 100
▁तिनीहरूको 100
▁वि 100
▁away 100
▁अघि 100
▁ह 100
▁लक्ष्य 100
P 100
वा 100
h 100
▁स्थिति 100
▁color 100
▁three 100
▁production 100
▁विकल्प 100
3 100
▁पूरा 100
▁नेपाल 100
▁being 100
▁give 100
▁हाल 100
▁order 100
▁put 100
▁project 100
▁re 100
▁थप 100
▁/ 100
0 100
D 100
▁कुल 100
▁शिक्षा 100
▁अनुमति 100
▁again 100
▁life 100
▁local 100
▁तपाईंले 100
▁! 100
▁देखिन्छ 100
▁Please 100
▁सरकारी 100
1 100
▁उ 100
( 100
▁निर्दिष्ट 100
▁४ 100
ौं 100
▁left 100
ra 100
▁सूचना 100
फ 100
el 100
ri 100
▁हालको 100
▁पार्न 100
▁files 100
▁information 100
िएको 100
mong 100
▁वृद्धि 100
▁2 100
▁हुँदैन 100
▁नि 100
▁another 100
▁David 100
संग 100
▁मुख्य 100
▁she 100
इ 100
▁heart 100
▁end 100
▁आएको 100
▁विस्तार 100
▁own 100
▁भनेर 100
▁बृद्धि 100
▁well 100
▁Now 100
▁क्लिक 100
▁पवित्र 100
ङ्ग 100
▁प्रयोगकर्ता 100
▁must 100
▁here 100
▁brought 100
▁जडान 100
ेको 100
▁खाली 100
▁ले 100
▁server 100
▁say 100
▁Error 100
▁Therefore 100
▁sons 100
▁हामीले 100
▁program 100
▁सुधार 100
▁called 100
▁world 100
▁चाहनुहुन्छ 100
र् 100
▁per 100
▁type 100
▁D 100
st 100
▁नीति 100
▁दिने 100
▁पर्दछ 100
▁g 100
▁यसर्थ 100
▁हामीलाई 100
▁मन 100
▁let 100
▁तल 100
▁प्रणाली 100
▁उनी 100
▁Rs 100
▁R 100
▁तपाईंको 100
▁power 100
▁शक्ति 100
▁नेपाली 100
▁नियन्त्रण 100
▁हात 100
▁तयार 100
▁करोड 100
▁स्वास्थ्य 100
▁सु 100
▁उसलाई 100
w 100
ध 100
▁आए 100
▁value 100
▁earth 100
ro 100
▁समयमा 100
▁पहिले 100
▁Lord 100
▁city 100
li 100
v 100
उ 100
▁view 100
▁sent 100
▁पूर्वनिर्धारित 100
▁यसरी 100
हरुलाई 100
ir 100
सा 100
▁पहिलो 100
▁necessary 100
▁bring 100
▁मानिसले 100
▁देखि 100
▁प्रकार 100
▁भनी 100
▁सकिन्छ 100
कहाँ 100
्यो 100
▁अथवा 100
▁p 100
▁खोजी 100
▁गरिन्छ 100
▁सहायता 100
▁done 100
5 100
▁भित्र 100
▁भूमि 100
% 100
▁त्यही 100
अ 100
E 100
▁word 100
▁All 100
us 100
▁सक्ने 100
▁area 100
▁ल 100
▁message 100
▁part 100
▁प्रविष्ट 100
▁समस्या 100
▁body 100
▁option 100
▁समेत 100
▁become 100
▁economic 100
▁अध्ययन 100
▁अनुमान 100
्र 100
▁होस् 100
▁स्रोत 100
▁data 100
▁सहयोग 100
▁projects 100
▁अनुसार 100
▁create 100
▁ख 100
▁कार्यान्वयन 100
▁ज 100
▁public 100
▁3 100
▁took 100
▁don 100
▁After 100
या 100
▁without 100
▁सर्भर 100
▁health 100
▁help 100
4 100
▁च 100
▁ए 100
▁प्रदान 100
▁taken 100
▁लगानी 100
▁विषयमा 100
▁डलर 100
▁तिन 100
▁समूह 100
▁Use 100
▁using 100
▁long 100
▁each 100
am 100
▁process 100
▁increased 100
▁हुन्छन् 100
▁आदि 100
▁इ 100
▁Jesus 100
कालागि 100
ma 100
] 100
▁areas 100
▁छौ 100
▁default 100
▁last 100
▁women 100
▁old 100
▁बि 100
▁how 100
▁$ 100
▁find 100
▁सम्पादन 100
▁अधिकार 100
्या 100
▁b 100
▁high 100
▁नाउँ 100
▁सकिँदैन 100
▁मुद्रण 100
▁तीन 100
to 100
▁line 100
il 100
दा 100
भित्र 100
▁सुविधा 100
▁total 100
▁बनाउन 100
ाउने 100
▁उच्च 100
ment 100
8 100
▁service 100
▁हाम्रा 100
▁error 100
▁Canno 100
ाउन 100
गत 100
ity 100
▁बाटो 100
ली 100
▁उद्देश्य 100
▁food 100
▁field 100
et 100
ta 100
िङ 100
▁मूल्य 100
▁जान 100
▁w 100
▁programmes 100
▁need 100
▁T 100
▁अक्षम 100
ive 100
▁सम्पूर्ण 100
ul 100
्स 100
▁कागजात 100
▁गर्यो 100
▁योजनाको 100
१ 100
▁पिता 100
▁following 100
हरुमा 100
▁लग 100
▁छैनन् 100
ch 100
▁अवस्थित 100
id 100
नु 100
▁services 100
▁already 100
▁उहाँको 100
▁लिएर 100
▁An 100
▁खेल 100
▁त्यसको 100
▁ध्यान 100
्छ 100
ाउ 100
िने 100
▁f 100
▁बेला 100
▁'' 100
▁due 100
▁both 100
▁लोड 100
L 100
▁command 100
▁पार्नुहोस् 100
6 100
▁de 100
▁education 100
▁भन्नु 100
▁देश 100
▁प्रक्रिया 100
▁भएर 100
▁Show 100
▁display 100
▁बस 100
▁India 100
▁व 100
▁change 100
im 100
▁सा 100
▁डेटा 100
▁उत्तर 100
F 100
▁eat 100
▁Re 100
▁started 100
्दै 100
▁5 100
▁गर्छन् 100
▁बा 100
▁बारेमा 100
ियो 100
▁थाहा 100
▁user 100
▁कसैले 100
्दा 100
▁१० 100
▁most 100
▁आयात 100
▁offering 100
▁दुष्ट 100
▁market 100
▁तिनीहरूका 100
▁read 100
▁जहाँ 100
▁nor 100
▁She 100
▁According 100
▁क्षेत्रको 100
▁६ 100
▁support 100
▁Moses 100
ness 100
▁4 100
▁Judah 100
नी 100
थ 100
रो 100
▁[ 100
▁पाप 100
▁देशको 100
▁M 100
▁n 100
० 100
▁जिल्ला 100
la 100
▁जना 100
▁देशमा 100
▁आयोजना 100
▁खोल्न 100
▁provide 100
वि 100
म् 100
▁भएमा 100
छु 100
▁सेटिङ 100
z 100
▁c 100
na 100
▁जन 100
▁around 100
▁various 100
▁growth 100
कार 100
▁until 100
▁अन्तिम 100
▁ओ 100
▁हजार 100
▁private 100
ई 100
▁जाने 100
▁situation 100
▁construction 100
▁foreign 100
▁हरेक 100
ah 100
▁पूर्ण 100
▁save 100
▁देखाउनुहोस् 100
▁हुँदा 100
▁आवश्यकता 100
▁tell 100
▁show 100
▁तिमीहरूका 100
▁एवं 100
▁therefore 100
▁उपयोग 100
▁resources 100
▁These 100
▁निम्न 100
▁able 100
▁thousand 100
▁Jerusalem 100
▁नष्ट 100
▁ठीक 100
▁पूर्व 100
▁main 100
▁national 100
▁१९ 100
▁आफ्नै 100
अनुसार 100
▁खर्च 100
▁10 100
▁And 100
▁programme 100
▁keep 100
▁प्रमुख 100
▁didn 100
▁विदेशी 100
▁नगर 100
▁थिएन 100
सी 100
ve 100
ti 100
▁तिमीहरूको 100
ती 100
▁We 100
▁अर्थ 100
▁training 100
▁७ 100
ce 100
▁At 100
▁दिएको 100
▁four 100
▁चल 100
▁policy 100
as 100
▁८ 100
▁भन्नुहुन्छ 100
▁अझ 100
▁blood 100
▁Kathmandu 100
te 100
▁rate 100
▁त्यसैले 100
▁लाख 100
▁present 100
▁जोड 100
▁side 100
▁much 100
▁small 100
▁population 100
▁निश्चित 100
▁युद्ध 100
▁सङ्ख्या 100
▁ऊ 100
▁छोरो 100
▁investment 100
▁विचार 100
छौ 100
▁रोग 100
▁अति 100
▁गर्नका 100
▁X 100
सम्बन्धी 100
▁सब 100
▁whom 100
▁उद्योग 100
▁run 100
▁Whether 100
▁gold 100
▁group 100
um 100
O 100
▁V 100
ष 100
▁words 100
▁यसो 100
▁तालिम 100
▁बाट 100
ance 100
▁परिवार 100
▁off 100
▁गर्नेछ 100
▁above 100
▁saw 100
▁possible 100
▁एकजना 100
▁२० 100
य् 100
▁आज 100
▁back 100
▁size 100
▁Set 100
▁योजनामा 100
▁fire 100
▁डाइरेक्टरी 100
▁बढ 100
▁works 100
▁document 100
ए 100
▁उनको 100
▁कसरी 100
पूर्ण 100
▁व्यापार 100
▁control 100
▁हुनेछन् 100
▁यरूशलेम 100
▁समर्थन 100
▁उक्त 100
un 100
▁गएको 100
िया 100
▁प्रतिलिपि 100
▁बजार 100
▁W 100
▁might 100
▁etc 100
▁k 100
▁start 100
प्रति 100
▁neither 100
▁New 100
▁head 100
▁निजी 100
▁मानिसहरूको 100
▁प्रभाव 100
▁९ 100
▁समावेश 100
▁राख्न 100
▁केन्द्र 100
▁hundred 100
▁U 100
३ 100
▁माग 100
लो 100
▁20 100
▁कारणले 100
▁असल 100
▁भ 100
ent 100
▁रहेका 100
▁मृत्यु 100
▁जम्मा 100
▁हुँ 100
▁वन 100
▁दुवै 100
▁मार्ग 100
▁ठेगाना 100
ति 100
▁कति 100
▁काठमाडौं 100
▁घटना 100
▁विरूद्ध 100
▁वितरण 100
▁trade 100
▁heard 100
sh 100
▁पालन 100
▁फ 100
००० 100
▁भन 100
▁लिन 100
▁भई 100
▁law 100
▁important 100
▁On 100
▁0 100
▁ठाउँमा 100
२ 100
टा 100
▁ख्रीष्ट 100
मध्ये 100
▁लेख 100
▁non 100
▁button 100
▁e 100
▁Create 100
▁N 100
▁प्रेम 100
▁वटा 100
▁जानकारी 100
▁जति 100
८ 100
▁yet 100
▁समाप्त 100
कोलागि 100
▁कहाँ 100
▁पटक 100
▁तिनी 100
▁साथ 100
’ 100
▁दण्ड 100
▁still 100
५ 100
▁Enter 100
▁टाढा 100
▁मोशा 100
▁मिश्र 100
▁गर्नुभयो 100
नि 100
ate 100
▁together 100
▁कोही 100
हरूका 100
est 100
▁यस्ता 100
▁O 100
▁उनीहरू 100
▁Nepali 100
▁... 100
▁next 100
▁Save 100
आ 100
▁मानिसको 100
▁सानो 100
▁प्रार्थना 100
▁आफू 100
▁महत्वपूर्ण 100
▁# 100
ies 100
▁छोराहरू 100
ak 100
६ 100
▁district 100
जी 100
▁activities 100
is 100
▁d 100
▁राज्य 100
▁6 100
▁उपयुक्त 100
▁अझै 100
▁child 100
▁बटन 100
▁फिल्टर 100
▁हेर 100
▁गर्नुहुन्छ 100
▁Mr 100
▁evil 100
▁व्यक्ति 100
ान 100
▁problem 100
▁specified 100
▁श 100
▁पर 100
▁परियोजना 100
▁facilities 100
▁gave 100
▁साइज 100
▁सडक 100
▁यही 100
▁function 100
▁सक्रिय 100
▁full 100
ry 100
▁eyes 100
▁पासवर्ड 100
▁सरकारले 100
▁बिन्दु 100
7 100
▁voice 100
▁dialog 100
▁हेर्न 100
हरुले 100
▁अवस्था 100
▁पत्र 100
▁जनता 100
▁लागू 100
▁न्याय 100
▁मद्दत 100
▁लामो 100
R 100
▁तह 100
▁select 100
▁मानिसलाई 100
▁ज्ञान 100
▁mode 100
▁directory 100
▁झैं 100
के 100
▁सक्दैन 100
▁countries 100
▁वर्णन 100
!" 100
▁himself 100
▁सम्बन्धित 100
▁point 100
▁canno 100
▁home 100
▁शब्द 100
नै 100
▁changes 100
▁basis 100
age 100
९ 100
▁स्पष्ट 100
▁Thus 100
▁8 100
▁Egypt 100
▁person 100
▁enter 100
▁गराउन 100
▁सरकार 100
▁अनुसन्धान 100
▁दिन्छ 100
▁उपकरण 100
▁इस्राएल 100
▁face 100
▁दृश्य 100
ol 100
mi 100
▁आज्ञा 100
▁What 100
▁कम्पनी 100
▁मूल 100
▁त्यस्तै 100
▁जन्म 100
▁यसमा 100
डी 100
▁thing 100
▁Failed 100
▁कर 100
▁पि 100
▁social 100
▁आधारमा 100
बा 100
▁पा 100
रे 100
▁password 100
▁लाई 100
डा 100
वटा 100
▁spoke 100
▁स्तर 100
ङ 100
▁चार 100
▁महिला 100
▁प्रकारको 100
▁सामाजिक 100
▁special 100
▁ठाउँ 100
्छन् 100
at 100
▁बन 100
▁तापनि 100
▁निर्यात 100
▁ग्रामीण 100
hi 100
ाउनु 100
▁live 100
▁9 100
▁अवस्थामा 100
▁गाउँ 100
ting 100
▁प्लगइन 100
▁सं 100
▁road 100
▁कन्फिगर 100
▁De 100
▁just 100
▁mother 100
▁० 100
ist 100
▁near 100
▁toward 100
▁established 100
▁अनुप्रयोग 100
▁brothers 100
▁completed 100
ष्ट 100
▁within 100
▁My 100
▁जवाफ 100
▁failed 100
▁family 100
▁नियम 100
▁object 100
▁ऋण 100
▁light 100
▁दाऊद 100
प्र 100
▁money 100
▁कहिल्यै 100
▁थिएँ 100
▁month 100
▁large 100
▁निकासी 100
up 100
lu 100
▁Dur 100
कर्ता 100
+ 100
▁आएका 100
▁seen 100
▁खुशी 100
▁उप 100
▁result 100
▁target 100
▁nations 100
टी 100
▁मु 100
ेल 100
▁सामान्य 100
me 100
▁दिनुहोस् 100
▁forth 100
▁स्तम्भ 100
▁जल 100
▁कु 100
▁too 100
▁address 100
▁L 100
▁रेखा 100
▁priest 100
▁द 100
▁स्वचालित 100
▁स्वीकार 100
िय 100
▁estimated 100
▁आउने 100
▁पुन 100
H 100
▁format 100
जा 100
▁आफै 100
▁गर्नुहोस्ः 100
▁Development 100
▁निर्णय 100
▁पर्दा 100
▁7 100
▁तिर 100
▁KDE 100
▁Your 100
▁death 100
▁provided 100
▁His 100
▁मन्दिर 100
हे 100
▁साधन 100
▁लाइन 100
ेका 100
vi 100
▁source 100
▁export 100
▁1. 100
▁Go 100
▁since 100
नन् 100
▁संवाद 100
▁यहूदा 100
▁hands 100
▁book 100
▁घरमा 100
G 100
hether 100
▁themselves 100
▁मेल 100
▁happened 100
▁File 100
रुपमा 100
lo 100
▁कन्फिगरेसन 100
▁प्राथमिकता 100
लि 100
▁five 100
▁मध्ये 100
▁सत्य 100
▁Christ 100
▁fall 100
▁गर्दैछ 100
ter 100
less 100
▁सन् 100
▁woman 100
ne 100
▁् 100
ार 100
▁संस्करण 100
▁मे 100
▁अत्यन्त 100
▁However 100
▁servant 100
▁अगाडि 100
▁seven 100
▁विकासको 100
▁Seventh 100
▁lack 100
▁शाऊल 100
▁बस्ने 100
▁जि 100
▁past 100
▁messages 100
▁शरीर 100
▁table 100
▁विषय 100
▁नभएको 100
▁19 100
▁ढाँचा 100
▁यहूदाका 100
क्ष 100
▁खास 100
ाए 100
▁भाषा 100
came 100
रि 100
▁sure 100
ia 100
न्त 100
▁वर्ग 100
▁increasing 100
▁move 100
▁गरि 100
ure 100
▁आन्तरिक 100
ck 100
▁नेपालमा 100
▁भेट 100
▁आत्मा 100
▁प्रविधि 100
▁agricultural 100
▁action 100
man 100
▁application 100
▁उनलाई 100
▁फन्ट 100
▁; 100
▁बनाउने 100
▁गर्नुपर्छ 100
▁गर्दैन 100
▁young 100
▁problems 100
्नुहोस् 100
स्ट 100
▁तेल 100
▁मालिक 100
▁disease 100
▁page 100
▁भर 100
▁गर्नुपर्ने 100
▁brother 100
▁love 100
▁तिनका 100
▁ड 100
▁संख्या 100
▁state 100
▁निर्धारण 100
▁आधार 100
▁financial 100
▁पक्ष 100
ut 100
▁विवाह 100
▁cities 100
▁sin 100
▁required 100
▁झ 100
= 100
ाय 100
▁गर्छु 100
▁search 100
▁यसै 100
▁जस्ता 100
स्त 100
▁सकिने 100
▁shown 100
▁फाइलहरू 100
▁नेपालको 100
N 100
di 100
▁परेको 100
▁हुँदै 100
▁य 100
▁सारा 100
▁Open 100
▁यन्त्र 100
▁behold 100
▁गयो 100
▁घ 100
▁पढ्न 100
▁2. 100
▁oil 100
▁तर्फ 100
▁सेयर 100
७ 100
▁hear 100
▁Let 100
ha 100
▁कस 100
pe 100
▁पहुँच 100
▁दायाँ 100
▁company 100
▁वर्षमा 100
▁पार 100
▁means 100
▁गराउने 100
जना 100
▁दाऊदले 100
▁add 100
▁speak 100
▁amount 100
ंग 100
िस 100
ary 100
▁सुरक्षा 100
▁Be 100
िन्छ 100
▁पृथ्वी 100
> 100
▁त्यस्तो 100
▁सातौं 100
▁तिम्रा 100
▁दिनुभयो 100
ाएर 100
▁जनसंख्या 100
▁बाल 100
▁addition 100
▁संस्था 100
ous 100
▁fathers 100
▁साधारण 100
▁सुरुआत 100
▁छौं 100
▁सम्पर्क 100
▁याकूब 100
▁जान्छ 100
▁capital 100
▁अन्त्य 100
▁war 100
▁चिन्ह 100
▁राष्ट्रिय 100
▁भन्न 100
em 100
▁access 100
▁हटाउन 100
ba 100
▁अवैध 100
बारे 100
्रा 100
▁डेस्कटप 100
▁version 100
▁turn 100
▁far 100
▁यसका 100
▁नम्बर 100
▁आमा 100
▁से 100
▁पद 100
▁case 100
▁भारत 100
▁servants 100
▁location 100
▁औद्योगिक 100
▁Click 100
ll 100
▁सही 100
▁rural 100
▁times 100
▁cut 100
ठ 100
▁सुरक्षित 100
▁rest 100
do 100
▁expected 100
▁configuration 100
▁distribution 100
▁कार्यक्रमहरु 100
ab 100
▁मानिसहरु 100
▁written 100
▁top 100
pa 100
िए 100
▁village 100
▁प्रभावकारी 100
▁वर्षको 100
ni 100
▁created 100
▁send 100
▁खान 100
ात्मक 100
िएका 100
▁स्थानमा 100
▁व्यवहार 100
▁त्यसै 100
). 100
▁दिइएको 100
▁supply 100
▁प्रस्ताव 100
▁free 100
▁कायम 100
▁वातावरण 100
▁पछिल्लो 100
गा 100
▁शान्ति 100
▁One 100
न्ड 100
▁account 100
▁हुनुपर्छ 100
▁बग 100
de 100
▁अरु 100
▁जसलाई 100
ite 100
▁mouth 100
the 100
▁holy 100
▁फरक 100
झ 100
▁सकिएन 100
▁school 100
▁सकेको 100
▁answered 100
▁research 100
▁peace 100
▁वरिपरि 100
▁संरक्षण 100
", 100
▁देखा 100
▁रकम 100
▁implemented 100
▁ल्याउन 100
▁Some 100
▁यसैले 100
▁भएन 100
▁वस्तुहरू 100
▁परमेश्वरलाई 100
▁wife 100
▁बायाँ 100
▁position 100
▁ट 100
▁आगो 100
मै 100
▁write 100
▁By 100
▁व्यवस्थापन 100
▁राख्ने 100
▁How 100
▁forest 100
▁living 100
▁going 100
▁Check 100
▁बिक्री 100
▁whole 100
▁allow 100
▁known 100
▁अनुभव 100
▁कहिले 100
▁remove 100
▁path 100
हा 100
▁मोड 100
▁irrigation 100
▁little 100
▁अतिरिक्त 100
घ 100
ेन 100
▁fact 100
▁१५ 100
▁agriculture 100
▁पृष्ठभूमि 100
▁That 100
▁घट 100
ण्ड 100
▁dead 100
▁language 100
▁फल 100
lt 100
▁शहरहरू 100
▁Behold 100
▁बताए 100
▁selection 100
पी 100
▁बैंक 100
अन्तर्गत 100
▁राष्टि्रय 100
▁play 100
४ 100
▁दक्षिण 100
be 100
▁return 100
▁cause 100
and 100
om 100
▁करार 100
▁प्रविष्टि 100
▁sub 100
▁Enable 100
▁active 100
ted 100
▁पृष्ठ 100
▁date 100
▁industrial 100
ine 100
▁प्रशासन 100
▁निकै 100
▁विश्व 100
▁string 100
▁commanded 100
end 100
▁क्षमता 100
▁आय 100
▁comes 100
▁National 100
▁menu 100
▁आशा 100
▁general 100
▁region 100
▁गरिरहेका 100
▁रू 100
▁पूजाहारी 100
▁Congress 100
▁तर्जुमा 100
▁नराम्रो 100
▁मिति 100
▁import 100
The 100
▁H 100
▁less 100
▁values 100
ty 100
▁few 100
▁प्रतिशतले 100
पा 100
▁उत्पन्न 100
▁उचित 100
▁शैली 100
▁column 100
▁check 100
U 100
W 100
ag 100
ाउँदै 100
▁places 100
▁always 100
▁told 100
ाऊ 100
▁महा 100
▁connection 100
X 100
▁कर्मचारी 100
▁Even 100
▁x 100
▁concern 100
▁बनाए 100
पन 100
्दछ 100
▁डा 100
▁प्राविधिक 100
▁प्रगति 100
▁sound 100
न्छ 100
▁देखे 100
▁लि 100
▁सय 100
▁mail 100
▁वचन 100
▁valid 100
िरहेको 100
▁बनाउनु 100
▁soul 100
▁existing 100
▁अभाव 100
ओ 100
▁\ 100
▁second 100
▁गर्नेछन् 100
▁St 100
▁शहरमा 100
▁interest 100
all 100
ृ 100
▁सबैभन्दा 100
▁दर 100
▁Add 100
एल 100
ढ 100
), 100
▁drink 100
▁छैठौं 100
▁जारी 100
▁goods 100
▁12 100
▁lot 100
▁साना 100
▁अनुरोध 100
▁शासन 100
▁चेलाहरू 100
▁Because 100
▁settings 100
▁share 100
▁दुइ 100
बि 100
समेत 100
▁शुद्ध 100
▁शुरू 100
▁price 100
▁राष्ट्र 100
▁ने 100
▁sword 100
▁जनशक्ति 100
ang 100
▁considered 100
▁द्वारा 100
▁daughter 100
▁> 100
▁भवन 100
ful 100
▁सम्बन्धी 100
▁business 100
▁sea 100
▁सम 100
▁कार्यालय 100
▁उपचार 100
▁fear 100
▁ten 100
▁प्रस्तुत 100
▁reached 100
▁रगत 100
▁Sixth 100
▁अमेरिकी 100
▁ट्याब 100
▁भइरहेको 100
▁पाल 100
▁सधैं 100
▁नदी 100
▁राज 100
ho 100
्यौ 100
▁additional 100
▁सङ्केत 100
▁industries 100
▁हृदय 100
▁विद्युत 100
▁पाए 100
▁सँग 100
You 100
▁हौ 100
▁नजिक 100
त्र 100
▁Can 100
▁night 100
▁making 100
▁१२ 100
ru 100
▁गैर 100
ामा 100
▁अन्न 100
▁मि 100
▁सम्मान 100
▁तिमीहरु 100
▁विभाग 100
▁डर 100
▁भूमिका 100
▁form 100
▁working 100
ish 100
दिन 100
▁Co 100
▁15 100
जस्ता 100
ीत 100
यदि 100
▁यसबाट 100
▁सात 100
▁आयो 100
▁related 100
▁reason 100
▁example 100
▁environment 100
▁रुप 100
▁die 100
K 100
▁look 100
▁Similarly 100
▁districts 100
▁लागे 100
▁Don 100
▁तत्व 100
▁बाबेल 100
मी 100
से 100
बीच 100
▁मिलियन 100
एको 100
▁operation 100
ant 100
▁यातायात 100
▁network 100
▁opened 100
क् 100
▁ठूला 100
▁post 100
▁खाने 100
▁लागेको 100
ke 100
▁Nepalese 100
।' 100
क्स 100
▁choose 100
▁आवाज 100
▁billion 100
▁pre 100
▁नियमित 100
▁installed 100
▁आकाश 100
▁चाल 100
▁स्ट्रिङ 100
▁पुत्र 100
▁प्रतिमा 100
▁मिल 100
▁राखिएको 100
▁low 100
▁received 100
▁पाउने 100
▁दृष्टि 100
▁विवरण 100
▁३० 100
▁Ma 100
▁बे 100
ver 100
▁organization 100
▁forever 100
▁उठ 100
▁instead 100
▁kept 100
▁कारोबार 100
▁तालिका 100
▁con 100
▁थाले 100
▁एउटै 100
▁भिडियो 100
▁From 100
▁Man 100
▁गा 100
▁30 100
द्ध 100
▁दुःख 100
मान 100
ites 100
▁सम्पन्न 100
▁गुण 100
▁आयोजनाहरु 100
▁हासिल 100
▁items 100
▁पुनः 100
हो 100
▁Due 100
▁अन्तर्गत 100
▁kind 100
▁based 100
ोन 100
▁bread 100
▁बढाउन 100
▁police 100
▁coming 100
▁cast 100
▁though 100
िरहेका 100
ाव 100
▁पहिला 100
▁प्रतिवेदन 100
▁With 100
▁output 100
▁screen 100
▁कुन 100
▁असर 100
▁demand 100
▁समाधान 100
▁आक्रमण 100
▁computer 100
▁Image 100
mo 100
▁पशु 100
▁nation 100
▁tree 100
▁शत्रु 100
▁गो 100
▁अस्वीकार 100
▁कतिपय 100
▁implementation 100
▁today 100
▁दोस्रो 100
▁योग्य 100
▁अवधि 100
▁सम्बन्ध 100
▁सार्वजनिक 100
▁गर्नेछु 100
▁आई 100
▁images 100
▁below 100
▁भू 100
▁रहने 100
▁currently 100
▁यति 100
▁गरें 100
▁प्रभु 100
▁efforts 100
▁सेना 100
▁रूपले 100
▁strong 100
▁प्रशंसा 100
▁glory 100
▁यस्तै 100
▁Saul 100
▁third 100
▁sky 100
▁Ka 100
▁मेट्न 100
▁सफल 100
▁तपाईंलाई 100
▁बल 100
▁हालै 100
▁short 100
▁सामग्री 100
▁La 100
▁दा 100
Y 100
▁स्त्री 100
▁meeting 100
▁16 100
▁पर्यटन 100
ach 100
▁पैसा 100
▁क्रममा 100
▁poor 100
▁खोल्नुहोस् 100
▁Color 100
▁needs 100
िन् 100
op 100
ad 100
▁पत्नी 100
▁altar 100
▁भाइ 100
▁mind 100
ph 100
ge 100
त् 100
▁खा 100
▁गरिरहेको 100
▁database 100
▁प्रकार्य 100
▁दिनेछु 100
▁< 100
खा 100
▁उल्लेख 100
▁Sa 100
▁प्रमाणपत्र 100
रू 100
▁call 100
▁ता 100
po 100
▁भनेको 100
▁h 100
▁Of 100
00 100
▁economy 100
▁click 100
ुल 100
no 100
▁knowledge 100
▁खाना 100
र्स 100
▁close 100
▁भएकोले 100
▁priests 100
▁morning 100
▁society 100
▁इच्छा 100
▁यात्रा 100
▁study 100
्ब 100
▁months 100
▁income 100
▁फाइलमा 100
▁asked 100
▁game 100
सँगै 100
▁प्रमाण 100
▁विस्तृत 100
▁वार्षिक 100
▁सत्र 100
▁तिनलाई 100
ीको 100
नो 100
▁बीचमा 100
▁doesn 100
▁पुगेको 100
▁democracy 100
▁human 100
▁half 100
शा 100
न्द 100
▁kill 100
▁छोड 100
rs 100
▁समाचार 100
▁flesh 100
▁stood 100
▁सीमित 100
▁including 100
▁आकार 100
▁प्रबन्धक 100
▁सक्छन् 100
▁developed 100
▁Jacob 100
जि 100
▁कार्यमा 100
▁जानु 100
▁आधारित 100
▁Not 100
per 100
▁भूमिमा 100
▁report 100
▁वित्तीय 100
▁भेडा 100
▁रात 100
▁पूजा 100
▁मानिसहरूका 100
▁office 100
▁परि 100
▁बाकस 100
▁लिङ्क 100
▁पश्चिम 100
▁आइ 100
▁महान 100
▁परमप्रभुलाई 100
▁विद्यालय 100
▁try 100
गर 100
पर 100
line 100
▁त्यति 100
▁बलि 100
▁तरिकाले 100
▁हु 100
▁spirit 100
▁having 100
▁role 100
▁technical 100
▁पुरानो 100
ka 100
▁भन्छन् 100
▁देऊ 100
▁3. 100
9 100
▁Are 100
ya 100
▁item 100
ot 100
▁रक्षा 100
▁border 100
▁डाटाबेस 100
▁संयुक्त 100
▁प्रकारले 100
▁ध 100
▁पो 100
▁नगर्ने 100
os 100
▁छन 100
▁संलग्न 100
co 100
सि 100
▁effective 100
▁रहन 100
▁cost 100
▁policies 100
▁औषधि 100
▁चीज 100
▁उनका 100
V 100
▁गर्दछन् 100
ाम 100
रिब 100
▁हेर्नुहोस् 100
▁layer 100
▁रोटी 100
▁बाबु 100
म्प 100
अघि 100
न्ट 100
▁Edit 100
▁appropriate 100
▁management 100
▁ground 100
▁प्याकेज 100
जस्तो 100
ाउँछ 100
▁सक 100
▁answer 100
▁प्रा 100
▁बोल 100
▁load 100
▁base 100
▁पदार्थ 100
▁political 100
ल्ला 100
▁तेस्रो 100
▁परेन 100
▁इस्राएलीहरू 100
uch 100
▁pass 100
▁एस 100
▁सञ्जाल 100
ेट 100
▁प्रश्न 100
han 100
▁progress 100
▁nothing 100
▁midst 100
▁प्रचार 100
▁वैध 100
▁co 100
▁विज्ञान 100
▁केवल 100
▁खाता 100
▁कोठा 100
▁शत्रुहरू 100
▁empty 100
▁भोजन 100
वाद 100
▁o 100
▁दल 100
▁धर्म 100
▁गुप्तिकरण 100
▁येशूलाई 100
▁शीर्षक 100
▁feet 100
▁मात्रामा 100
▁मह 100
▁कामहरू 100
ism 100
▁clear 100
▁लगे 100
▁राख्नु 100
▁Government 100
▁५० 100
▁लगइन 100
▁r 100
▁महिना 100
▁कल 100
▁major 100
▁capacity 100
▁ठ 100
▁पार्ने 100
▁बेलामा 100
वादी 100
▁Bank 100
▁क्यारेक्टर 100
▁तपाई 100
▁i 100
▁हुलाक 100
▁शुरु 100
ाल 100
▁जा 100
▁मुलुक 100
▁चीजहरू 100
▁exists 100
ai 100
▁regular 100
▁self 100
▁अधिकतम 100
▁chief 100
▁why 100
▁गलत 100
▁filter 100
▁परीक्षण 100
▁ex 100
▁Change 100
▁keys 100
▁लुगा 100
ीकरण 100
▁फ्रेम 100
▁सीमा 100
▁आपूर्ति 100
▁यूसुफ 100
▁छोरी 100
oth 100
▁higher 100
▁पुग्न 100
▁शक्तिशाली 100
▁मध्य 100
▁हुनाले 100
▁स्वतन्त्र 100
▁began 100
▁Only 100
▁गर्नुभएको 100
▁walk 100
▁killed 100
▁यहूदीहरू 100
▁धन 100
ोस् 100
▁सदा 100
▁पठाए 100
▁जग्गा 100
्क 100
▁टा 100
▁priority 100
▁अंश 100
▁task 100
▁अर्थात 100
▁carried 100
हरूबाट 100
टि 100
▁Ra 100
▁वेदी 100
▁certain 100
हु 100
▁video 100
▁age 100
▁समिति 100
▁style 100
▁stand 100
▁develop 100
▁आउनु 100
▁एल 100
▁बीच 100
▁प्रोफाइल 100
tra 100
▁changed 100
▁Ha 100
▁continue 100
▁प्राथमिक 100
▁सुने 100
▁समान 100
▁technology 100
▁true 100
▁याद 100
▁खेती 100
▁lived 100
▁Ja 100
▁पर्दैन 100
▁class 100
▁भन्यो 100
▁आफैं 100
▁मोशाले 100
▁गत 100
nd 100
▁break 100
▁background 100
▁industry 100
▁प्रतिज्ञा 100
▁माउस 100
▁effect 100
▁saved 100
▁Su 100
टन 100
▁print 100
ts 100
▁आँखा 100
▁बाँकी 100
▁students 100
▁एकदम 100
▁फोटो 100
▁पर्यो 100
▁prepared 100
▁पी 100
▁programs 100
▁farmers 100
▁black 100
▁built 100
▁XML 100
▁कर्जा 100
▁manpower 100
▁निर्गत 100
▁running 100
कर 100
धार 100
▁ति 100
ling 100
▁50 100
िल 100
▁राख 100
▁अन 100
▁राखे 100
pl 100
▁परिचालन 100
▁प्रशस्त 100
▁m 100
▁बनाउनुहोस् 100
pp 100
▁device 100
▁manager 100
▁delete 100
▁receive 100
▁लाग्ने 100
▁बारे 100
▁dis 100
▁13 100
▁Minister 100
▁संघ 100
gt 100
जस्तै 100
▁थप्नुहोस् 100
▁प्रकारका 100
go 100
▁गर्यौ 100
▁previous 100
▁चाँदी 100
▁पहिल्यै 100
▁Me 100
▁purpose 100
pi 100
▁dwell 100
▁जसको 100
चा 100
▁बुझ 100
▁थप्न 100
▁twenty 100
▁पावल 100
▁parts 100
▁पुस्तक 100
▁हुन्थ्यो 100
▁Move 100
▁destroy 100
▁अधिकारी 100
▁party 100
▁seed 100
▁GDM 100
▁क्रमशः 100
▁leave 100
▁think 100
▁standard 100
▁तिनको 100
▁कालो 100
▁box 100
कि 100
▁अगमवक्ता 100
▁पाउन 100
▁चेतावनी 100
▁Search 100
▁regard 100
▁assistance 100
▁25 100
▁देखाउन 100
▁एकै 100
ीन 100
▁J 100
ig 100
सु 100
▁चौथो 100
भर 100
▁हारून 100
▁गीत 100
ized 100
त्त 100
▁संरचना 100
▁court 100
▁दाज्यू 100
▁पाँच 100
▁सन्तान 100
▁host 100
▁जाति 100
▁जाऊ 100
▁१३ 100
▁डि 100
he 100
▁पर्याप्त 100
▁future 100
▁plugin 100
▁स्टक 100
▁supported 100
▁map 100
▁कम्प्युटर 100
▁roads 100
▁गणना 100
son 100
बी 100
har 100
▁seems 100
▁silver 100
▁Aaron 100
▁materials 100
▁Display 100
▁बाली 100
▁quality 100
▁4. 100
sa 100
▁URL 100
▁सक्छौ 100
▁मेनु 100
ors 100
▁bar 100
▁१६ 100
▁सर 100
▁११ 100
्रे 100
ास 100
▁देख्न 100
हीन 100
▁pay 100
▁exchange 100
▁सार्नुहोस् 100
▁अस्पताल 100
▁सम्पत्ति 100
▁listen 100
ताको 100
▁अनुकूल 100
▁ना 100
▁turned 100
▁log 100
▁clean 100
▁remote 100
▁घोषणा 100
▁बराबर 100
▁सम्झौता 100
▁विधि 100
▁font 100
▁वास्तविक 100
▁आफूलाई 100
com 100
जन 100
▁भएपछि 100
▁meet 100
▁सम्भव 100
▁building 100
▁calendar 100
▁internal 100
▁प्रवेश 100
▁mouse 100
▁सम्भावना 100
▁जीवित 100
▁desktop 100
मे 100
▁तरवार 100
▁दि 100
▁साल 100
▁कक्ष 100
▁born 100
▁history 100
▁status 100
▁drinking 100
▁car 100
▁sectors 100
▁उदाहरण 100
▁२५ 100
j 100
ap 100
av 100
▁11 100
▁परिणाम 100
▁परिभाषित 100
▁विगत 100
▁please 100
ष् 100
▁लेख्न 100
पत्र 100
▁international 100
▁वर्तमान 100
▁वास्तवमा 100
▁physical 100
ay 100
▁खोज 100
▁क्या 100
▁kings 100
ize 100
▁ask 100
▁mountain 100
▁क्रम 100
पुर 100
▁दिनमा 100
▁समाविष्ट 100
▁खाद्य 100
▁खाए 100
▁ई 100
▁lines 100
दार 100
▁रहे 100
▁जनताको 100
▁added 100
धि 100
▁मानव 100
▁revenue 100
▁never 100
▁everyone 100
▁जमीन 100
▁session 100
▁बु 100
▁दिइनेछ 100
▁खण्ड 100
▁edit 100
▁राखी 100
▁Indian 100
iv 100
्द 100
," 100
▁व्यापक 100
▁automatically 100
▁स्विच 100
▁विषयवस्तु 100
ाको 100
hu 100
▁deal 100
▁contains 100
▁सभा 100
out 100
▁appear 100
र्ड 100
▁कार्यहरू 100
▁Import 100
▁त्यस्ता 100
था 100
▁लिने 100
▁चि 100
▁तर्क 100
▁Ba 100
▁अद्यावधिक 100
▁बहु 100
▁sight 100
one 100
▁burnt 100
▁विकासमा 100
▁सूचीमा 100
▁wicked 100
▁least 100
▁रचना 100
▁इमेल 100
▁पूजाहारीहरू 100
ld 100
ated 100
▁limited 100
योग्य 100
ath 100
▁named 100
▁महत्व 100
▁HTML 100
▁वै 100
▁news 100
▁root 100
▁कष्ट 100
ence 100
ियन 100
▁कमी 100
्ट 100
▁स्वयं 100
▁मन्त्रालय 100
▁tab 100
ana 100
▁along 100
▁गति 100
▁आउन 100
▁center 100
▁परे 100
▁basic 100
देशिक 100
red 100
▁खेत 100
▁मासु 100
▁तरिका 100
ोल 100
▁sun 100
▁शिक्षक 100
▁others 100
▁होला 100
▁देशका 100
कारी 100
डि 100
▁prices 100
▁Copy 100
▁further 100
▁खाद्यान्न 100
if 100
▁कुरो 100
▁range 100
▁offer 100
▁कथा 100
od 100
▁spread 100
▁ways 100
▁रह 100
▁gone 100
▁windows 100
▁bear 100
▁icon 100
▁विद्यार्थी 100
▁दियो 100
दर 100
▁आउँछ 100
▁अब्राहाम 100
▁पहिचान 100
▁महिमा 100
▁fell 100
▁अडियो 100
▁सक्दछ 100
▁अधिकारीहरू 100
▁चढ 100
हर 100
▁users 100
▁टुक्रा 100
▁died 100
▁products 100
ीहरू 100
▁त्रुटिः 100
mp 100
▁समुदाय 100
▁entry 100
▁thus 100
▁खराब 100
▁इस्राएली 100
ning 100
ga 100
▁पहाडी 100
▁reach 100
▁Pa 100
▁energy 100
▁संसूचक 100
▁common 100
▁profile 100
▁गृह 100
रण 100
▁पशुहरू 100
▁त्यसो 100
्नेछ 100
▁आनन्द 100
▁attention 100
▁तस्वीर 100
▁ध्वंश 100
▁राजस्व 100
▁ल्याउने 100
ुर 100
▁प्रजातन्त्र 100
res 100
▁लगाउन 100
▁primary 100
▁employment 100
▁package 100
ex 100
▁१८ 100
▁names 100
▁transport 100
▁essential 100
▁खुट्टा 100
▁Son 100
▁बिना 100
▁संस्थान 100
▁खुला 100
▁थ 100
▁regional 100
▁Jo 100
▁गरीब 100
▁rise 100
▁आधा 100
▁सरकारको 100
▁six 100
▁आधारभूत 100
▁18 100
▁साँचो 100
▁भेला 100
va 100
▁heaven 100
▁सक्तैन 100
▁लगाउने 100
▁देखिन 100
▁lower 100
▁beginning 100
▁temple 100
▁हटाउनुहोस् 100
▁स्मृति 100
▁राजाको 100
▁लाग्छ 100
▁बसे 100
▁contain 100
िनेछ 100
▁natural 100
▁देख 100
▁covenant 100
▁King 100
▁स्क्रिप्ट 100
▁hold 100
नको 100
ff 100
बल 100
▁दायरा 100
▁struck 100
▁अर्थतन्त्र 100
▁laid 100
▁गर्छौ 100
▁believe 100
wa 100
▁यरूशलेममा 100
▁संचालन 100
▁later 100
▁रूप 100
▁complete 100
▁gate 100
▁विशेषता 100
▁छाड 100
▁अन्तर 100
▁administration 100
▁उपेक्षा 100
▁kingdom 100
▁टाइप 100
▁अघिल्लो 100
▁दया 100
▁setting 100
for 100
▁बस्न 100
क्क 100
▁Spirit 100
▁buy 100
▁treatment 100
▁पत्ता 100
्थे 100
▁enabled 100
▁deliver 100
▁पर्न 100
▁stone 100
▁Ca 100
▁सी 100
▁river 100
▁१४ 100
ip 100
tor 100
▁space 100
▁faith 100
▁specify 100
▁army 100
▁Although 100
▁सदस्य 100
tic 100
कु 100
▁workers 100
▁Server 100
▁किनकि 100
▁Yes 100
▁conducted 100
▁build 100
▁14 100
▁मुद्रा 100
ूर 100
▁wine 100
▁सैनिकहरू 100
▁अफ 100
▁ढुङ्गा 100
▁भौतिक 100
▁चौडाइ 100
र्क 100
▁north 100
▁अस 100
▁spoken 100
ical 100
▁प्रहरी 100
▁j 100
▁character 100
▁निकाय 100
▁members 100
▁Here 100
▁पठाउन 100
▁मारे 100
▁सकेनः 100
▁families 100
▁स्थितिमा 100
▁link 100
▁मूल्यमा 100
▁Mar 100
▁contact 100
▁इतिहास 100
▁अर्का 100
▁Father 100
▁wilderness 100
▁yourself 100
टो 100
▁डे 100
▁understand 100
▁देखिएको 100
▁ch 100
ाले 100
▁कुरामा 100
pur 100
ाएको 100
▁doing 100
एका 100
ाइएको 100
▁छिटो 100
▁outside 100
Behold 100
्ला 100
▁hope 100
▁v 100
तः 100
▁frame 100
▁returned 100
▁किसिमको 100
▁While 100
▁Under 100
▁अमेरिका 100
▁चित्र 100
▁wait 100
▁किनारा 100
▁कसैलाई 100
▁male 100
▁रहनेछ 100
▁l 100
▁types 100
▁copy 100
▁enemies 100
▁विभाजन 100
▁often 100
▁अभिव्यक्ति 100
▁आर 100
▁Why 100
पि 100
▁got 100
▁letter 100
▁अप 100
▁bank 100
▁एन 100
▁रूपान्तरण 100
▁शाखा 100
▁अध्यक्ष 100
िका 100
▁`' 100
▁सम्बन्धमा 100
▁दास 100
▁भागमा 100
▁righteous 100
▁समन्वय 100
▁Babylon 100
▁यहोशू 100
▁invalid 100
▁hard 100
▁उनीहरूको 100
▁अव 100
▁Ta 100
▁सके 100
▁सुन्दर 100
da 100
▁सार्न 100
▁tool 100
▁मन्दिरको 100
▁मुद्रक 100
▁title 100
▁बालक 100
▁movement 100
▁देखाउने 100
▁gathered 100
iah 100
ेज 100
▁practice 100
▁पहाड 100
▁reading 100
▁प्रायः 100
▁Default 100
file 100
▁बजारमा 100
दी 100
▁पानीको 100
▁उन्नत 100
ally 100
कल 100
▁वे 100
▁पाइन्छ 100
▁परिमाण 100
▁परिमार्जन 100
▁righteousness 100
▁असक्षम 100
▁हुनुपर्दछ 100
▁st 100
▁once 100
▁serve 100
▁उसका 100
▁पार्नु 100
▁पुर्याउने 100
▁दश 100
▁त्यसरी 100
▁fiscal 100
▁participation 100
▁agreement 100
▁Four 100
▁स्व 100
ization 100
ुहुन्छ 100
▁अनु 100
▁घुम 100
ial 100
▁element 100
▁resource 100
०० 100
▁ल्याए 100
▁बिहान 100
▁सोधे 100
▁itself 100
▁डाउनलोड 100
▁सहायक 100
▁ज्यादै 100
▁options 100
▁डिस्क 100
▁planning 100
▁भारतीय 100
▁air 100
▁index 100
▁भै 100
स्क 100
बद्ध 100
▁पञ्चायत 100
▁Start 100
▁प्रधान 100
▁व्यवसाय 100
▁balance 100
▁ला 100
▁रहेछ 100
तर 100
▁produce 100
▁room 100
▁afraid 100
▁truth 100
▁maximum 100
▁सञ्चार 100
पट्टि 100
▁विकासका 100
दि 100
▁की 100
▁निको 100
▁steps 100
ow 100
ard 100
▁फोल्डरमा 100
▁middle 100
▁Since 100
▁प्रत्यक्ष 100
▁connect 100
▁मो 100
▁mentioned 100
▁उत्पादनमा 100
▁Na 100
▁दिएका 100
nt 100
▁correct 100
िम 100
▁institutions 100
▁Armies 100
▁फाइदा 100
▁lord 100
▁टगल 100
▁pressure 100
▁जवान 100
▁GNOME 100
▁Photo 100
ram 100
▁अज्ञात 100
▁सिंह 100
▁fat 100
ki 100
र्थ 100
▁passed 100
▁बालबालिका 100
▁writing 100
▁अनुपात 100
▁कुञ्जीपाटी 100
▁List 100
▁हुनसक्छ 100
▁पाना 100
▁pro 100
▁उनीहरु 100
ेक 100
्यु 100
▁Solomon 100
▁extension 100
▁खरिद 100
▁inside 100
▁context 100
▁तिनीहरु 100
▁भनिन्छ 100
▁real 100
्ग 100
▁seek 100
▁displayed 100
▁छैनौ 100
▁दृष्टिकोण 100
▁week 100
▁sign 100
▁सोच 100
▁nature 100
▁हस्ताक्षर 100
▁master 100
▁स्थापित 100
,000 100
▁समुद्र 100
▁प्रथम 100
▁हातमा 100
▁दै 100
▁यौन 100
वार 100
एस 100
▁होस्ट 100
▁Name 100
टर 100
▁wall 100
▁Con 100
▁none 100
▁cover 100
▁बन्न 100
▁जिनोम 100
▁ट्याग 100
▁anything 100
ेस 100
साथ 100
▁media 100
▁wise 100
्म 100
र्म 100
▁प्रकाश 100
▁ल्याउनु 100
▁पैठारी 100
▁email 100
▁आठौं 100
▁persons 100
▁योजनाकालमा 100
▁Who 100
▁mighty 100
▁fruit 100
▁100 100
▁दर्शन 100
▁security 100
▁memory 100
▁entered 100
ring 100
िज 100
ron 100
▁कोष 100
▁छेउमा 100
▁समाज 100
▁नानीहरू 100
▁door 100
▁original 100
▁लुक 100
▁सर्भरमा 100
▁Po 100
▁आधुनिक 100
▁पूँजी 100
▁गुप्त 100
▁उड 100
▁care 100
▁filled 100
▁सन्देशहरू 100
।"' 100
eg 100
▁हट 100
▁रहन्छ 100
▁सुलेमान 100
्वा 100
tion 100
▁labor 100
▁फाँट 100
▁च्यानल 100
▁commercial 100
▁reduce 100
▁त्यसमा 100
▁व्यक्तिगत 100
▁anger 100
▁test 100
▁raised 100
▁अनेक 100
use 100
न्स 100
▁उपलव्ध 100
टे 100
▁मान्छे 100
▁expansion 100
्रो 100
▁lead 100
▁न्यून 100
▁गाई 100
▁हा 100
▁better 100
mon 100
▁limit 100
▁पङ्क्ति 100
bo 100
▁सङ्केतन 100
▁सुन्न 100
▁stock 100
▁कर्म 100
▁पढ 100
▁थियौ 100
▁छनौट 100
▁जापान 100
▁= 100
▁Most 100
▁mo 100
ating 100
हाल 100
▁तराई 100
▁अधिक 100
▁strength 100
्ती 100
न्न 100
▁फिरऊन 100
▁audio 100
▁Y 100
ber 100
▁प्रकाशित 100
▁exist 100
▁Mo 100
्दैन 100
▁daughters 100
ions 100
▁Or 100
men 100
ुवा 100
▁विनिमय 100
▁पूर्वावलोकन 100
▁प्रवाह 100
▁Japan 100
▁ट्रयाक 100
▁सह 100
▁पल्ट 100
▁हर 100
con 100
▁गएर 100
▁colors 100
▁offerings 100
▁सफलता 100
▁matter 100
▁lay 100
ोस 100
▁Configure 100
▁community 100
▁structure 100
▁waters 100
▁राख्नुहोस् 100
▁princes 100
▁constructed 100
▁organizations 100
mm 100
नौ 100
▁Project 100
▁मुक्त 100
▁folders 100
▁ऊर्जा 100
▁छाला 100
▁चा 100
▁Make 100
▁रूख 100
▁port 100
वर 100
▁Print 100
▁संसार 100
▁raise 100
▁कार्यहरु 100
▁रद्द 100
परमप्रभु 100
▁वाणिज्य 100
▁गुणस्तर 100
▁भन्दै 100
▁Note 100
▁रोक 100
▁View 100
▁points 100
ng 100
▁रुको 100
▁दु 100
▁removed 100
▁मूर्तिहरू 100
▁fast 100
▁method 100
▁credit 100
▁studies 100
सन 100
▁rule 100
▁चाहिं 100
▁गई 100
ward 100
नेछ 100
▁उहाँका 100
ect 100
▁लेवीहरू 100
ठा 100
▁सन्तानहरू 100
▁Public 100
▁दैनिक 100
▁दिनको 100
▁प्ले 100
▁नहुने 100
▁tons 100
▁rupees 100
▁houses 100
▁rights 100
▁CD 100
शील 100
राज 100
ble 100
▁स्थिर 100
@ 100
ja 100
▁ra 100
▁Pharaoh 100
▁Folder 100
▁average 100
▁preview 100
▁Export 100
▁मार 100
▁संग 100
▁वैज्ञानिक 100
▁Key 100
▁scale 100
.'" 100
▁really 100
J 100
▁disciples 100
▁makes 100
▁सम्पादक 100
▁चु 100
▁पर्वत 100
▁मन्दिरमा 100
▁worship 100
▁कार्यक्रमको 100
ned 100
▁survey 100
▁उपभोक्ता 100
▁बिरामी 100
▁लाग्यो 100
▁प्राकृतिक 100
▁चोट 100
▁लेखिएको 100
▁मानहरू 100
What 100
रु 100
▁ढोका 100
▁काट 100
▁गते 100
▁शहरको 100
▁साधनको 100
▁neighbor 100
▁assembly 100
▁length 100
▁panel 100
▁क्षेत्रीय 100
ner 100
ुपर्ने 100
▁साथी 100
▁held 100
ama 100
▁input 100
▁Vi 100
▁content 100
▁job 100
▁कमजोर 100
▁क्रियाकलाप 100
▁सन्दूक 100
▁पत्रुस 100
▁lift 100
जे 100
▁सम् 100
िर 100
les 100
▁needed 100
▁साह्र 100
ुपर्छ 100
िङ्ग 100
▁expenditure 100
▁permission 100
min 100
▁Invalid 100
▁domestic 100
▁milk 100
▁valley 100
▁सकिदैन 100
▁नक्कल 100
▁stop 100
BAR 100
▁घृणा 100
सार 100
▁सञ्झ्यालमा 100
▁चरण 100
▁बाहेक 100
▁शि 100
▁objective 100
▁providing 100
▁giving 100
▁भइसकेको 100
▁ध्वनि 100
▁big 100
▁throughout 100
▁कूल 100
▁पु 100
▁improved 100
▁employees 100
▁accept 100
50 100
If 100
▁Delete 100
▁allowed 100
▁tax 100
▁hospital 100
▁prophet 100
▁Choose 100
▁बतायो 100
▁जसर 100
▁hidden 100
▁Levites 100
▁ग्रहण 100
▁भण्डारण 100
▁single 100
cha 100
▁"' 100
▁कांग्रेस 100
▁बलियो 100
यस 100
द्र 100
▁foot 100
▁मूर्ख 100
▁visit 100
over 100
?' 100
▁सर्व 100
▁plant 100
ङ् 100
▁course 100
▁modern 100
▁schools 100
▁लिए 100
▁Ho 100
▁sold 100
युक्त 100
▁स्ट 100
▁height 100
▁शहरी 100
▁दो 100
४९ 100
▁Time 100
▁माध्यम 100
ill 100
▁objects 100
▁best 100
▁People 100
▁creation 100
▁deficit 100
▁दिई 100
▁लाभ 100
शि 100
▁तयारी 100
metric 100
▁broken 100
▁पार्टी 100
▁पर्खाल 100
▁रे 100
▁Philistines 100
▁पठाउनु 100
bar 100
▁delivered 100
▁सक्नु 100
▁hectares 100
▁destroyed 100
▁annual 100
▁greater 100
▁saving 100
▁subject 100
▁plans 100
▁स्तरमा 100
▁आशीर्वाद 100
▁सामाग्री 100
gg 100
▁paper 100
▁enough 100
▁गु 100
▁white 100
▁watch 100
▁le 100
ari 100
▁US 100
ung 100
ाउँछन् 100
▁li 100
▁theme 100
▁सिक 100
▁lives 100
मि 100
▁especially 100
▁wrong 100
▁तसर्थ 100
▁बैठक 100
▁टाउको 100
▁ताल्चा 100
▁थिइन् 100
▁लगाउनुहोस् 100
▁मार्न 100
▁चिनो 100
▁स्वत 100
▁गर्थे 100
गो 100
old 100
▁animals 100
ian 100
▁understanding 100
र्ट 100
au 100
▁similar 100
▁टेम्प्लेट 100
▁मर्मत 100
▁alone 100
▁जहाज 100
▁निश्चय 100
▁नारी 100
▁east 100
▁feed 100
▁भनेका 100
▁पुर्याउन 100
▁sat 100
तिमीहरू 100
▁सम्झ 100
वल 100
दै 100
राम 100
▁जी 100
▁trying 100
▁लाग 100
ेड 100
▁question 100
▁condition 100
▁दाखरस 100
▁occurred 100
▁sp 100
▁bottom 100
▁praise 100
▁निमित्त 100
▁determine 100
▁charge 100
▁शिर 100
▁stay 100
ens 100
▁sexual 100
▁custom 100
▁हप्ता 100
▁System 100
▁prophets 100
▁पृथ्वीमा 100
▁छोडे 100
▁gods 100
▁km 100
▁won 100
quot 100
▁press 100
▁banks 100
दो 100
लु 100
▁खोल 100
चार 100
▁यु 100
ile 100
ेश 100
▁मार्फत 100
▁south 100
▁आम 100
io 100
▁force 100
▁camp 100
▁See 100
▁Message 100
▁Those 100
▁iniquity 100
▁अनुसरण 100
▁सृष्टि 100
▁करीब 100
▁अभ्यास 100
▁skin 100
ship 100
▁remain 100
cent 100
▁kindness 100
फा 100
▁फाइलनाम 100
▁मल 100
▁shows 100
▁औ 100
▁caused 100
▁Ro 100
▁difficult 100
▁urban 100
▁administrative 100
▁judgment 100
▁taking 100
▁नोकर 100
▁हावा 100
▁पुस्तिका 100
स्व 100
▁घण्टा 100
▁काठ 100
▁दिएर 100
▁remember 100
▁राजालाई 100
▁proper 100
पट्टी 100
▁husband 100
▁दूध 100
▁joy 100
▁पुग्ने 100
▁टिप्पणी 100
▁चालु 100
▁उद्योगहरु 100
▁गरिनु 100
▁draw 100
▁छाप 100
▁5. 100
▁gives 100
▁देखिने 100
शी 100
पर्छ 100
क्रम 100
▁ago 100
nu 100
▁हुनेछैन 100
▁likely 100
▁Abraham 100
▁टर्मिनल 100
▁बताउनुभयो 100
▁width 100
िलो 100
▁वेब 100
▁Cha 100
▁Ne 100
ञ्ज 100
▁decision 100
▁undertaken 100
▁धन्यवाद 100
▁त्यसबेला 100
▁ca 100
▁ब्राउजर 100
▁यिनीहरू 100
च्च 100
▁En 100
▁निर् 100
▁जु 100
▁led 100
ही 100
▁Ram 100
▁teachers 100
▁कदम 100
▁Ar 100
▁seeds 100
▁terminal 100
▁साझा 100
▁रोज्नुहोस् 100
▁जरुरी 100
▁multitude 100
▁objectives 100
▁बनाई 100
▁भनि 100
ub 100
▁तथ्याङ्क 100
▁पुरा 100
त्र्चाइ 100
▁IMAP 100
▁science 100
▁झूटो 100
▁सहभागी 100
▁inheritance 100
▁General 100
▁खानु 100
ङ्क 100
▁sever 100
▁सेवाको 100
▁सैनिक 100
ाह 100
▁धार्मिक 100
बे 100
▁थिएनन् 100
धु 100
;) 100
▁तुलनामा 100
वे 100
▁अपेक्षा 100
▁अशुद्ध 100
▁औसत 100
▁नागरिक 100
▁chosen 100
ern 100
ton 100
▁अङ्क 100
▁चाहन्छु 100
▁happen 100
▁स्वर्ग 100
ुभयो 100
▁fields 100
्त 100
ाउनुहोस् 100
▁चिन 100
▁१७ 100
▁पर्नेछ 100
▁goes 100
▁क्षेत्रका 100
▁issue 100
▁checked 100
▁regions 100
▁ऐन 100
” 100
▁Joseph 100
▁सङ्ग्रह 100
▁प्यानल 100
▁Also 100
▁छाउनी 100
▁promotion 100
▁lost 100
▁राम 100
▁बजेट 100
▁उपाय 100
▁eye 100
▁visible 100
way 100
ities 100
▁गराई 100
▁printer 100
▁फाइलको 100
▁भएकाले 100
▁क्रोध 100
▁enable 100
▁upon 100
▁rules 100
▁(# 100
थ्यो 100
▁जिल्लामा 100
▁अधिराज्य 100
▁Le 100
▁flow 100
▁companies 100
▁external 100
▁simple 100
▁wisdom 100
▁बीउ 100
▁inter 100
▁दाऊदलाई 100
▁एक्स 100
पहिलो 100
▁ताकि 100
▁किसिमका 100
▁teaching 100
▁covered 100
10 100
भरि 100
▁17 100
कृत 100
मय 100
▁Third 100
▁archive 100
▁सजिलो 100
▁किलोमिटर 100
▁something 100
chi 100
▁लोक 100
▁खडा 100
▁electricity 100
▁वस्तुको 100
▁फर्केर 100
ोर 100
▁सुरू 100
bi 100
▁भविष्यमा 100
▁First 100
▁नमूना 100
▁rose 100
▁story 100
▁क्रमबद्ध 100
▁माथिल्लो 100
▁धेरैजसो 100
▁`%.25 100
▁बनाएको 100
▁certificate 100
▁expression 100
▁मेट 100
▁जसमा 100
▁Dr 100
▁सेवक 100
▁कानुन 100
पूर्वक 100
▁बच 100
▁बाँध 100
▁सर्वेक्षण 100
▁music 100
▁प्रतिस्थापन 100
▁contents 100
▁गराइनेछ 100
▁adopted 100
▁wood 100
▁पोर्ट 100
▁mountains 100
▁Mi 100
▁Jews 100
▁प्रकाशन 100
ुहोस् 100
▁खु 100
▁बी 100
▁चाड 100
▁sell 100
▁गरेमा 100
▁y 100
बु 100
▁birth 100
▁समायोजन 100
▁संसद 100
▁प्रसार 100
▁परीक्षा 100
▁either 100
▁“ 100
▁कस्तो 100
▁पुग्यो 100
▁जानुहोस् 100
▁हुनुहुन्थ्यो 100
▁अवसर 100
तो 100
▁Window 100
▁मुख 100
▁पछाडि 100
set 100
ped 100
of 100
यन 100
लाइ 100
▁desire 100
▁judge 100
सं 100
▁Evolution 100
▁बो 100
▁अन्त 100
▁sheep 100
▁collection 100
▁पारिएको 100
▁disk 100
▁उपयोगी 100
२० 100
▁editor 100
▁wind 100
सके 100
ाप 100
▁रोक्न 100
▁पुस्तकचिनो 100
जु 100
ून 100
▁भी 100
▁निरन्तर 100
▁sacrifice 100
▁Remove 100
▁yourselves 100
▁संगठन 100
▁गठन 100
▁खानेपानी 100
▁fine 100
▁generation 100
▁http 100
▁cell 100
▁model 100
▁measures 100
▁cent 100
▁पुगे 100
्यान 100
▁परिवर्तनहरू 100
मैले 100
▁evening 100
▁enemy 100
▁दुबै 100
▁review 100
▁conditions 100
▁respect 100
▁immediately 100
▁रोप 100
पु 100
▁रा 100
▁चलाउन 100
▁hide 100
▁माटो 100
year 100
▁बोट 100
▁अनुरुप 100
▁stones 100
▁आयोजनाहरुको 100
त्य 100
▁install 100
▁ones 100
लग 100
▁भिन्न 100
▁specific 100
▁Toggle 100
▁entire 100
▁एल्बम 100
▁फिल्ड 100
▁एलीशा 100
▁groups 100
▁Je 100
▁राजाहरू 100
▁पद्धति 100
▁पार्छ 100
▁Many 100
▁एकल 100
ऊ 100
▁धनी 100
▁राजनीतिक 100
▁prepare 100
▁उनीहरूलाई 100
▁बेर 100
सक 100
▁South 100
िदिए 100
▁experience 100
▁wrath 100
▁Committee 100
▁क्लिपबोर्ड 100
▁थिच्नुहोस् 100
▁Ex 100
▁अय्यूब 100
साथै 100
▁रह्यो 100
▁direction 100
▁अलग 100
हार 100
र्त 100
▁followed 100
▁ha 100
▁हि 100
shi 100
law 100
्छौ 100
▁behind 100
मो 100
▁हवाई 100
▁परास्त 100
▁portion 100
▁alarm 100
▁statement 100
र्ज 100
ac 100
▁follow 100
सहित 100
▁यहूदी 100
▁improve 100
▁shares 100
▁en 100
▁कठिन 100
▁* 100
▁प्रारम्भ 100
िएर 100
▁drop 100
▁Department 100
▁Prasad 100
▁ठाडो 100
▁प्रतिक्रिया 100
▁रेकर्ड 100
▁minister 100
.147 100
▁नगर्नुहोस् 100
▁election 100
ep 100
▁included 100
ries 100
point 100
▁परेका 100
▁विरोध 100
▁स्त्रीहरू 100
▁देखाउनु 100
▁हुदैन 100
▁दिन्छु 100
▁देवताहरू 100
▁row 100
▁कलाकार 100
▁Send 100
ever 100
▁responsibility 100
▁विशाल 100
▁central 100
▁न्यूनतम 100
छौं 100
▁सल्लाह 100
▁सालमा 100
▁anyone 100
▁organized 100
▁भु 100
▁गराउनु 100
यु 100
▁विरुद्ध 100
▁सू 100
▁प्रणालीमा 100
▁हिंड 100
▁अहिलेसम्म 100
्नुभयो 100
▁सुनको 100
▁क्यास 100
▁क्षेत्रलाई 100
्दछन् 100
▁मौलिक 100
▁tourism 100
▁staff 100
▁looking 100
▁परम्परागत 100
▁उपहार 100
ूल 100
▁कुञ्जीहरू 100
▁तथ्य 100
▁offices 100
▁आगत 100
spite 100
▁कार्यक्रममा 100
▁ठान 100
भि 100
▁seem 100
ash 100
▁gather 100
▁arrangements 100
day 100
▁rather 100
▁आन्दोलन 100
▁Number 100
▁daily 100
▁budget 100
▁fight 100
▁सपना 100
▁सरल 100
▁मोआब 100
▁सार 100
▁establish 100
▁mark 100
ल्ड 100
ran 100
▁अगमवक्ताहरू 100
एन 100
ाउँदछ 100
▁sources 100
▁भोग 100
▁drive 100
▁@ 100
्याक 100
▁हत्या 100
▁Second 100
▁ह्यान्डल 100
▁गरिनेछन् 100
▁लगाए 100
▁थाल 100
▁स् 100
▁net 100
▁प्रोत्साहन 100
▁सामान 100
थि 100
▁script 100
िनु 100
्री 100
▁सीप 100
▁protect 100
च्छ 100
ेन्ट 100
▁एम 100
सो 100
▁शिक्षाको 100
छैन 100
▁prevent 100
प् 100
▁विश्लेषण 100
▁सर्टकट 100
▁अभियान 100
▁दुइवटा 100
▁युवा 100
▁हेर्दा 100
ाउँदा 100
▁पेट 100
▁maintain 100
▁पुल 100
▁parse 100
▁committee 100
▁code 100
▁स्वस्थ 100
हामी 100
डो 100
ping 100
▁हुँदैछ 100
▁1, 100
led 100
पात 100
▁मोडमा 100
): 100
ell 100
▁section 100
▁होमबलि 100
▁Health 100
▁साँच्चै 100
वास 100
▁Ctrl 100
▁गोली 100
* 100
▁सेनाहरू 100
▁हुनेछौ 100
▁Bo 100
▁भएकोछ 100
▁channel 100
लगायत 100
▁निकायहरु 100
▁details 100
▁भि 100
rate 100
▁Pro 100
fi 100
▁गरेपछि 100
ल्ट 100
▁मन्त्री 100
▁Di 100
▁जापानी 100
▁thirty 100
▁मोड्युल 100
▁clipboard 100
चे 100
▁स्प 100
▁मूर्ति 100
फाइल 100
▁ID 100
▁बाटोमा 100
time 100
▁सोध 100
ara 100
▁*. 100
५० 100
▁क्षमा 100
र्न 100
▁प्रोत्साह 100
▁तपाईँसँग 100
▁हेक्टर 100
▁वर्षसम्म 100
▁समूहका 100
▁event 100
▁Joshua 100
▁यूआरएल 100
▁स्थायी 100
▁तत्काल 100
▁मेट्नुहोस् 100
▁यूहन्ना 100
▁compare 100
▁installation 100
▁dry 100
▁द्रष्टव्य 100
▁पुरुष 100
▁published 100
▁early 100
▁board 100
▁जग 100
▁pattern 100
व्य 100
▁अंग 100
▁कुना 100
▁tribe 100
20 100
▁पुग 100
▁carry 100
▁फि 100
▁हालसम्म 100
▁handle 100
▁store 100
नेछन् 100
▁honor 100
यौ 100
▁Terai 100
▁respectively 100
▁रेडियो 100
▁pieces 100
▁विकसित 100
▁चाहिने 100
▁savings 100
▁Find 100
▁filename 100
▁नप 100
ew 100
▁traditional 100
▁auto 100
▁लागत 100
▁समक्ष 100
▁सुलेमानले 100
त्व 100
ेत 100
▁ज्ञानी 100
▁व्यक्तिहरू 100
▁match 100
term 100
▁मरे 100
▁Z 100
▁जात 100
▁भइ 100
▁product 100
▁recent 100
▁कार्यको 100
▁बनेको 100
▁request 100
▁Switch 100
▁dream 100
▁poverty 100
▁religion 100
▁प्रवर्द्धन 100
▁यद्यपि 100
▁Text 100
▁trading 100
▁friends 100
▁प्रशिक्षण 100
▁उचाइ 100
▁बर्ष 100
▁Out 100
ँदा 100
▁राखेको 100
▁बढ्दै 100
▁१०० 100
▁inhabitants 100
▁comp 100
ीमा 100
▁बढाउने 100
ight 100
पाल 100
▁vi 100
▁चाहेको 100
ji 100
▁रुपैया 100
▁छलफल 100
▁दर्ता 100
▁lov 100
▁fixed 100
बो 100
ें 100
▁Mark 100
न्ज 100
▁मापन 100
देश 100
▁अक्षर 100
▁defined 100
▁trees 100
ानी 100
▁आगाम 100
gi 100
▁May 100
▁burn 100
▁Hu 100
▁Sha 100
ेसन 100
▁opportunities 100
▁पुननामकरण 100
▁यर्दन 100
▁संकलन 100
▁front 100
▁कारखाना 100
▁अनुगमन 100
▁Moab 100
▁implement 100
▁मृत 100
▁Unit 100
▁रङ्ग 100
कन 100
▁sister 100
▁निकाल 100
▁grow 100
▁24 100
ster 100
▁numbers 100
▁चाहे 100
25 100
gen 100
कार्य 100
वी 100
▁व्य 100
aka 100
▁execute 100
्भ 100
▁वस्तुहरुको 100
tan 100
▁except 100
▁माया 100
▁High 100
▁Commission 100
▁president 100
▁throne 100
▁अधिलेखन 100
▁स्कूल 100
▁normal 100
▁चारैतिर 100
▁सेतो 100
▁sit 100
ोट 100
▁बीचको 100
▁व्यक्तिले 100
▁Inc 100
ability 100
▁%( 100
▁तिनीहरुले 100
▁longer 100
▁अभि 100
▁unit 100
▁छविहरू 100
org 100
ह्र 100
▁कागज 100
▁culture 100
▁shortcut 100
▁keyboard 100
▁block 100
▁imp 100
▁उत्तम 100
▁चालू 100
▁सहमति 100
▁module 100
▁rain 100
भाइहरू 100
▁ma 100
▁40 100
▁बुझ्न 100
स्थित 100
▁लड 100
▁applications 100
▁soon 100
sha 100
▁भयोः 100
▁Si 100
▁छुट 100
▁सन्दर्भ 100
▁दिशा 100
▁bit 100
▁नदीको 100
▁इन् 100
मूलक 100
▁रहनु 100
▁loss 100
▁attempt 100
▁encoding 100
करण 100
मु 100
▁template 100
▁involved 100
▁नव 100
▁लेवी 100
▁Is 100
▁गर्नुपर्दछ 100
▁track 100
▁step 100
▁surely 100
ज्ञ 100
▁लिनु 100
▁levels 100
त्ता 100
▁दोष 100
▁आयोग 100
▁छः 100
▁ट्रे 100
जब 100
▁note 100
▁Raj 100
▁6. 100
▁वर्ण 100
▁Japanese 100
▁easy 100
▁profit 100
▁strike 100
▁योगदान 100
▁भ्रमण 100
▁song 100
▁प्रारम्भिक 100
not 100
▁Group 100
▁bad 100
▁login 100
▁record 100
▁रातो 100
्रि 100
[ 100
▁elders 100
▁४० 100
▁विमानस्थल 100
▁produced 100
\\ 100
▁propos 100
म्म 100
▁बढेको 100
ञ्च 100
ca 100
▁आम्दानी 100
▁दाहिने 100
▁राष्टिँ्रय 100
▁नक्सा 100
▁राजमार्ग 100
▁श्रम 100
▁परिषद् 100
▁22 100
▁योजनावधिमा 100
▁art 100
tri 100
▁पारे 100
▁hill 100
▁disabled 100
▁गरेनन् 100
This 100
▁बच्चा 100
थे 100
ani 100
▁forward 100
▁तारा 100
30 100
▁Filter 100
▁Jordan 100
▁battle 100
▁widget 100
▁इभोल्युसन 100
▁कुराकानी 100
▁अनुहार 100
▁बढ्दो 100
▁communication 100
▁कतै 100
▁तेर्सो 100
पुर्खाहरू 100
▁भे 100
स्थान 100
▁दुख 100
oc 100
▁presented 100
▁direct 100
▁takes 100
▁पूजाहारीले 100
val 100
▁किसान 100
▁closed 100
नाम 100
▁meal 100
▁focus 100
ore 100
▁com 100
▁बचाउनु 100
हरुबाट 100
▁संस्थाहरु 100
▁Te 100
▁लाइब्रेरी 100
▁साहित्य 100
▁हिजकियाह 100
▁डाक्टर 100
▁eating 100
▁प्रजातान्त्रिक 100
▁बादल 100
▁User 100
act 100
▁cubits 100
बाहेक 100
्ति 100
▁characters 100
pro 100
▁packages 100
net 100
▁फैल 100
▁br 100
्छु 100
▁pain 100
▁remains 100
▁pixels 100
▁final 100
land 100
▁गरिए 100
▁६० 100
▁useful 100
▁disc 100
हेर 100
▁एलिया 100
ale 100
▁member 100
▁तँ 100
▁7. 100
▁ship 100
by 100
▁concerned 100
▁निर्भर 100
▁छेउ 100
▁टे 100
▁Ministry 100
▁labour 100
▁twelve 100
▁उत्साह 100
▁चाँडै 100
▁बूढा 100
▁मूल्याङ्कन 100
▁description 100
▁मानसिक 100
▁उपकरणपट्टी 100
134 100
▁पात्रो 100
▁देखाउँछ 100
▁महिनाको 100
न्य 100
▁व्यवस्थाको 100
शन 100
▁मौसम 100
He 100
▁देवता 100
ब्र 100
▁facility 100
▁female 100
▁ark 100
▁gradually 100
ib 100
▁नगरी 100
चाल 100
▁web 100
▁rates 100
▁affected 100
ick 100
ाहरू 100
▁शासक 100
▁Am 100
▁angel 100
ंक 100
▁met 100
▁res 100
▁Sun 100
▁टि 100
▁संसारमा 100
▁fail 100
त्मक 100
▁मानक 100
▁tradition 100
▁अस्थायी 100
▁सन्तुलन 100
▁चिन्ता 100
▁feast 100
▁darkness 100
▁establishment 100
▁protection 100
▁लगानीको 100
▁काल 100
▁पर् 100
que 100
दैन 100
▁जानेछ 100
▁soil 100
▁शब्दहरू 100
▁statistics 100
▁weak 100
▁` 100
स्प 100
▁विद्युत् 100
▁पे 100
▁Education 100
▁World 100
▁प्रदर्शित 100
▁सहभागिता 100
▁घाटा 100
▁छोटो 100
▁व्यावसायिक 100
▁impact 100
▁तल्लो 100
▁साइट 100
▁peoples 100
▁भविष्य 100
▁केन्द्रीय 100
▁Where 100
▁सफा 100
▁सहित 100
▁म्या 100
द्द 100
▁टन 100
▁Every 100
Go 100
▁feel 100
▁consider 100
ुन 100
▁trust 100
▁fill 100
▁ढाक 100
ल्क 100
िकरण 100
uc 100
▁योआब 100
▁स्वागत 100
▁Today 100
bit 100
▁कान 100
रह 100
▁धारणा 100
▁दाख 100
ँदै 100
िभ 100
▁tag 100
ेन्स 100
इल 100
▁कुराहरु 100
▁developing 100
▁livestock 100
▁घरेलु 100
▁अधिकांश 100
▁rock 100
मार्फत 100
▁edge 100
▁प्रमाणीकरण 100
▁समस्त 100
▁importance 100
▁Da 100
▁सम्भाव्यता 100
▁Data 100
▁यर्मिया 100
▁San 100
▁बाह्य 100
▁thought 100
▁स्वर्गदूत 100
▁त्याग 100
▁multi 100
▁नसक 100
▁favor 100
लिन 100
▁Region 100
ष्ठ 100
▁परम्परा 100
▁Council 100
▁Panchayat 100
▁bodies 100
▁थोरै 100
▁शारीरिक 100
▁Peter 100
▁अगुवा 100
▁Press 100
▁हेडर 100
▁sake 100
▁कच्चा 100
▁volume 100
▁द्वार 100
▁permissions 100
▁ढाँचामा 100
▁Get 100
▁ढ 100
▁ready 100
▁provision 100
▁तार 100
सर 100
▁deleted 100
▁Ad 100
▁Corporation 100
▁York 100
▁cooperative 100
▁repair 100
▁जगेडा 100
▁कर्सर 100
▁Exchange 100
स्तर 100
▁Keep 100
▁आवास 100
▁parties 100
▁भरिएको 100
ments 100
tar 100
▁फे 100
िच 100
▁वितरणको 100
ham 100
▁माझ 100
▁loans 100
▁grain 100
▁offered 100
▁dig 100
▁separate 100
▁rid 100
▁hour 100
▁पापहरू 100
नाथ 100
▁reign 100
▁initial 100
▁keeping 100
हरूसँग 100
port 100
▁अगुवाहरू 100
▁Other 100
▁चिकित्सा 100
▁प्रकृति 100
ंच 100
▁green 100
▁exit 100
▁उत्पादनको 100
▁उमेर 100
▁Type 100
coming 100
▁नभए 100
▁Pre 100
▁sins 100
काअनुसार 100
▁unclean 100
▁Benjamin 100
▁International 100
▁behavior 100
▁myself 100
▁चट्टान 100
▁justice 100
▁Work 100
▁breast 100
▁फिर्ता 100
▁वैकल्पिक 100
▁कपडा 100
▁contract 100
र्ारा 100
▁संस्थागत 100
▁भावना 100
▁department 100
▁आपस 100
▁blessed 100
▁remained 100
▁diseases 100
-- 100
▁panchayat 100
्यौं 100
▁बुद्धि 100
्यू 100
ging 100
▁मात्रै 100
list 100
स्थ 100
▁बोलाए 100
वाट 100
▁मात्रा 100
▁बनाएका 100
▁org 100
▁secret 100
▁speech 100
▁एप्रैम 100
▁गुरु 100
▁हिजो 100
we 100
▁खुल्ला 100
▁browser 100
▁दृश्यात्मक 100
▁Desktop 100
▁सम्झना 100
▁सूर्य 100
▁60 100
▁बोर्ड 100
▁encourage 100
▁upper 100
▁चाहन्छ 100
▁सन्दर्भमा 100
▁weight 100
▁दशक 100
▁requested 100
▁जस 100
▁पास 100
काल 100
▁animal 100
▁थु 100
▁दक्ष 100
ER 100
▁idea 100
▁संस्थानहरु 100
form 100
▁सट्टामा 100
▁सुदृढ 100
▁सजावट 100
▁Prime 100
▁speed 100
▁Right 100
▁खस 100
▁सीमाना 100
▁Our 100
ns 100
ie 100
▁मित्र 100
▁जीवनको 100
▁elements 100
▁प्रभावित 100
▁भण्डार 100
ava 100
▁Lo 100
▁sweet 100
▁loan 100
▁बस्नु 100
▁results 100
▁cry 100
▁8. 100
▁aid 100
िङ्ध 100
▁effects 100
▁John 100
▁minimum 100
▁cursor 100
▁emphasis 100
▁पूर्ति 100
▁पढ्दा 100
▁प्रदेश 100
▁raw 100
▁startup 100
▁नसक्ने 100
▁villages 100
▁देखें 100
ala 100
मिल 100
▁दान 100
▁अञ्चल 100
▁detail 100
▁relative 100
पनि 100
▁teacher 100
.1 100
▁artist 100
ren 100
lin 100
▁बाध्य 100
▁talk 100
ात 100
▁नाप 100
▁wish 100
▁multiple 100
▁salvation 100
▁अत्यधिक 100
▁राजनैतिक 100
▁परिस्थिति 100
▁Moreover 100
▁त्यसकारण 100
ुभएको 100
▁साम 100
यक 100
▁fourth 100
तिमी 100
▁ँ 100
▁कडा 100
▁पक्षमा 100
▁encouraged 100
▁बढेर 100
▁23 100
▁measure 100
▁झार 100
यी 100
▁reasons 100
▁lion 100
▁देखेर 100
40 100
▁units 100
ric 100
▁चाप 100
ough 100
▁देवी 100
जो 100
▁व्यक्त 100
▁केन्द्रहरु 100
▁असमर्थ 100
lobal 100
▁दिनसम्म 100
▁Association 100
▁counsel 100
▁opportunity 100
▁औजार 100
▁चाँहि 100
▁भरोसा 100
▁प्रकट 100
▁समक्रमण 100
▁बिलियन 100
▁vision 100
▁achieve 100
ual 100
▁निर्धारित 100
▁एकीकृत 100
▁pi 100
▁पठ 100
▁Try 100
sion 100
az 100
्थ 100
▁धर्मी 100
▁राष्ट्रहरू 100
▁label 100
▁argument 100
▁रोगी 100
▁Bar 100
नीय 100
▁२१ 100
▁update 100
▁fulfill 100
▁सुख 100
▁late 100
▁Kingdom 100
▁creating 100
▁परिचय 100
▁प्रयत्न 100
▁लिखित 100
▁सजिलै 100
▁हेरचाह 100
▁पेश 100
▁placed 100
▁आईडी 100
log 100
▁democratic 100
▁फुट 100
▁properly 100
AL 100
ङ्ध 100
▁इन 100
let 100
▁मनो 100
▁बढ्न 100
▁teach 100
निम्ति 100
▁भेटी 100
cy 100
▁शा 100
umb 100
▁benefit 100
▁looked 100
ide 100
▁loading 100
लार्ई 100
▁Ephraim 100
▁burden 100
▁scientific 100
▁विश्वविद्यालय 100
▁केहि 100
▁शून्य 100
▁unknown 100
▁evaluation 100
▁Ni 100
▁Disable 100
ative 100
▁माध्यमिक 100
▁authority 100
▁FY 100
▁la 100
tin 100
▁seventh 100
qui 100
▁term 100
▁Paul 100
▁भन्छ 100
▁यू 100
▁हौं 100
▁कक्षा 100
नमा 100
ग्ल 100
▁healthy 100
▁expect 100
▁sc 100
▁printing 100
ढी 100
▁Koirala 100
▁library 100
▁सृजना 100
▁fair 100
ट्टा 100
▁खबर 100
▁ढल 100
▁manner 100
▁plants 100
▁दिनुहुन्छ 100
▁ear 100
ju 100
▁२२ 100
▁Table 100
▁छिमेकी 100
▁तलको 100
अगाडि 100
▁patient 100
▁improvement 100
che 100
▁perform 100
▁heads 100
▁District 100
▁signature 100
▁traffic 100
▁सर्वशक्तिमान 100
▁आरोप 100
▁व्याख्या 100
▁property 100
▁जिल्लाहरु 100
▁associated 100
▁कला 100
▁माछा 100
▁mental 100
▁आदर 100
▁चाह 100
ged 100
यर 100
▁include 100
▁joint 100
▁American 100
gra 100
fer 100
▁मालिकले 100
▁rejoice 100
▁पलिश्ती 100
▁विविध 100
▁fifty 100
▁अनियमित 100
▁शमूएल 100
▁श्रेष्ठ 100
▁Convert 100
▁Shi 100
▁clothes 100
इन 100
▁dust 100
cal 100
▁farming 100
ify 100
▁म्याद 100
▁जीवनमा 100
ल्य 100
▁speaking 100
खो 100
Q 100
▁targets 100
▁नभएका 100
चर 100
▁आयोजनाको 100
▁operating 100
▁positive 100
▁कर्पोरेसन 100
▁विद्यमान 100
▁सिद्धान्त 100
▁Close 100
▁medium 100
▁तीव्र 100
▁potential 100
▁activity 100
▁toolbar 100
एक 100
▁पठाउनुहोस् 100
▁however 100
▁थाल्यो 100
▁lock 100
ek 100
▁हुनुपर्ने 100
सेट 100
▁जमिन 100
स्ता 100
▁नसकेको 100
▁संख्यामा 100
▁आऊ 100
ुम 100
based 100
▁El 100
ise 100
par 100
type 100
वाला 100
▁transfer 100
▁component 100
▁presence 100
▁निर्देशन 100
▁बाह्र 100
▁shut 100
▁formed 100
▁सङ्कलन 100
▁प्रतिक्षा 100
▁मार्ने 100
▁सेटअप 100
▁गाउ 100
▁दे 100
▁समर्थित 100
▁पर्ख 100
car 100
४८ 100
▁रोजगारी 100
लको 100
▁crops 100
▁रहेकोमा 100
▁char 100
▁विरोधमा 100
▁पर्यटक 100
▁28 100
▁भेट्न 100
▁लिएको 100
ीहरूले 100
.9 100
▁बोल्न 100
▁वीर 100
▁२३ 100
▁ever 100
▁Ko 100
ok 100
▁देखियो 100
▁देखाए 100
▁significant 100
▁नियमहरू 100
For 100
▁पाएको 100
िन्छन् 100
▁success 100
▁drag 100
▁maintenance 100
▁झूटा 100
▁परित्याग 100
▁धूप 100
▁परिणत 100
▁गल्ती 100
▁मुटु 100
▁दिदी 100
▁भारतमा 100
▁ते 100
▁बृद्धिदर 100
▁shadow 100
▁false 100
▁sort 100
▁OF 100
▁client 100
▁कार 100
▁directly 100
▁विनाश 100
▁More 100
▁suffering 100
▁लेखक 100
▁पति 100
िंग 100
▁सकेनन् 100
िदिनु 100
▁rich 100
▁red 100
▁Tent 100
▁थालेको 100
▁मत 100
We 100
tal 100
kh 100
ते 100
▁firm 100
▁कोइराला 100
▁हिसाब 100
▁moving 100
▁समीक्षा 100
▁परिमिति 100
▁House 100
▁बाँड 100
▁प्रतिफल 100
▁Allow 100
▁URI 100
▁सत्ता 100
▁waste 100
". 100
▁appointed 100
▁केटी 100
▁लु 100
▁Ab 100
▁driver 100
ious 100
रिया 100
ुन् 100
▁continued 100
परि 100
तापूर्वक 100
▁क्षेत्रहरुमा 100
ोमा 100
▁शिकार 100
▁appears 100
▁बहिनी 100
▁चैत 100
▁क्ल 100
▁Ga 100
▁भरि 100
▁site 100
▁KMail 100
▁Sabbath 100
▁beautiful 100
▁individual 100
▁radio 100
▁इसहाक 100
▁एउटी 100
▁बाँन्की 100
▁भन्सार 100
▁शैक्षिक 100
▁सजाय 100
▁comfort 100
▁खेलाडी 100
▁cried 100
▁double 100
▁इन्टरनेट 100
▁शिशु 100
▁मिल्दो 100
▁ज्यादा 100
पराजित 100
▁सीडी 100
▁लगाइएको 100
▁संस्कृति 100
▁गरिन 100
▁pure 100
लिक 100
▁bore 100
ator 100
भाइ 100
▁पारि 100
▁राखेर 100
बर 100
▁नर 100
▁विश्राम 100
▁गर्नेछौ 100
▁variable 100
▁construct 100
दान 100
▁भाव 100
low 100
▁operate 100
60 100
▁officials 100
11 100
ल्ल 100
▁slow 100
▁President 100
▁agencies 100
▁guard 100
▁अदालत 100
▁क्वेरी 100
▁सञ्चालित 100
▁नभई 100
▁पुनप्राप्त 100
▁२०४७ 100
▁season 100
▁आर्जन 100
्दैछ 100
▁card 100
ali 100
▁जिम्मेवारी 100
▁शाही 100
▁भनिन् 100
निक 100
▁thousands 100
80 100
▁growing 100
▁मानिसहरूसित 100
र्ण 100
▁21 100
▁sleep 100
▁आज्ञाहरू 100
फि 100
▁ठोस 100
ाइन्छ 100
▁convert 100
ada 100
धन 100
ition 100
भाग 100
▁बज 100
▁Mu 100
▁उदाहरणका 100
▁Bahadur 100
▁उज्यालो 100
▁Local 100
▁राम्रर 100
row 100
▁iron 100
▁पढ्ने 100
▁eight 100
▁deep 100
▁पात 100
▁yes 100
▁सधैँ 100
▁भन्छु 100
lam 100
▁महल 100
▁mid 100
ाइने 100
▁certainly 100
▁संकट 100
▁कुराको 100
▁personal 100
▁स्थल 100
▁खोजे 100
num 100
भाव 100
▁hours 100
▁रंग 100
▁प्राण 100
box 100
▁जम 100
▁+ 100
▁देव 100
प्त 100
▁बाँच्न 100
▁moved 100
▁वर्षा 100
Don 100
can 100
▁CUPS 100
▁album 100
▁campaign 100
▁incident 100
▁दाउरा 100
▁लगातार 100
▁tongue 100
▁इन्टरफेस 100
▁sense 100
▁नेतृत्व 100
▁प्रतिनिधि 100
▁spent 100
▁फलाम 100
▁secondary 100
ris 100
▁पिक्सेल 100
्याप 100
side 100
▁ho 100
▁मसित 100
▁पूर 100
▁rivers 100
▁Play 100
▁operations 100
ध्य 100
▁Settings 100
शक्ति 100
▁Tr 100
स्ट्र 100
४७ 100
▁commandment 100
रूप 100
भयो 100
ाना 100
रहेको 100
रुप 100
▁फर्क 100
▁जटिल 100
▁सामुन्ने 100
▁delay 100
▁मुद्दा 100
▁bug 100
▁alternative 100
▁सट्टा 100
▁Control 100
▁अन्त्यमा 100
▁systems 100
▁होऊ 100
▁खन 100
▁मिल्ने 100
▁हिड 100
▁youth 100
▁कम्पनीको 100
▁sh 100
hy 100
0,000 100
▁भय 100
▁२४ 100
▁doctor 100
▁उस 100
cap 100
▁नानी 100
ata 100
▁equal 100
▁भा 100
▁फूल 100
तामा 100
िष्ट 100
▁क्षेत्रबाट 100
▁Mount 100
▁पारी 100
▁Majesty 100
▁across 100
▁beyond 100
▁surface 100
▁अवयव 100
▁सम्मिलित 100
▁सुसमाचार 100
▁shape 100
▁stopped 100
▁बाढी 100
▁opening 100
▁भुक्तानी 100
▁हित 100
▁कलेज 100
▁नगरिएको 100
▁हक 100
▁layers 100
▁दरले 100
▁दोषी 100
▁fully 100
ैं 100
aj 100
ook 100
▁आउ 100
▁दाऊदका 100
▁रिस 100
▁Bu 100
पर्ने 100
▁centres 100
▁cr 100
▁सेन्ट 100
रहित 100
▁destruction 100
▁निर्वाचन 100
▁सुझाव 100
▁लेबुल 100
▁Ch 100
▁1990 100
▁प्रवृत्ति 100
▁Screen 100
▁वार्ता 100
▁चढाए 100
▁वंश 100
▁बनाउँछ 100
▁हेर्ने 100
▁डी 100
▁झण्डा 100
▁फ्रेमहरू 100
▁अर् 100
हरुका 100
ier 100
▁act 100
▁वस्तुस्थिति 100
मेरो 100
▁कोण 100
▁feature 100
▁विजय 100
▁यता 100
▁रि 100
वाल 100
ौँ 100
▁घटाउन 100
्याट 100
पूर्व 100
ug 100
▁सम्भाव 100
▁su 100
▁प्रशासक 100
ड् 100
▁chemical 100
▁equipment 100
▁flood 100
▁sanctuary 100
▁अवरोध 100
▁आहाब 100
▁काँसा 100
▁संघर्ष 100
▁तेरो 100
▁शोक 100
▁चलिरहेको 100
▁planned 100
▁fish 100
▁चीन 100
मुखी 100
ेछ 100
ory 100
▁Wa 100
ट्ट 100
▁Up 100
▁em 100
▁gates 100
वस्तु 100
gar 100
श्व 100
संगै 100
▁अद 100
दे 100
२५ 100
▁कार्ड 100
▁हाइलाइट 100
▁switch 100
▁Draw 100
▁easily 100
▁सम्मेलन 100
▁marriage 100
▁debt 100
▁गतिविधि 100
▁duty 100
▁सियोन 100
▁suitable 100
▁सोही 100
▁Zion 100
▁टु 100
▁finished 100
▁weather 100
▁Look 100
▁Holy 100
▁चाहनु 100
चक 100
निया 100
▁रोगको 100
▁छान 100
▁मुनि 100
▁benefits 100
▁terms 100
पार 100
▁बैङ्क 100
प्रसाद 100
$ 100
▁त्य 100
own 100
▁Maha 100
tro 100
▁महिलाहरु 100
कहरू 100
▁imported 100
▁played 100
▁तहमा 100
▁gain 100
▁broke 100
▁Gu 100
▁नं 100
▁सक्नुहुन्न 100
▁Corp 100
▁ट्र 100
▁अनुदान 100
▁सातौँ 100
▁vector 100
▁छाडे 100
▁उद 100
most 100
▁moment 100
gh 100
▁wide 100
▁भूत 100
रुपले 100
▁गर्दैनन् 100
क्षा 100
▁सित 100
▁pages 100
▁ears 100
▁बह 100
तिमीले 100
▁तिनीहरुको 100
▁heavens 100
▁buttons 100
▁लेख्ने 100
▁गराए 100
▁reported 100
चि 100
▁attribute 100
झैं 100
▁crop 100
tes 100
▁actual 100
▁साथीहरू 100
▁increases 100
▁२०४८ 100
▁खण्डमा 100
▁administrator 100
▁consumption 100
▁संकेत 100
▁Left 100
▁अनुक्रमणिका 100
▁चुनाव 100
▁साँझ 100
ण्डा 100
▁उल्लेखनीय 100
▁प्रर्दशन 100
▁घटनाहरू 100
▁विवाद 100
▁team 100
▁पोखरा 100
▁अड 100
▁उठे 100
▁नेता 100
▁शरीरमा 100
pt 100
▁200 100
▁चोक 100
▁आउनेछ 100
दिए 100
▁count 100
▁90 100
▁त्यहीं 100
▁conduct 100
४२ 100
र्ष 100
▁pipe 100
ists 100
▁जान्न 100
▁समाजमा 100
ाउँने 100
ail 100
▁लैजान 100
▁दिइने 100
▁जाल 100
▁मानिसहरूबाट 100
ंस 100
▁पारेको 100
king 100
ert 100
अब 100
▁leaders 100
गी 100
▁Agriculture 100
▁constant 100
▁yield 100
▁डिजाइन 100
▁नराम्रा 100
▁प्रोटोकल 100
▁arose 100
▁garden 100
▁संग्रह 100
▁भेक्टर 100
▁stream 100
▁मिनेट 100
▁expanded 100
▁pit 100
न्ध 100
▁ल्याइ 100
getting 100
▁फ्याँक 100
▁reduced 100
ट् 100
ढोका 100
▁remaining 100
▁चोर 100
ाइएका 100
ाका 100
▁reform 100
▁town 100
वान 100
▁showing 100
esh 100
बार 100
▁भेडाहरू 100
ks 100
▁Another 100
▁response 100
▁विराटनगर 100
▁mercy 100
▁विकेन्द्रीकरण 100
▁instance 100
▁integrated 100
▁अभिबृद्धि 100
▁interface 100
▁प्रधानमन्त्री 100
▁परिवेश 100
▁केटाकेटी 100
▁अनुवाद 100
hal 100
▁अनन्त 100
▁प्रापक 100
▁Car 100
▁Last 100
▁Line 100
▁दिनुभएको 100
▁Tool 100
▁लगाई 100
▁स्वरूप 100
▁lie 100
▁hate 100
▁reigned 100
▁उपलब्धि 100
▁नाश 100
उन 100
▁Kh 100
सले 100
▁कृषक 100
▁समयको 100
▁frames 100
तपाईं 100
▁गरून् 100
Why 100
▁printed 100
ग्रा 100
▁shared 100
▁Kar 100
▁hills 100
▁500 100
ification 100
▁attack 100
▁अग्र 100
▁escape 100
▁environmental 100
▁follows 100
रहेका 100
▁bus 100
टु 100
मेल 100
▁officer 100
▁व्यापारिक 100
▁प्याकेजहरू 100
si 100
▁आफ्नी 100
▁पुरस्कार 100
▁गिलाद 100
▁थिई 100
▁Address 100
▁ensure 100
▁हिस्सा 100
▁probabl 100
za 100
▁शपथ 100
gan 100
▁बलिदान 100
▁sought 100
▁घाम 100
▁whatever 100
▁भयभ 100
▁discussion 100
▁China 100
▁जोडा 100
▁Shift 100
▁हुन्न 100
RR 100
▁institutional 100
▁पाउ 100
▁बताउनु 100
▁Far 100
क्रोधित 100
ko 100
▁बसेका 100
▁स्टे 100
क्षेत्र 100
▁दिएँ 100
घर 100
ीम 100
▁हाले 100
our 100
▁release 100
▁configure 100
▁फोल्डरहरू 100
.4 100
12 100
▁शान्त 100
▁आश्चर्य 100
▁Biratnagar 100
▁analysis 100
▁preparation 100
▁secure 100
▁solution 100
▁नतिजा 100
▁दौड 100
▁rice 100
▁दीर्घकालीन 100
▁risk 100
▁productivity 100
▁temporary 100
▁Good 100
▁प्रचलित 100
▁साता 100
ुद 100
▁boy 100
▁stage 100
▁tourists 100
▁Beth 100
▁चिहान 100
▁promote 100
वासी 100
▁भनें 100
८० 100
ीहरूलाई 100
▁सुक 100
▁झन 100
कर्मी 100
▁हान 100
▁बनाइएको 100
▁बनाएर 100
▁लो 100
▁समस्याहरु 100
▁पुरूष 100
ेक्स 100
▁replace 100
▁पाएका 100
▁जनाए 100
▁symbol 100
फो 100
▁prison 100
सम 100
▁GTK 100
▁अर्पण 100
▁अस्तित्व 100
▁राजधानी 100
▁beauty 100
▁अनिवार्य 100
▁पूर्वावस्था 100
▁शुल्क 100
▁मिडिया 100
▁Research 100
▁वस्त्र 100
▁Center 100
▁सवारी 100
▁गधा 100
▁मान्यता 100
▁hospitals 100
▁चक्र 100
rap 100
verse 100
▁Eli 100
▁exp 100
adi 100
▁fruits 100
▁बुझे 100
▁बताउ 100
▁परमप्रभुबाट 100
थी 100
▁दृष्टिकोणबाट 100
▁कुट 100
वाइ 100
▁प्रिय 100
▁भूल 100
रहेछ 100
▁vessels 100
▁design 100
ाइन 100
▁curse 100
▁events 100
▁possess 100
▁returns 100
▁girls 100
▁civil 100
▁Eighth 100
▁University 100
▁abroad 100
▁perfect 100
▁ऐतिहासिक 100
▁कठोर 100
▁काँग्रेस 100
▁Meeting 100
▁जोनाथन 100
▁almost 100
▁Internet 100
▁bound 100
▁२०४६ 100
▁सहकारी 100
▁हैन 100
▁प्रसारण 100
▁lest 100
ीएल 100
▁कोर 100
▁Rana 100
▁बन्ने 100
आर 100
▁छैन् 100
ीर 100
▁केन्द्रित 100
vo 100
▁expand 100
▁cur 100
▁अपराध 100
kar 100
mark 100
level 100
▁क्र 100
ee 100
Let 100
्दैनन् 100
OR 100
▁माफ 100
▁मरूभूमिमा 100
▁सक्छु 100
▁Har 100
▁निस्क 100
▁sheet 100
put 100
▁else 100
▁Training 100
▁famine 100
▁प्रोक्सी 100
▁विज्ञापन 100
▁सफ्टवेयर 100
▁extent 100
▁angry 100
▁flee 100
▁फोकस 100
▁everything 100
▁utilization 100
▁गहिरो 100
▁encryption 100
साना 100
▁व्यस्त 100
▁दिंदै 100
▁cache 100
▁भीड 100
cut 100
▁बिट 100
▁domain 100
▁proxy 100
▁decided 100
▁त्रि 100
▁bookmarks 100
▁एड 100
▁rec 100
▁eaten 100
▁कामको 100
▁stored 100
▁लगाएर 100
तम 100
स्था 100
▁लुके 100
▁letters 100
▁patients 100
▁believed 100
▁भित्री 100
▁connected 100
bin 100
ina 100
४० 100
space 100
▁महिलाहरू 100
▁औं 100
19 100
▁prayer 100
▁Ri 100
ूट 100
▁नाममा 100
▁बार 100
▁घुस 100
▁player 100
▁रोज्न 100
▁फ्ल 100
▁Central 100
▁Cisco 100
▁GIMP 100
▁Jeremiah 100
▁Voices 100
▁conflict 100
▁struggle 100
▁avoid 100
▁अन्तर्राष्ट्रिय 100
▁सिस्को 100
▁यथार्थ 100
▁spring 100
▁लिइएको 100
लक्षित 100
▁Free 100
▁Though 100
▁books 100
▁sick 100
▁कमारा 100
▁nine 100
▁कार्यलाई 100
▁70 100
▁सूचक 100
▁efficient 100
▁consumed 100
▁funds 100
▁थियौं 100
▁पुस्तकमा 100
▁फर्के 100
usually 100
▁देखिए 100
िग 100
▁tent 100
rop 100
▁शक्तिको 100
▁Her 100
▁bo 100
▁कै 100
▁Par 100
▁foundation 100
▁बर् 100
▁educational 100
ration 100
▁Se 100
▁महान् 100
uk 100
्याह 100
▁शरीरको 100
▁] 100
▁बाँच 100
▁मध्यम 100
▁चर 100
▁fonts 100
▁travel 100
▁धान 100
▁trouble 100
kha 100
▁prince 100
बाद 100
▁त्यसका 100
▁Assyria 100
▁Gilead 100
▁approach 100
▁blind 100
▁congregation 100
▁cottage 100
▁wrote 100
▁लज्जित 100
▁tried 100
▁धितोपत्र 100
▁सेनापति 100
▁क्यामेरा 100
▁completion 100
▁restart 100
▁सदन 100
वन 100
▁दिनुहुनेछ 100
▁rod 100
▁Auto 100
It 100
▁divided 100
▁अतः 100
लागि 100
▁collected 100
▁नया 100
200 100
▁mean 100
▁गर्नुहुनेछ 100
▁former 100
▁header 100
▁commandments 100
▁Li 100
▁statutes 100
ीहरूको 100
▁सिपाहीहरू 100
ान्तर 100
▁learn 100
▁माध्यमबाट 100
▁feeling 100
▁चौ 100
▁fo 100
▁minutes 100
मूल्य 100
्याउने 100
▁नब 100
▁समाप्ति 100
▁महीना 100
▁सामन 100
▁लागेका 100
▁depend 100
▁difference 100
▁bull 100
▁generations 100
▁हार 100
▁god 100
▁Bha 100
▁Manasseh 100
▁plague 100
▁क्याम्पस 100
▁बिजुली 100
▁स्वामित्व 100
▁plain 100
▁alive 100
▁स्क्यान 100
▁trend 100
▁महत्त्वपूर्ण 100
▁विशेषज्ञ 100
ati 100
▁till 100
▁घाउ 100
▁novel 100
▁सहज 100
▁Ju 100
▁नदेख 100
▁वायु 100
▁बै 100
नका 100
▁extended 100
name 100
▁ran 100
▁गर्दछु 100
ाइनेछ 100
thi 100
▁सम्ममा 100
अनुरुप 100
मार्ग 100
▁चढाउनु 100
action 100
▁गर्नाले 100
▁पुर्खाहरू 100
til 100
▁(% 100
▁Current 100
▁author 100
▁requires 100
▁गम्भीर 100
▁gross 100
▁protocol 100
▁रद्दीटोकरी 100
▁योआश 100
▁तान्नुहोस् 100
▁standing 100
▁wound 100
▁माथिको 100
▁perish 100
▁घोडा 100
▁square 100
ुक 100
▁playing 100
rd 100
den 100
ible 100
वश 100
▁जुट 100
▁achieved 100
▁सेवकहरू 100
▁बजे 100
▁forty 100
▁info 100
▁राजनीति 100
▁अलि 100
दैछ 100
▁आठ 100
हरूमध्ये 100
▁व्यक्तिको 100
मोन 100
▁loaded 100
बाटै 100
▁यह 100
▁Load 100
▁starting 100
book 100
िड 100
▁markets 100
▁गर्भ 100
▁रोज 100
▁बाँच्ने 100
▁scheme 100
▁article 100
▁coordinate 100
▁80 100
तिमीहरूले 100
ैन 100
rt 100
▁डो 100
▁Pokhara 100
▁Shrestha 100
▁drug 100
▁उपन्यास 100
▁जोखिम 100
▁योशियाह 100
▁संस्कार 100
▁सिंचाई 100
▁खतरा 100
▁चाहन्थे 100
▁शब्दकोश 100
▁route 100
▁उस्तै 100
▁“” 100
▁राम्रा 100
▁hair 100
▁एमाले 100
▁खेद 100
हान 100
read 100
▁someone 100
▁fallen 100
▁recently 100
▁मिटर 100
▁दुःखी 100
▁तिमीहरूसित 100
only 100
▁desired 100
ार्थ 100
▁सुन्नु 100
▁परिवारलाई 100
▁राती 100
▁Office 100
▁कुरालाई 100
▁पुनर् 100
▁२८ 100
▁imports 100
▁कानून 100
धी 100
▁successful 100
▁लैजाने 100
▁causes 100
▁clicking 100
▁attract 100
▁परमेश्वरबाट 100
▁Program 100
ritten 100
▁Bangladesh 100
▁Institute 100
▁literature 100
▁matrix 100
▁negative 100
▁न्युयोर्क 100
▁Clear 100
▁slain 100
▁legal 100
▁तैंले 100
▁coordination 100
▁संसाधन 100
▁पत्रमञ्जूषा 100
▁दूर 100
▁solve 100
▁जाँदा 100
नले 100
▁प्रयोगशाला 100
▁mixed 100
ID 100
▁छोप 100
▁sending 100
ंगा 100
▁configured 100
र्प 100
▁Red 100
▁गएका 100
▁केटा 100
▁pen 100
▁प्रणालीको 100
ाक 100
van 100
▁मनश्शे 100
्नुपर्छ 100
haru 100
rah 100
so 100
▁anti 100
कुनै 100
▁पट्टी 100
▁खर्चको 100
▁bow 100
her 100
▁download 100
▁प्रबन्ध 100
बारेमा 100
▁enhance 100
▁सेनाहरूका 100
▁जान्दछौ 100
} 100
▁commission 100
▁festival 100
▁निर्दोष 100
▁भौगोलिक 100
▁query 100
▁क्लाइन्ट 100
▁विशिष्ट 100
▁कम्तिमा 100
▁सघाउ 100
▁छनोट 100
▁गर्दथे 100
▁global 100
▁fled 100
खु 100
▁बनाऊ 100
▁हतियार 100
▁कार्यका 100
eep 100
▁drawn 100
▁percentage 100
▁रूखहरू 100
▁महिनामा 100
tha 100
▁Min 100
▁ढाल 100
ins 100
▁ब्ल 100
▁उभिए 100
▁Tri 100
सकेको 100
▁extend 100
▁launch 100
▁Q 100
▁खानी 100
▁भोज 100
▁Act 100
yo 100
iya 100
▁Service 100
▁parameter 100
▁bookmark 100
▁tasks 100
▁Hindu 100
▁LDAP 100
▁Nepalgunj 100
▁Parliament 100
▁responsible 100
▁आराधना 100
▁कोशिश 100
▁सम्पदा 100
▁SSL 100
▁lips 100
▁missing 100
▁घाँस 100
▁firstborn 100
▁आगमन 100
▁via 100
▁Joab 100
▁झुक 100
▁Will 100
▁quickly 100
▁backup 100
▁departed 100
३० 100
▁launched 100
▁मानचित्र 100
क्त 100
▁टिप 100
▁मुक्ति 100
केा 100
▁March 100
▁कास 100
▁डक 100
ger 100
▁sing 100
धान 100
जनक 100
▁appeared 100
No 100
िरहने 100
▁क्रि 100
▁बस्थे 100
▁आत्माले 100
hat 100
▁News 100
छोरीहरू 100
▁बोले 100
▁मिस 100
ium 100
▁लगाएको 100
▁languages 100
▁tourist 100
ालय 100
▁guide 100
▁executive 100
▁phase 100
▁आइमाई 100
▁hurt 100
▁विश्वव्यापी 100
▁तालीम 100
▁shame 100
र्द 100
▁प्रतिकूल 100
▁नाफा 100
▁fund 100
▁Again 100
▁उपदेश 100
▁majority 100
▁productive 100
▁transportation 100
▁नौ 100
▁भर्ना 100
▁पठाउने 100
▁goal 100
▁सूचकाङ्क 100
▁पाउनु 100
LR 100
वर्ष 100
▁Baal 100
▁लगाउनु 100
▁उपत्यका 100
यता 100
▁बुद्ध 100
▁Pi 100
▁idols 100
▁सत 100
▁Th 100
ms 100
▁गन 100
▁सामु 100
▁accord 100
ny 100
▁Files 100
▁बसेर 100
▁मार्क 100
▁affect 100
भूत 100
भव 100
▁decline 100
▁व्यवसायी 100
▁मनमा 100
▁चल्ने 100
ze 100
▁टी 100
▁स्वर्गदूतले 100
▁aim 100
▁machine 100
▁English 100
▁डोमेन 100
▁खपत 100
▁पपअप 100
ाड 100
▁Would 100
▁Unknown 100
▁राष्ट्रपति 100
▁layout 100
governmental 100
ita 100
IN 100
▁ड्राइभर 100
▁seeing 100
▁trained 100
▁घरको 100
▁सतह 100
▁monitoring 100
▁गि 100
▁उदार 100
एम 100
▁पार्दछ 100
▁प्राय 100
▁Per 100
▁collect 100
▁join 100
▁शत्रुहरूलाई 100
tter 100
▁आमाको 100
▁व्यक्तिहरु 100
Z 100
मुनि 100
like 100
त्र् 100
▁पाइ 100
▁तहहरू 100
सूची 100
▁starts 100
▁sales 100
▁विदेश 100
ंदा 100
▁contribute 100
▁पढे 100
▁वाल 100
▁रानी 100
▁बजारको 100
▁दायित्व 100
▁council 100
▁nnn 100
▁medical 100
▁begun 100
▁रिसाइज 100
▁खानेकुरा 100
▁रिसेट 100
▁नसकिने 100
▁Sub 100
▁सुम्पि 100
▁factors 100
▁Apply 100
down 100
्ज 100
▁लुकाउनुहोस् 100
▁झन् 100
▁कोड 100
तै 100
▁क्षमताको 100
▁नो 100
▁pray 100
▁correctly 100
ताका 100
▁forced 100
▁तिमीहरुले 100
▁उद्योगको 100
िप 100
▁नाउँमा 100
▁खुद 100
▁बित 100
▁exports 100
ON 100
▁Run 100
▁फोन 100
▁tribes 100
pha 100
४१ 100
सक्छ 100
ाली 100
▁गाडी 100
▁सर् 100
▁parents 100
▁division 100
ified 100
▁wants 100
▁medicine 100
▁Dan 100
▁Dis 100
▁Hezekiah 100
▁smooth 100
▁गैरसरकारी 100
▁जम्मै 100
▁थ्रेड 100
▁फलफूल 100
▁यारोबाम 100
▁film 100
▁thick 100
▁एप्लेट 100
▁चलचित्र 100
कालीन 100
▁पत्रिका 100
▁cash 100
rad 100
▁RGB 100
▁परिवारको 100
▁नामकरण 100
▁तिनीहरुलाई 100
▁८० 100
▁Tab 100
▁तुलना 100
AN 100
▁मिलाउन 100
▁calls 100
▁Take 100
▁showed 100
▁केस 100
ral 100
▁kinds 100
gin 100
▁accus 100
्थ्यो 100
▁उठाए 100
▁जनसंख्याको 100
▁पलिश्तीहरू 100
▁th 100
▁walked 100
▁नसके 100
▁Asia 100
वर्ग 100
▁सकिएको 100
▁centers 100
▁wo 100
▁पुर् 100
बेला 100
▁relat 100
q 100
▁requirements 100
▁जमीनमा 100
्जा 100
▁ad 100
ako 100
▁गाड 100
▁फाल 100
▁चम्क 100
▁Isaac 100
▁TRANSLATORS 100
▁properties 100
▁welfare 100
▁गाह्रो 100
▁निमन्त्रणा 100
▁संयोजन 100
▁साँढे 100
▁स्थानान्तरण 100
▁sync 100
▁ह्रास 100
▁brass 100
▁Specify 100
▁relationship 100
▁Buddha 100
▁knew 100
▁सराप 100
▁bill 100
▁sinned 100
▁पीडा 100
▁wickedness 100
▁अपेक्षित 100
▁हरियो 100
▁worked 100
▁जातिहरू 100
ake 100
क्ल 100
▁भनिएको 100
▁fit 100
OS 100
:// 100
▁ब्या 100
▁७० 100
▁Page 100
▁ठिक 100
लै 100
▁corner 100
▁ग्रह 100
त्यस 100
▁Lu 100
▁मण्डली 100
▁investors 100
▁दिन्छन् 100
▁डराए 100
▁ल्याएको 100
▁कार्यकर्ता 100
▁Pan 100
▁सुन्ने 100
▁एली 100
हुने 100
िसकेको 100
▁बात 100
▁पाइने 100
▁picture 100
▁branch 100
▁32 100
▁उपभोग 100
हिल 100
▁Agricultural 100
▁Hospital 100
▁Possible 100
▁buried 100
▁currency 100
▁धूलो 100
www 100
▁feasibility 100
▁धरान 100
▁Water 100
▁आकर्षित 100
▁सस्तो 100
▁अपमान 100
▁Yet 100
▁reward 100
▁एदोम 100
▁आराम 100
▁scattered 100
खे 100
▁पोषण 100
▁director 100
▁प्रष्ट 100
▁pick 100
▁prove 100
▁जनताले 100
▁किल्ला 100
▁cases 100
▁lies 100
▁served 100
पाद 100
▁छोरीहरू 100
▁वस्तुहरु 100
▁therein 100
▁inner 100
uth 100
बहादुर 100
्तु 100
६० 100
ाधिकार 100
▁छोड्न 100
▁चलन 100
▁पट्टि 100
▁नीतिहरु 100
▁material 100
▁Programme 100
▁brush 100
▁complex 100
▁telephone 100
▁गार्हस्थ्य 100
▁झन्डै 100
▁GUI 100
▁Samuel 100
▁अनुग्रह 100
▁शिक्षण 100
▁सम्भार 100
▁अवश्य 100
नगर 100
▁क्षति 100
▁sitting 100
▁questions 100
▁जान्दछु 100
▁परिवारका 100
▁सोचे 100
▁26 100
▁initiated 100
▁पत्रकार 100
▁proposal 100
मात्र 100
▁numbered 100
▁मेरी 100
▁factor 100
▁introduced 100
▁मुलुकको 100
▁बीस 100
▁possession 100
▁वित्त 100
▁generated 100
▁Singh 100
▁strengthened 100
▁नल 100
▁सेवामा 100
▁बिमा 100
▁भो 100
त्ति 100
▁मर्ने 100
▁एन्ड 100
▁मरूभूमि 100
िनी 100
▁राजाका 100
▁गरिन् 100
▁Creat 100
▁begin 100
▁बेत 100
▁संस्थाको 100
▁safe 100
प्प 100
▁मारिए 100
chan 100
▁धु 100
▁looks 100
▁cl 100
▁जिम्मा 100
ताले 100
dir 100
▁कैद 100
आफ्नो 100
▁मास्क 100
▁ठहर 100
▁बोल्नु 100
▁बोल्ने 100
▁disable 100
▁dark 100
▁महत्त्व 100
▁1991/92 100
▁Two 100
▁choice 100
▁destination 100
▁occasion 100
▁refuge 100
▁तपाइँ 100
▁तुरही 100
▁थम्बनेल 100
▁concept 100
▁terror 100
▁म्याट्रिक्स 100
▁wives 100
▁खालका 100
▁राणा 100
▁शिविर 100
▁उत्पादकत्व 100
vel 100
▁neck 100
▁वाक्य 100
▁मौका 100
▁mi 100
▁piece 100
होस् 100
▁heat 100
▁busy 100
▁35 100
▁साथमा 100
▁झरे 100
▁MIME 100
िंदै 100
▁साझेदारी 100
िक्स 100
▁camera 100
zz 100
ष्टि 100
▁अन्तमा 100
▁memo 100
▁स्रोतको 100
▁मानिन्छ 100
press 100
इन् 100
▁अल् 100
16 100
▁देखिएका 100
▁besides 100
back 100
ants 100
AT 100
▁garments 100
▁URLs 100
तिनीहरू 100
ारा 100
▁ended 100
ound 100
ans 100
▁45 100
▁दक्षता 100
ल्प 100
▁व्यापारी 100
▁tr 100
▁तिनीहरूसित 100
▁represent 100
ची 100
▁incense 100
▁journey 100
▁त्रिभुवन 100
▁यहोशापात 100
▁सिँचाइ 100
▁entries 100
▁लगभग 100
▁माउन्ट 100
▁zero 100
▁influence 100
▁येहू 100
▁थोक 100
▁wave 100
▁indeed 100
▁Replace 100
▁निष् 100
▁तौल 100
▁rename 100
▁बुबा 100
▁चलाउनुहोस् 100
▁भन्दछु 100
▁चाहन्छन् 100
▁quit 100
▁चलाउने 100
▁successfully 100
bb 100
▁चर्चा 100
▁Test 100
▁methods 100
▁हुनुभयो 100
▁दिनेछ 100
▁लाम 100
▁effectively 100
ui 100
▁meaning 100
▁वृत्त 100
▁earnings 100
right 100
▁स्तरीय 100
▁conf 100
▁actions 100
▁thanks 100
▁सिद्ध 100
▁सदस्यहरू 100
▁तान 100
ey 100
कुल 100
▁बिग्र 100
.00 100
विरुद्ध 100
▁गे 100
▁Sal 100
रिक 100
nath 100
▁गरिदिनु 100
▁cross 100
▁हामीहरू 100
▁हुनेछु 100
▁वचनहरू 100
्च 100
▁सहयोगी 100
▁बचाउन 100
▁columns 100
केन्द्र 100
▁संभाव्य 100
पेक्षित 100
▁friend 100
▁जोग 100
▁fix 100
▁२६ 100
योजना 100
▁trumpet 100
▁सङ्गीत 100
▁एक्लै 100
▁बदल्नुहोस् 100
▁Automatically 100
▁committed 100
▁Ammon 100
▁super 100
▁fuel 100
▁Trade 100
▁एसाव 100
▁सातवटा 100
▁अपनाउन 100
▁कल्याण 100
▁contribution 100
▁student 100
▁बास 100
▁expenditures 100
arch 100
▁Speak 100
फ् 100
ेश्वर 100
▁Al 100
ika 100
▁बेंसी 100
▁देशहरू 100
▁knows 100
्ध 100
▁९० 100
▁Shah 100
▁poet 100
कको 100
▁Bi 100
चु 100
▁cloth 100
▁समस्याको 100
▁suffer 100
कस 100
▁शहरहरूमा 100
▁चिनी 100
▁किन्न 100
▁चाहन्छौ 100
▁Day 100
▁होइनन् 100
▁सूचि 100
▁पिउने 100
ency 100
▁शासकहरू 100
▁बेच 100
सुकै 100
लाइन 100
▁चरा 100
▁शे 100
रोग 100
याँ 100
▁restore 100
▁sta 100
▁विच्छेद 100
▁डुब 100
ura 100
▁serious 100
▁लेखिए 100
▁जुम 100
▁arc 100
▁suggest 100
▁hydro 100
▁modified 100
▁दृष्टान्त 100
▁सर्वोच्च 100
▁distance 100
▁protest 100
▁excessive 100
▁mass 100
▁अधिकृत 100
▁spot 100
▁vote 100
▁उत्तरी 100
गान 100
key 100
▁highest 100
▁लाग्न 100
▁युग 100
ves 100
१० 100
▁कार्यकारी 100
३२ 100
▁whoever 100
ाहा 100
▁Du 100
evi 100
मेट 100
▁कृपा 100
नेट 100
▁यि 100
िफ 100
▁determined 100
▁lo 100
▁posts 100
ाइयो 100
▁पाउँछ 100
▁स्वतन्त्रता 100
▁कर्मचारीहरू 100
▁da 100
ाब 100
डे 100
< 100
▁Hi 100
▁भार 100
▁stars 100
▁गइ 100
▁नामको 100
विश् 100
rm 100
▁Konqueror 100
▁Valley 100
▁identify 100
▁modify 100
▁टेलिफोन 100
▁हस्तान्तरण 100
▁breath 100
▁अन्धकार 100
▁Centre 100
▁popular 100
▁honey 100
▁अन्नबलि 100
▁धर्मशास्त्र 100
▁grace 100
▁cloud 100
▁५०० 100
डर 100
▁सां 100
In 100
▁पूर्वी 100
spect 100
▁लाश 100
▁completely 100
▁glad 100
▁मोर 100
▁इलाका 100
▁हेक्टरमा 100
▁फु 100
▁fulfilled 100
▁समात 100
▁आजको 100
▁स्थित 100
िकृत 100
My 100
▁जाँदै 100
▁Va 100
▁aspects 100
सर्वदा 100
बाहिर 100
las 100
efore 100
▁जेल 100
bed 100
▁quot 100
िमा 100
▁greatly 100
▁issues 100
▁require 100
▁नियुक्त 100
▁April 100
▁Document 100
▁captivity 100
▁married 100
▁possibility 100
▁म्यानुअल 100
▁विजेट 100
▁संविधान 100
▁परिश्रम 100
▁religious 100
▁रासायनिक 100
▁cultural 100
▁popup 100
▁River 100
▁Hide 100
▁effort 100
▁earlier 100
▁flock 100
▁बगैंचा 100
▁मोटर 100
drew 100
▁HTTP 100
▁located 100
▁तीस 100
▁यिनै 100
▁revealed 100
▁अन्यथा 100
▁Path 100
▁दिइ 100
ाउँछु 100
▁forget 100
र्व 100
▁notification 100
▁burned 100
▁स्क 100
▁विष 100
▁हाँस 100
▁पारेर 100
▁accepted 100
rea 100
▁लिइ 100
फर 100
▁बिन्यामीन 100
SD 100
▁प्रयोगकर्ताले 100
ाइरहेका 100
▁एका 100
योग 100
▁Post 100
▁icons 100
▁Its 100
text 100
गे 100
Who 100
पट 100
ाङ्क 100
त्यो 100
▁Mon 100
▁जंगल 100
▁भाषामा 100
भो 100
हुन्छ 100
▁worth 100
घा 100
्मा 100
▁Custom 100
▁Samaria 100
▁opposition 100
▁pleasure 100
▁निषेध 100
▁परिभाषा 100
▁व्यवस्थित 100
▁सर्वसाधारण 100
▁स्तुति 100
▁Additional 100
▁paid 100
▁हिँड 100
▁बत्ती 100
▁Special 100
UTF 100
▁भित्ता 100
▁भैरहेको 100
▁shot 100
▁छायाँ 100
▁taught 100
▁fool 100
तु 100
▁फर 100
▁kde 100
▁wealth 100
▁comment 100
▁शास्त्र 100
▁प्रशासनिक 100
▁Date 100
▁गरीबी 100
▁sa 100
▁दिशामा 100
▁mu 100
ological 100
ST 100
▁clothing 100
ँग 100
▁विरोधी 100
") 100
बन्ध 100
# 100
▁Chi 100
kin 100
lan 100
▁chat 100
▁इस्राएलमा 100
▁तहको 100
▁हिंडे 100
▁Pra 100
▁songs 100
▁extract 100
▁रही 100
हू 100
▁पस 100
▁कसै 100
▁देख्ने 100
▁सचेत 100
▁कसैको 100
▁जबसम्म 100
▁cells 100
▁तुल्याउन 100
▁सधै 100
▁स्वभाव 100
▁स्तन 100
▁engine 100
▁डाँडा 100
▁नबूकदनेस्सर 100
▁फागुन 100
▁पीडित 100
▁यसैकारण 100
▁सँधै 100
▁भयानक 100
▁सामरिया 100
▁प्रतिनिधित्व 100
▁authentication 100
▁अनलाइन 100
▁आदिको 100
▁भाडा 100
फल 100
▁dev 100
▁पुराना 100
▁वरिपरिका 100
▁medicines 100
▁तीनवटा 100
▁वातावरणीय 100
▁loved 100
▁parameters 100
अप 100
्दो 100
▁३५ 100
▁— 100
ula 100
द्व 100
दल 100
कम 100
▁जान्छन् 100
▁नजिकै 100
▁भारतको 100
▁नामक 100
ians 100
▁300 100
▁Shu 100
90 100
▁लगिनेछ 100
▁2000 100
▁meat 100
▁birds 100
▁stayed 100
▁भाँडा 100
घाट 100
गरी 100
▁देख्नु 100
▁असफलः 100
▁thoughts 100
भए 100
▁हुंदैन 100
दिने 100
▁bless 100
इस 100
▁विकल्पहरू 100
▁टो 100
▁तु 100
▁खुल 100
▁तुल्य 100
▁rows 100
▁corporations 100
ोत 100
▁क्षमतामा 100
▁बटनमा 100
▁mis 100
SS 100
▁Information 100
▁Women 100
▁crowd 100
▁royal 100
▁चेष्टा 100
▁फिल्म 100
▁thumbnail 100
▁इन्कर्पोरेटिड 100
▁झुण्ड 100
▁Besides 100
▁निर्देशक 100
▁Download 100
▁software 100
▁भक्तपुर 100
▁grass 100
▁fellow 100
▁Game 100
▁पुर 100
▁warning 100
▁भन्नुभएको 100
▁branches 100
▁encamped 100
▁कम्ती 100
45 100
▁दर्शक 100
▁Job 100
▁stranger 100
▁topic 100
▁दिनुपर्छ 100
▁लुगाहरू 100
▁चाहिन्छ 100
▁चिया 100
▁acts 100
▁recorded 100
▁ताल 100
▁Bas 100
चो 100
▁War 100
▁पिताले 100
rac 100
▁arguments 100
▁salt 100
path 100
▁Have 100
▁हल 100
▁uses 100
▁नोक्सान 100
▁कन् 100
हरूमाथि 100
▁sides 100
▁depart 100
▁मानिसहरुले 100
▁75 100
हित 100
▁27 100
्याउन 100
पू 100
▁generate 100
▁खेल्न 100
▁ratio 100
पश्चात 100
▁occur 100
▁उत्पादक 100
▁Jonathan 100
▁ladder 100
▁stomach 100
▁कन्क्वेरर 100
▁जनसहभागिता 100
▁थुप्रै 100
▁hit 100
▁४५ 100
▁ठग 100
▁backward 100
date 100
▁ल्याऊ 100
▁moon 100
▁zone 100
▁define 100
▁ignored 100
2) 100
▁jobs 100
▁formulated 100
▁झिक 100
▁भोक 100
pple 100
रेखा 100
थो 100
▁doctors 100
▁gas 100
▁रस 100
izing 100
map 100
▁touch 100
▁indicate 100
पान 100
नुहोस् 100
▁अंक 100
▁वर्षदेखि 100
▁ग्रे 100
▁पृथ्वीको 100
▁खोज्न 100
▁containing 100
▁End 100
▁धा 100
▁राख्छ 100
▁जान्ने 100
mat 100
ियर 100
run 100
▁क्ष 100
▁vineyard 100
▁अब्शालोम 100
▁झगडा 100
▁1990/91 100
▁Birgunj 100
▁Irrigation 100
▁License 100
▁Plugin 100
▁execution 100
▁floor 100
▁gradient 100
▁teeth 100
▁यशैया 100
▁diff 100
▁ब्रुस 100
▁sharp 100
▁doubt 100
▁scroll 100
▁Dharan 100
▁किताब 100
▁अधीन 100
▁गिम्प 100
▁About 100
▁चासो 100
▁रेखाचित्र 100
वत 100
▁formulation 100
▁arise 100
▁पाइप 100
▁backend 100
▁लिई 100
▁girl 100
▁consumer 100
▁angle 100
▁पुर्याए 100
rc 100
▁ऐ 100
▁July 100
▁प्रतिस्पर्धा 100
▁पाठको 100
▁सदस्यता 100
▁निर्भरता 100
▁आसा 100
bha 100
▁postal 100
▁round 100
१९ 100
र्या 100
▁मार्नु 100
▁उही 100
▁उठाउन 100
▁Sri 100
▁bringing 100
ाण 100
▁lib 100
zer 100
▁sum 100
rg 100
▁drawing 100
▁bonds 100
▁७५ 100
अर्का 100
बहिनीहरू 100
▁खोला 100
▁२७ 100
▁शो 100
▁win 100
▁३२ 100
▁कम्पनीहरू 100
▁bridges 100
▁हल्ल 100
▁पालको 100
▁आँ 100
▁रुमा 100
तया 100
▁institution 100
विना 100
परमप्रभुले 100
▁GNU 100
▁adequate 100
▁dictionary 100
▁tabernacle 100
▁उपर्युक्त 100
▁घनत्व 100
▁निस्तार 100
▁पाइलट 100
▁पोशाक 100
▁हिन्दू 100
Maximum 100
▁alpha 100
▁plot 100
▁जलस्रोत 100
▁UML 100
▁tomb 100
▁2016 100
▁नह 100
▁थालनी 100
▁ल्याउँछ 100
▁नोड 100
▁workspace 100
▁offline 100
▁consideration 100
war 100
▁flag 100
▁parent 100
lect 100
▁independent 100
cing 100
भएको 100
-8 100
ाउदा 100
▁गरिएमा 100
▁operated 100
▁reforms 100
arious 100
hara 100
▁Ti 100
▁signs 100
▁भएँ 100
▁ठाँउ 100
▁फलक 100
्याल 100
▁belong 100
▁बिच 100
▁सकिँदैनः 100
hief 100
▁बताइ 100
▁त्यहाँबाट 100
▁horses 100
▁ate 100
प्ट 100
▁strengthen 100
▁नियोजन 100
work 100
click 100
cl 100
unt 100
▁seconds 100
▁claim 100
▁लुट 100
▁दब 100
गल 100
▁प्राणी 100
dhi 100
▁Background 100
▁leaving 100
▁politics 100
▁गिदोन 100
▁चुनौती 100
▁लोग्ने 100
▁खुबै 100
▁प्रकृया 100
▁अग्लो 100
▁शैतान 100
▁Insert 100
▁खरीद 100
▁साँच्चिकै 100
▁delight 100
▁प्रश 100
▁छोड्नुहोस् 100
lash 100
▁क्यु 100
▁hearts 100
▁समूहको 100
▁संस्थाहरू 100
▁पोष्ट 100
▁जीव 100
ulation 100
▁नेताहरू 100
▁sufficient 100
▁भत्क 100
▁techniques 100
▁मोह 100
▁owner 100
▁apart 100
▁विल 100
▁separated 100
श्य 100
▁अर्ब 100
▁लाल 100
▁मसँग 100
ler 100
▁प्रहरीले 100
▁Rep 100
ाइदिए 100
▁den 100
▁चुन 100
▁निम्त 100
body 100
पक 100
सबै 100
▁streets 100
▁ये 100
चित्र 100
▁नाउँको 100
▁प्रो 100
▁टेक 100
ोह 100
▁साझेदार 100
▁नेपालका 100
िश 100
lat 100
▁हेरे 100
ल्स 100
▁particular 100
▁सालको 100
▁शरीरलाई 100
▁finance 100
▁murder 100
▁prevail 100
▁क्यालेन्डर 100
▁पाकिस्तान 100
▁वास्तवमै 100
▁सकारात्मक 100
▁स्क्रोल 100
▁वेश्या 100
▁blue 100
▁heavy 100
▁overwrite 100
▁consciousness 100
▁<< 100
▁यकिन 100
fa 100
▁failure 100
▁निजीकरण 100
▁ल्याई 100
▁ताजा 100
▁Book 100
▁फेरी 100
▁आउँदा 100
▁भोल्युम 100
▁लडे 100
▁नच 100
▁फर्म 100
▁Western 100
▁यिन 100
▁wash 100
लाल 100
▁२९ 100
▁exercise 100
▁बोक 100
cess 100
▁fr 100
▁leader 100
▁आफन्तहरू 100
▁बनाइ 100
▁PC 100
▁अश्शूरका 100
▁तरकारी 100
▁जसो 100
▁signed 100
▁Oh 100
▁पाइएको 100
▁योजनाहरू 100
stra 100
▁reader 100
७५ 100
▁train 100
To 100
▁उठाउने 100
▁ढि 100
tric 100
▁पिउन 100
ाग 100
▁आत्म 100
▁ram 100
▁डरलाग्द 100
▁मिश्रमा 100
▁विक 100
▁आव 100
▁सक्नेछ 100
▁Connect 100
▁देखेका 100
▁accelerat 100
▁calculat 100
▁सञ्चालक 100
▁Necessary 100
▁digiKam 100
▁prostitute 100
▁zoom 100
▁अक्टोबर 100
▁अभिवृद्धि 100
▁पश्चिमाञ्चल 100
▁बहुविध 100
▁बिषय 100
▁मापदण्ड 100
▁felt 100
▁निगम 100
▁साक्षी 100
▁hint 100
▁Keyboard 100
▁ध्वंस 100
▁निर्माता 100
▁आकर्षण 100
▁अफलाइन 100
▁पुस्तकालय 100
▁mailbox 100
▁vow 100
▁Rename 100
▁आकर्षक 100
▁सङ्कुचन 100
▁produc 100
▁Next 100
▁गरिदिए 100
ef 100
लर 100
▁सर्प 100
▁कार्यक्रमहरू 100
▁शाह 100
▁विकासकर्ता 100
र्जन 100
▁Both 100
▁photograph 100
▁farmer 100
▁मै 100
चित 100
▁ruler 100
▁publication 100
▁Action 100
▁चाहनुभए 100
▁गरौं 100
▁स्तरको 100
्नेछु 100
▁Used 100
▁प्रहार 100
▁नारा 100
▁बैंकले 100
tract 100
▁ne 100
▁Did 100
▁संवादमा 100
▁America 100
एर 100
▁रेल 100
▁रथ 100
▁प्रेरित 100
▁तँलाई 100
table 100
▁apply 100
स्तरमा 100
ाउँ 100
▁कट 100
▁195 100
▁skill 100
▁Construct 100
▁mill 100
▁discipline 100
▁enjoy 100
▁monetary 100
▁obey 100
▁widow 100
▁डिजिटल 100
▁बप्तिस्मा 100
▁बसोबास 100
▁मौद्रिक 100
▁शेकेल 100
▁Year 100
▁explain 100
▁Shri 100
▁thread 100
▁trash 100
▁शिमोन 100
▁२०१७ 100
▁Like 100
▁वहाँ 100
▁प्रशासकीय 100
▁छैनौं 100
▁अर्ध 100
▁Mah 100
▁rejected 100
▁distributed 100
▁सुस्त 100
▁देखेको 100
▁हटाउने 100
▁बिन्त 100
▁ल्या 100
▁प् 100
▁मान्न 100
she 100
तालाई 100
▁बुझ्ने 100
▁आङ्ग 100
▁सल 100
▁seat 100
▁प्रेरितहरू 100
छा 100
▁२०० 100
▁Ze 100
बस 100
▁Ph 100
▁योराम 100
▁ब्लग 100
▁bi 100
▁पर्वतमा 100
ज्यू 100
▁गाद 100
▁Industrial 100
▁राज्यको 100
▁कन्या 100
▁उनीहरुको 100
हुन 100
ik 100
▁rob 100
▁मकै 100
▁commit 100
सम्मको 100
udi 100
▁Pakistan 100
▁September 100
▁captive 100
▁insurance 100
▁अगमवाणी 100
▁इन्टिजर 100
▁उद्धार 100
▁गोष्ठी 100
▁ज्योति 100
▁दृढ 100
▁धैर्य 100
▁सगरमाथा 100
▁सिक्किम 100
▁expensive 100
▁प्रतीक 100
▁POP 100
▁जलविद्युत् 100
▁व्यवस्थामा 100
▁कुलसमूह 100
▁finger 100
▁अरब 100
▁ज्याला 100
▁1984/85 100
ृत 100
▁पापको 100
▁उत्सव 100
▁cold 100
▁हुदा 100
code 100
14 100
▁notes 100
▁encrypted 100
▁समितिको 100
▁वाध्य 100
▁requirement 100
lah 100
▁ढुङ्गाहरू 100
ायौ 100
१८ 100
▁पुग्छ 100
▁गर्नुको 100
▁नहर 100
उन् 100
▁clearly 100
▁ओर् 100
रत 100
▁सक्छौं 100
लाग 100
▁पछ 100
तान्त 100
▁Zi 100
▁गर्भवत 100
▁सङ्केतक 100
▁ट्री 100
▁matching 100
▁शहरलाई 100
▁किशोर 100
▁chariots 100
▁पानीमा 100
sign 100
▁Comp 100
iel 100
▁Any 100
▁lambs 100
atch 100
75 100
म्बर 100
dar 100
▁प्रजातन्त्रको 100
क्रि 100
▁हेर्नु 100
▁ring 100
११ 100
▁बसेको 100
▁मरेको 100
▁Gad 100
five 100
try 100
ाइरहेको 100
▁चौडा 100
▁व्या 100
▁phrase 100
▁रुपान्तरण 100
▁PGP 100
▁Remote 100
▁famous 100
▁relevant 100
▁आंशिक 100
▁उर्जा 100
▁प्राधिकरण 100
▁सन्तुष्ट 100
▁सांस्कृतिक 100
▁सिदकियाह 100
▁बनायो 100
▁raising 100
▁गइरहेको 100
▁दृश्यमा 100
▁बोसो 100
▁देखाइएको 100
▁Bhaktapur 100
▁eighth 100
▁Reset 100
▁Port 100
▁subjects 100
▁चढाउन 100
▁प्रथा 100
▁दोश्रो 100
▁Services 100
▁publicity 100
▁declared 100
▁Pu 100
▁ऋणको 100
▁9. 100
▁pot 100
▁household 100
▁highway 100
ural 100
▁बढ्ने 100
वै 100
▁station 100
कालमा 100
▁कनान 100
ाइज 100
▁node 100
▁तथापि 100
▁संसारको 100
▁साइन 100
▁बढि 100
▁गर्छन 100
९५ 100
▁mine 100
▁जान्नु 100
▁ability 100
मत 100
▁किनारमा 100
▁लिन्छ 100
▁Air 100
▁स्वा 100
▁रङहरू 100
नौं 100
▁वर्षका 100
ign 100
95 100
ेशन 100
▁भनाइ 100
▁studying 100
४५ 100
मण्डल 100
▁attain 100
▁ancient 100
▁circle 100
▁desolate 100
▁happy 100
▁proceed 100
▁womb 100
▁अत्यावश्यक 100
▁कान्तिपुर 100
▁डुङ्गा 100
▁लडाइँ 100
▁सुदूर 100
▁Small 100
▁injured 100
▁क्वान्टा 100
▁अन्तर्राष्टि्रय 100
▁वाक्यांश 100
▁adult 100
▁Network 100
▁sugar 100
▁quantity 100
▁जिउँद 100
▁परिचित 100
▁सहन 100
▁साथसाथै 100
▁अल 100
▁sad 100
▁तथ्याङ् 100
स्थल 100
▁आउँछन् 100
▁बोकेर 100
▁किनार 100
क्टर 100
्ता 100
▁आदिवासी 100
▁भागे 100
▁western 100
लमा 100
▁official 100
▁infrastructure 100
▁साटोमा 100
▁oriented 100
▁तोकिएको 100
वेल 100
▁walls 100
▁conducting 100
मिन 100
▁स्थानहरू 100
top 100
▁डोरी 100
▁IP 100
▁बनाउ 100
▁leading 100
▁आयोगको 100
▁धो 100
▁वर्षे 100
▁हटाइ 100
Yahweh 100
▁वर्षहरु 100
unch 100
▁invest 100
▁Read 100
▁pane 100
▁शेल 100
भार 100
▁decrease 100
शु 100
▁सम्भाव्य 100
add 100
▁लगाइ 100
▁Database 100
▁alcohol 100
▁beloved 100
▁substance 100
▁wheat 100
▁ग्रेडियन्ट 100
▁सामुदायिक 100
▁गोदाम 100
▁समुह 100
▁grid 100
▁Font 100
▁Layer 100
▁integer 100
▁प्वाल 100
▁Airport 100
▁awareness 100
▁customs 100
▁तातो 100
▁आग्रह 100
▁shop 100
▁harm 100
▁Apart 100
▁उहां 100
▁bath 100
▁संघीय 100
▁व्यापारीहरू 100
▁भन्छौ 100
▁sixth 100
del 100
eb 100
▁usage 100
NC 100
▁नबन 100
ुपर्दछ 100
ुहोस 100
▁वाली 100
▁Asian 100
ेन्द्र 100
▁केन्द्रमा 100
▁फर्काउन 100
▁उन्नति 100
▁गर्नलाई 100
raj 100
ाँस 100
anga 100
▁चलाए 100
▁अङ्ग 100
tta 100
▁अनुमानित 100
▁पक 100
▁दोहोर 100
▁अनिकाल 100
सक्ने 100
▁pan 100
▁नगद 100
▁online 100
शास्त्र 100
स्तरीय 100
▁monitor 100
▁कर्मचारीहरु 100
आई 100
hand 100
▁mar 100
▁purchase 100
्नुहुन्छ 100
▁अग 100
▁British 100
▁Sikkim 100
▁climb 100
▁spoil 100
▁अँध्यारो 100
▁इत्यादि 100
▁उत्पादित 100
▁काठमाण्डौ 100
▁कारबाही 100
▁घाइते 100
▁डीपीआई 100
▁मिठाई 100
▁grew 100
▁segment 100
▁dollar 100
▁प्रवेशद्वार 100
▁प्रसिद्ध 100
▁closing 100
▁bind 100
▁pair 100
▁Home 100
▁aside 100
▁Levi 100
▁appearance 100
▁स्कुल 100
▁सिफारिस 100
▁उडान 100
▁traders 100
▁efficiency 100
▁सचिव 100
▁Command 100
▁आहार 100
▁फर्किए 100
चल 100
▁स्वर 100
▁Size 100
▁स्वतः 100
▁लिएका 100
▁माने 100
ज्ज 100
▁isn 100
▁धुन 100
▁गरिब 100
▁आउनेछन् 100
▁captain 100
▁bridge 100
▁arrangement 100
nah 100
▁अर्कोतिर 100
▁executed 100
▁सामग्रीहरू 100
▁कोर्न 100
▁समूहलाई 100
▁Jan 100
▁Kan 100
▁Flo 100
▁implementing 100
▁जनावर 100
ुहुन्न 100
▁घरहरू 100
off 100
▁क्रमिक 100
avi 100
▁sale 100
8226 100
▁BAR 100
ade 100
▁wear 100
▁wanted 100
▁thinking 100
▁insert 100
Do 100
ley 100
िरहनु 100
lthough 100
ेयर 100
▁vertical 100
▁त्यसबाट 100
▁Always 100
▁Black 100
▁conservation 100
▁crisis 100
▁prophesy 100
▁testimony 100
▁आषाढ 100
▁आह्वान 100
▁वनस्पति 100
▁खारेज 100
▁सायद 100
▁डिग्री 100
▁ग्रिड 100
▁आँगन 100
▁स्वामी 100
▁Board 100
▁भोलि 100
▁मिश्रदेश 100
▁bed 100
ire 100
▁टेवा 100
र्ति 100
▁जानुभयो 100
मन 100
▁घडी 100
▁permanently 100
▁लहर 100
▁Rai 100
▁बस्छन् 100
▁नभएमा 100
▁हजारौं 100
▁electric 100
▁Sen 100
▁Che 100
पश्चात् 100
टाइ 100
▁saints 100
▁historical 100
▁चामल 100
▁Za 100
▁traveled 100
▁दाग 100
हाँ 100
▁Options 100
िरहे 100
▁फर्काउँछ 100
▁देशहरु 100
्याइ 100
▁maintained 100
▁पठाइ 100
▁पञ्चायती 100
क्ति 100
भी 100
▁किशोरी 100
ग्रस्त 100
▁उता 100
▁selling 100
hich 100
ाउँथे 100
क्ष् 100
▁severe 100
▁वेदीमा 100
85 100
▁Among 100
्नी 100
मेरा 100
66 100
▁alarms 100
▁ग्र 100
▁मर्न 100
qua 100
get 100
▁po 100
▁paths 100
▁broad 100
▁Absalom 100
▁DTD 100
▁Science 100
▁Tourism 100
▁beneficial 100
▁fifth 100
▁temperature 100
▁unique 100
▁गिरिजा 100
▁विधवा 100
▁huge 100
▁dress 100
▁applet 100
▁माइम 100
▁demonstrat 100
▁टायल 100
▁Sets 100
▁एकातिर 100
▁विगतमा 100
▁जित्न 100
▁अस्पतालमा 100
मह 100
▁Wall 100
▁Land 100
▁रीस 100
▁Hear 100
▁factory 100
▁मृत्युको 100
▁सम्भवत 100
▁str 100
मुख 100
▁समूहहरू 100
च्य 100
▁नत्र 100
▁Ku 100
acc 100
▁कैदी 100
▁corporation 100
▁donkey 100
▁blessing 100
▁ball 100
ेग 100
▁फोल्डरको 100
▁riches 100
▁instruments 100
▁visited 100
nes 100
▁Egyptians 100
ल्यान्ड 100
▁सुविधाहरु 100
▁bones 100
▁ordinances 100
▁moves 100
▁किसिमले 100
▁उत् 100
▁लेखन 100
यू 100
▁राखेका 100
▁मन्त्र 100
गन 100
▁उम 100
▁पसल 100
▁star 100
▁तिमीसित 100
▁चेतना 100
▁ब्य 100
्चर 100
ुहुनेछ 100
▁Ru 100
▁adopt 100
▁Alt 100
pher 100
मलाई 100
वस्था 100
▁obtain 100
▁बेस 100
▁retrieve 100
एफ 100
▁राज्यमा 100
lock 100
▁ढु 100
▁पसे 100
▁1991 100
▁Elijah 100
▁Jeroboam 100
▁Krishna 100
▁School 100
▁blank 100
▁competition 100
▁distress 100
▁extreme 100
▁principal 100
▁swore 100
▁trespass 100
▁yesterday 100
▁आखिर 100
▁उद्धरण 100
▁गन्तव्य 100
▁गोप्य 100
▁प्रशोधन 100
▁प्रसन्न 100
▁रहबाम 100
▁शिमशोन 100
▁Internal 100
▁cheap 100
▁बाँण 100
▁खतना 100
▁मरियम 100
▁definition 100
▁gedit 100
▁टाइम 100
▁अनुशासन 100
▁emerg 100
▁अल्फा 100
▁mask 100
▁hunt 100
▁tape 100
▁तत्त्व 100
▁Dev 100
▁अफिस 100
▁Just 100
▁सन्धि 100
▁दुइजना 100
▁otherwise 100
▁टिकट 100
▁मार्च 100
▁photo 100
▁shell 100
▁नून 100
!' 100
hur 100
▁धन्य 100
▁गतिमा 100
▁treated 100
▁poured 100
▁2, 100
▁भग 100
सँगको 100
▁transit 100
endra 100
▁corresponding 100
▁replaced 100
▁joined 100
▁स्वाद 100
▁पार्दै 100
lai 100
▁8226 100
br 100
▁pillars 100
▁बिर्स 100
▁भाइहरू 100
▁stat 100
hai 100
▁प्राप्ति 100
्दिन 100
▁carrying 100
▁organisations 100
पना 100
asa 100
्वे 100
▁Pur 100
▁मुद्राको 100
hel 100
त्री 100
४४ 100
▁पिताको 100
Come 100
▁हुनै 100
▁थालेका 100
▁spend 100
tai 100
▁चिकित्सक 100
oli 100
▁skills 100
pre 100
▁उब्ज 100
▁cattle 100
▁magazine 100
▁अन्वेषण 100
▁कर्तव्य 100
▁खाँचो 100
▁नेपालगञ्ज 100
▁सकिंदैन 100
▁Width 100
▁डिजिक्याम 100
▁reserve 100
▁Esau 100
▁निन्दा 100
▁रिपोर्ट 100
▁Remember 100
▁खम्बा 100
▁lakh 100
▁आइरहेको 100
▁२०१८ 100
▁दाजु 100
▁Asa 100
▁पारदर्शी 100
▁लिनुहोस् 100
▁Object 100
▁पोल 100
▁seventy 100
▁प्याक 100
▁योग 100
▁काँड 100
२०० 100
▁random 100
▁घट्न 100
▁केश 100
▁गुणा 100
▁मान्नु 100
▁vine 100
▁costs 100
▁whereas 100
▁खोज्ने 100
▁गुम 100
▁gets 100
▁depends 100
ात्मा 100
▁टेप 100
यत 100
▁भिन्नता 100
▁जानेछन् 100
स्त्र 100
Re 100
▁नगरे 100
▁सर्वदा 100
▁extra 100
▁गर्छौं 100
▁बने 100
▁remembered 100
प्रधानहरू 100
▁प्रसाद 100
▁वर्षीय 100
सकेपछि 100
▁tools 100
ably 100
▁छविमा 100
▁छिन् 100
▁CRL 100
▁panchayats 100
▁bell 100
▁पहिर 100
३७ 100
देव 100
▁corrupt 100
▁सन 100
किन 100
print 100
▁Sy 100
safe 100
दोस्रो 100
When 100
▁भेटे 100
▁च्या 100
▁दूत 100
शाला 100
▁buildings 100
▁editing 100
▁लगानीकर्ताहरू 100
▁स्वर्गदूतहरू 100
▁plugins 100
▁माल 100
.> 100
▁उभिन 100
amp 100
▁rulers 100
▁खोल्ने 100
▁1/ 100
,500 100
▁एशिया 100
▁उहा 100
▁Foreign 100
▁JPEG 100
▁Nebuchadnezzar 100
▁White 100
▁accident 100
▁applied 100
▁nutrition 100
▁palette 100
▁कम्युनिष्ट 100
▁कल्पना 100
▁छुट्टै 100
▁ढुवानी 100
▁Source 100
▁मेशिन 100
▁instruction 100
▁Girija 100
▁दिल्ली 100
▁rising 100
▁लम्बाइ 100
▁इन्धन 100
▁poem 100
▁टेबल 100
▁स्वार्थ 100
▁healed 100
▁प्यार 100
▁सवै 100
▁Sort 100
तल 100
ियाह 100
▁arrested 100
active 100
▁commitment 100
▁affects 100
▁कविता 100
▁anointed 100
▁ख्या 100
▁गर्नुभन्दा 100
▁बानी 100
▁चलेको 100
▁lose 100
▁processing 100
▁Union 100
▁towns 100
▁विश्वासी 100
▁achievement 100
▁Selected 100
▁किसिम 100
▁देशबाट 100
▁goat 100
ल्लो 100
▁विश्रामको 100
▁उनीहरूका 100
▁west 100
ev 100
▁गरिरहनु 100
▁hot 100
सम्बन्ध 100
▁सामग्रीहरु 100
कर्म 100
▁घटेको 100
▁अना 100
▁फा 100
प्राप्त 100
कुमार 100
१२ 100
▁गर्व 100
▁पूजाहारीहरूले 100
▁surround 100
▁थाक 100
▁समयसम्म 100
▁कार्यान्वयनमा 100
▁qua 100
70 100
▁समस्याहरू 100
▁walking 100
▁कुलका 100
▁throw 100
▁cu 100
▁habit 100
्याई 100
▁East 100
▁silent 100
▁Configuration 100
▁Fifth 100
▁census 100
▁communities 100
▁examination 100
▁identity 100
▁indigenous 100
▁perspective 100
▁इमान्दार 100
▁जुलुस 100
▁प्राचीन 100
▁freedom 100
▁utility 100
▁अन्धा 100
▁गुम्बा 100
▁%.25 100
▁गन्ती 100
▁घुसाउनुहोस् 100
▁illness 100
▁Link 100
▁boat 100
▁हुर्क 100
med 100
▁डबल 100
▁राखिएका 100
▁चौकी 100
▁Point 100
ाओस् 100
▁lying 100
DB 100
▁कार्यरत 100
▁मेनुमा 100
▁tower 100
यास 100
▁आसन 100
LC 100
▁सेकेन्ड 100
▁Warning 100
▁क्षण 100
▁reports 100
▁एकाइ 100
▁गर्यौं 100
पाठ 100
सक्नु 100
▁{0} 100
ेप 100
▁लगानीकर्ता 100
▁Come 100
▁Give 100
ीक 100
▁rooms 100
▁aware 100
▁spi 100
▁सिमा 100
▁Format 100
mail 100
▁स्मरण 100
▁Hor 100
▁समुद्रमा 100
▁खासगर 100
▁प्रयोगमा 100
▁burning 100
▁कालमा 100
▁सर्भरबाट 100
uring 100
▁Ham 100
▁सडकको 100
▁पर्यटकहरु 100
MM 100
▁deposits 100
ूद 100
▁रहोस् 100
▁Canaan 100
▁holding 100
▁जन्मेको 100
round 100
check 100
पूर 100
How 100
तान 100
▁souls 100
जसले 100
▁झण्ड 100
▁Ban 100
86 100
vas 100
▁promise 100
ियस 100
▁सिंहासन 100
▁सहमत 100
▁फिड 100
िइ 100
▁थिइन 100
▁फो 100
▁Dec 100
▁Delhi 100
▁Soviet 100
▁सोभियत 100
▁Commerce 100
▁Facebook 100
▁abundance 100
▁eternal 100
▁loud 100
▁suburbs 100
▁चिन्तित 100
▁पुतली 100
▁proud 100
▁threat 100
कोनिम्ति 100
▁repeat 100
▁तुलनात्मक 100
▁महेन्द्र 100
▁flight 100
▁Construction 100
▁approved 100
▁धारा 100
▁pleasant 100
ारी 100
▁Mail 100
▁पार्नेछु 100
▁टोली 100
▁tenth 100
▁ख्रीष्टमा 100
▁सरकारबाट 100
nagar 100
▁निरन्तरता 100
99 100
▁उल्लेखित 100
पुग 100
▁होस 100
▁vessel 100
imp 100
▁brick 100
▁payment 100
▁Devi 100
▁पानीले 100
यल 100
▁सकिन 100
▁स्वर्गबाट 100
▁era 100
49 100
▁improvements 100
▁centre 100
▁contacts 100
▁linen 100
▁कदमहरु 100
२२ 100
format 100
▁भएकोमा 100
▁relations 100
going 100
view 100
▁दिनहरूमा 100
ब्बा 100
▁शिक्षकहरु 100
▁fee 100
▁खर्चमा 100
क्ट 100
समूह 100
Thus 100
▁payments 100
▁गोरू 100
▁foreigner 100
hra 100
िदेऊ 100
room 100
▁preserve 100
▁देशहरूमा 100
▁documents 100
▁सडकमा 100
ock 100
्चा 100
had 100
▁इन्जिन 100
▁Ignore 100
▁October 100
▁Organization 100
▁advantage 100
▁advice 100
▁candidate 100
▁storage 100
▁substantial 100
▁succeed 100
▁violence 100
▁अवास्तविक 100
▁एलाजार 100
▁ठाउं 100
▁देब्रे 100
▁पासफ्रेज 100
▁मानाङ्कन 100
▁श्रीमती 100
▁सेप्टेम्बर 100
▁wild 100
▁queen 100
▁translate 100
▁Frame 100
▁Turn 100
▁cooperation 100
▁Mahendra 100
▁chairman 100
▁website 100
▁impart 100
▁चिसो 100
▁खालको 100
▁दिगो 100
▁२०४१ 100
▁bitter 100
▁हदसम्म 100
▁प्रान्त 100
▁Connection 100
▁sequence 100
▁होशियार 100
▁जोडी 100
▁daemon 100
▁expressed 100
▁grown 100
न्छन् 100
▁भनाई 100
▁पठाएको 100
▁ब्राउज 100
var 100
▁scan 100
▁1989/90 100
▁consist 100
▁Sea 100
▁व्यापारको 100
▁officers 100
▁residents 100
▁garment 100
िरहन्छ 100
▁जन्मेका 100
▁बेन 100
ाउदै 100
▁स्या 100
84 100
▁स्वर्गमा 100
kot 100
ane 100
▁Mode 100
▁adding 100
▁वर् 100
▁मैदान 100
▁grains 100
▁भन्नेछन् 100
▁हल्ला 100
▁राख्दछ 100
▁सुनेका 100
▁पर्वतहरू 100
▁records 100
▁समूहबाट 100
ject 100
यहूदीहरू 100
▁bricks 100
▁पूर्वाधार 100
▁फुक 100
▁बिल 100
▁समर्थ 100
▁संस्थाहरुको 100
▁पृष्ठमा 100
▁dog 100
▁Ber 100
1, 100
▁द्रुत 100
▁divine 100
▁practical 100
▁December 100
▁Nevertheless 100
▁capture 100
▁earthquake 100
▁elected 100
▁harvest 100
▁prime 100
▁remnant 100
▁औषधी 100
▁ग्लोबल 100
▁नकारात्मक 100
▁निस्क्रिय 100
▁फलस्वरुप 100
▁बाँडफाँड 100
▁समकक्ष 100
▁स्वाभाविक 100
▁मतलब 100
▁खाडल 100
▁dispute 100
▁Daniel 100
▁Otherwise 100
▁leadership 100
▁Express 100
प्रा 100
▁Part 100
▁शर्मा 100
▁Highway 100
▁stick 100
▁स्वच्छ 100
▁moral 100
UN 100
▁पुलिस 100
▁capable 100
▁sixty 100
▁wings 100
▁continually 100
▁प्राप्ताङ्क 100
▁गारो 100
▁attachment 100
▁Edom 100
▁बढा 100
▁Blessed 100
▁एफ 100
▁सहर 100
▁बहस 100
बास 100
२७ 100
▁airport 100
▁App 100
▁फर्की 100
▁designed 100
▁बदलि 100
▁बसिरहेका 100
▁सकेका 100
uel 100
सू 100
▁headers 100
ण् 100
्याम्प 100
▁बाकसमा 100
▁हराइरहेको 100
▁घट्ने 100
▁participate 100
light 100
▁tea 100
▁लेखे 100
▁सिध 100
▁घेर 100
▁helped 100
▁fly 100
iness 100
▁अज 100
▁highly 100
▁अश्शूर 100
र्फ 100
▁पाठक 100
▁29 100
▁गरिरहे 100
▁पाउनेछौ 100
▁समूहले 100
्सन 100
▁श्रोत 100
▁आगोमा 100
▁दरमा 100
▁photos 100
But 100
▁सुनेर 100
ाउँन 100
▁रोजे 100
ाउंछ 100
▁ड्राइभ 100
▁थाह 100
▁GnuPG 100
▁PNG 100
▁opinion 100
▁preparing 100
▁schema 100
▁आइपुगे 100
▁चमत्कार 100
▁मुनाफा 100
▁वेबसाइट 100
▁शोधनान्तर 100
▁personnel 100
▁shift 100
▁sorrow 100
▁एवम् 100
▁prompt 100
▁liberal 100
▁पचास 100
▁पुनरावृत्ति 100
▁Secretary 100
▁कार्यान्व 100
▁preservation 100
▁crown 100
▁जनगणना 100
▁पुस्ता 100
▁रहेकेा 100
▁keyword 100
▁सेवन 100
▁घोडाहरू 100
▁क्षेत्रहरुको 100
▁पछ्याउन 100
▁दिइयो 100
ction 100
▁ASCII 100
▁reality 100
▁regime 100
▁Party 100
than 100
▁chain 100
▁Whoever 100
▁हुनुको 100
74 100
▁पुर्याउनु 100
▁race 100
सितै 100
▁min 100
▁भाग्य 100
▁खोस 100
▁नहुनु 100
▁आनन्दित 100
▁बलिहरू 100
▁coal 100
even 100
ाँड 100
▁ahead 100
ache 100
▁hearing 100
▁Mat 100
▁preferences 100
▁performed 100
▁लाज 100
▁बाँचे 100
jo 100
याह 100
▁listed 100
() 100
▁worshiped 100
ls 100
▁citizens 100
ient 100
▁Log 100
▁पालमा 100
▁foods 100
▁लुकाउन 100
▁provisions 100
▁arm 100
▁सकिनेछ 100
▁फरिसीहरू 100
▁ग्राहक 100
▁ब्रा 100
▁थुमा 100
two 100
ट्या 100
^ 100
डाइरेक्टरी 100
फ्ट 100
बाबु 100
ओस् 100
ून् 100
▁captains 100
select 100
▁leaves 100
▁shout 100
▁declare 100
▁devices 100
कुरा 100
▁नाच 100
ब्ल 100
▁उज्ज 100
▁exported 100
▁adjust 100
▁छर्क 100
▁va 100
▁pour 100
▁Narayan 100
▁confirm 100
▁automatic 100
▁Syria 100
▁August 100
▁Location 100
▁OpenPGP 100
▁Through 100
▁precious 100
▁करूणा 100
▁निःशुल्क 100
▁निक्षेप 100
▁बंगलादेश 100
▁रिसर्च 100
▁atonement 100
▁changing 100
▁college 100
▁slogan 100
▁अचम्म 100
▁ईश्वर 100
▁वृक्षारोपण 100
▁विवेक 100
▁बनावट 100
▁transform 100
▁दुर्गम 100
▁laugh 100
▁cease 100
▁सामान्यतया 100
▁रङदानी 100
▁उद्देश्यहरु 100
▁Certificate 100
▁ढाँचाबद्ध 100
▁Report 100
▁फड्क 100
▁announced 100
▁नपुग 100
▁shortage 100
▁association 100
▁Setup 100
▁मेमो 100
आज 100
सिया 100
▁विमान 100
▁लामा 100
▁Dhan 100
▁CVS 100
▁पाउनेछन् 100
▁articles 100
▁Mag 100
▁(0 100
▁वी 100
▁गराइने 100
ele 100
ंदै 100
▁तलब 100
▁released 100
▁सकिएनः 100
९८ 100
रोक्त 100
▁ग्राफ 100
▁इस्राएललाई 100
rip 100
▁gift 100
▁reference 100
▁सरह 100
▁अह 100
▁State 100
▁31 100
▁दूरी 100
▁देखिन्छन् 100
▁सँगै 100
▁नापी 100
▁समुद्रको 100
▁मागे 100
▁Hill 100
▁para 100
▁planted 100
▁गराउँछ 100
▁Selection 100
▁अराम 100
yan 100
aya 100
▁attend 100
रूवा 100
▁लियो 100
▁boot 100
▁राखि 100
ाउनेछु 100
wise 100
28 100
oriented 100
group 100
▁pra 100
wide 100
▁राष्ट्रको 100
▁दी 100
▁correspond 100
तब 100
Now 100
▁फुल 100
▁na 100
ायाह 100
हुँदै 100
▁damage 100
ull 100
▁बिते 100
▁constitution 100
▁सौ 100
▁Communist 100
▁DTEP 100
▁Tuesday 100
▁disaster 100
▁executable 100
▁feasible 100
▁intercourse 100
▁license 100
▁palace 100
▁passphrase 100
▁ritual 100
▁shoot 100
▁victim 100
▁virgin 100
▁चाँडो 100
▁निरीक्षण 100
▁निवारण 100
▁परामर्श 100
▁ब्याकइन्ड 100
▁भेंडा 100
▁GDP 100
▁humble 100
▁reliable 100
▁nurse 100
▁उत्कृष्ट 100
▁conversation 100
▁Ahab 100
▁प्रकोप 100
▁पापबलि 100
▁bought 100
▁लक्षण 100
▁सरदर 100
▁filters 100
▁identified 100
▁भर्खरै 100
▁घातक 100
▁upload 100
▁partial 100
▁Specifie 100
▁पहिलेको 100
▁forms 100
▁Planning 100
▁भात 100
▁केन्द्रको 100
▁माझमा 100
▁कुकी 100
ami 100
▁estimate 100
▁larger 100
▁stocks 100
▁flat 100
▁अल्प 100
▁तुल्याए 100
क्षेत्रमा 100
नेर 100
ियम 100
▁Mrs 100
▁bid 100
▁बाँचेका 100
▁बन्दी 100
long 100
▁CC 100
▁आउँदै 100
▁विद्यार्थीहरु 100
rant 100
art 100
ुहुन्थ्यो 100
▁शिव 100
▁tags 100
▁पाइला 100
▁ration 100
▁angels 100
▁pressing 100
▁कार्यक्षेत्र 100
▁नदीमा 100
ither 100
18 100
▁waiting 100
तिम्रो 100
▁बुट 100
ढा 100
७० 100
ular 100
wal 100
▁sacrifices 100
▁recommend 100
▁गरेन 100
▁जीउ 100
▁Windows 100
प्स 100
ियल 100
▁Bal 100
▁specifie 100
▁गरेकी 100
▁foreigners 100
▁महसु 100
▁cancel 100
▁witness 100
▁commands 100
▁देवताहरूको 100
▁निष्पक्ष 100
▁Library 100
▁comparison 100
▁concrete 100
▁fierce 100
▁refresh 100
▁understood 100
▁कचौरा 100
▁कुकुर 100
▁चेताउनी 100
▁रूबेन 100
▁व्यावहारिक 100
▁सिलसिलामा 100
▁Access 100
▁घिउ 100
▁density 100
▁आयोजक 100
▁Vertical 100
▁पञ्चवर्ष 100
▁किलोवाट 100
▁tender 100
▁मसला 100
▁बताउनुहुन्छ 100
▁winter 100
▁खोप 100
▁सूत्र 100
▁sample 100
▁ends 100
▁दाबी 100
▁२०४६ङ्ग४७ 100
era 100
▁Asher 100
▁forces 100
▁utterly 100
▁समेट 100
▁संसारका 100
▁वैद्य 100
▁noise 100
▁आश 100
▁जङ्गली 100
▁mount 100
▁worthy 100
▁Africa 100
▁नोट 100
▁विद्यार्थीहरू 100
▁Call 100
▁स्वीकृति 100
▁मानिसहरूसँग 100
▁Web 100
सेन 100
क्ता 100
▁challenge 100
▁errors 100
टै 100
▁shekels 100
▁ट्रक 100
▁degrees 100
▁रक्त 100
link 100
▁रोज्नु 100
dev 100
▁establishing 100
▁पेशा 100
ँदैन 100
प्रकार 100
77 100
▁भुल 100
▁छक्क 100
▁हुंदै 100
▁ताराहरू 100
▁tracks 100
▁फ्र 100
द्वार 100
्दथे 100
command 100
Lord 100
Take 100
bur 100
▁विना 100
क्षण 100
▁stations 100
▁devour 100
▁पुगेका 100
▁confidence 100
▁invitation 100
▁अबीमेलेक 100
▁अलिकति 100
▁औपचारिक 100
▁प्रेषक 100
▁माओवादी 100
▁सौन्दर्य 100
▁हाकिम 100
▁हिज्जे 100
▁Royal 100
▁depth 100
▁respond 100
▁stroke 100
▁तैपनि 100
▁बहुभुज 100
▁यात्रु 100
▁विपरित 100
▁क्रूस 100
▁अभिलेख 100
▁desert 100
▁कोइला 100
▁स्लाइड 100
▁दानियल 100
▁worse 100
▁अग्रिम 100
▁समतल 100
▁खनिज 100
▁username 100
eshwar 100
▁envisaged 100
▁attractive 100
▁performance 100
▁आफु 100
▁संगीत 100
▁ढङ्ग 100
▁पात्र 100
▁चाहना 100
▁गरिसकेको 100
band 100
▁Install 100
▁abuse 100
▁Maoist 100
▁upright 100
▁बलिया 100
▁Inter 100
▁largest 100
▁breadth 100
▁annum 100
िता 100
▁बासिन्दा 100
▁हानि 100
अन 100
▁Az 100
▁नहुन 100
▁विकल्पमा 100
▁विधिहरू 100
tail 100
▁signal 100
▁सक्दैनन् 100
▁पाएँ 100
मुलेट 100
); 100
▁functions 100
▁सान 100
▁street 100
5,000 100
▁मुखबाट 100
▁किलो 100
Is 100
▁वस्तुमा 100
▁quarter 100
▁Art 100
▁Para 100
▁विदेशीहरू 100
▁selecting 100
▁maintaining 100
▁चाहिँ 100
दन 100
▁परा 100
▁laws 100
▁gl 100
▁States 100
ूम 100
anda 100
ठूला 100
▁bars 100
पल्ट 100
▁विदेशमा 100
▁इतिहासमा 100
▁परम 100
▁खण्डको 100
ink 100
▁activate 100
▁गालील 100
▁मानचित्रमा 100
ियोस् 100
▁permanent 100
As 100
▁draft 100
decentralization 100
▁Gorkha 100
▁Instead 100
▁Sharma 100
▁buffer 100
▁conference 100
▁governor 100
▁mutual 100
▁timber 100
▁variety 100
▁अपर्याप्त 100
▁उपाध्यक्ष 100
▁पिलातस 100
▁बाक्लो 100
▁गहुँ 100
▁Great 100
▁mineral 100
▁Resource 100
▁(*. 100
▁भइरहेका 100
▁भर्याङ 100
▁Social 100
▁Mor 100
▁hotel 100
▁Paper 100
▁अर्कै 100
▁सकिन्न 100
▁settlement 100
▁vain 100
▁Total 100
न्थ्यो 100
▁संझ 100
▁2001 100
▁appointment 100
▁सिकाई 100
▁एकपटक 100
िएन 100
▁attached 100
▁ICC 100
▁advanced 100
▁कृष्ण 100
▁नगर्नु 100
▁troubled 100
▁grant 100
▁महीनाको 100
▁hole 100
▁हर् 100
sive 100
▁deposit 100
▁साधनहरु 100
▁भैसकेको 100
mount 100
▁dynamic 100
सिनो 100
cho 100
▁सामानहरु 100
ample 100
▁sweets 100
▁sites 100
▁निकाले 100
▁जोन 100
▁listened 100
▁भन्यौ 100
▁Han 100
ban 100
▁अरामी 100
▁यथा 100
▁इन्ड 100
पटक 100
▁जाग 100
▁Cartr 100
बेर 100
▁कम्प 100
▁banking 100
▁सुत 100
▁दाम 100
पल 100
बिन्दु 100
▁goats 100
▁achievements 100
82 100
▁अनुमतिहरू 100
▁beside 100
▁उपस्थित 100
▁झ्याल 100
▁शू 100
but 100
रहन 100
होला 100
▁targeted 100
७९ 100
▁flocks 100
▁interpret 100
▁Regard 100
▁array 100
▁disappointed 100
▁mechanism 100
▁ministry 100
▁supplied 100
▁surplus 100
▁ticket 100
▁कप्तान 100
▁पदवर्णन 100
▁प्रौढ 100
▁विभाजित 100
▁शोषण 100
▁series 100
▁split 100
▁Kenya 100
▁कैयौं 100
▁Level 100
▁Place 100
▁foolish 100
▁Chandra 100
▁नायक 100
▁दयालु 100
▁पीठो 100
▁संशोधन 100
▁खोल्दा 100
▁ग्रन्थ 100
▁सातौ 100
▁कीरा 100
▁curve 100
// 100
दिनु 100
ूक 100
user 100
▁थियोः 100
वेद 100
▁म्यान 100
▁sheets 100
▁touched 100
माझ 100
▁Wi 100
▁ठाउँको 100
▁सेल 100
१५ 100
रस 100
▁फर्काए 100
रात 100
▁सिं 100
17 100
▁मुखमा 100
▁cards 100
▁pressed 100
गर्न 100
▁cup 100
▁आकाशमा 100
▁links 100
थर 100
▁33 100
RO 100
▁grave 100
▁Ver 100
▁हराए 100
▁चढाउने 100
▁seeking 100
▁पप 100
Where 100
▁कनानी 100
▁ममाथि 100
▁beds 100
▁dwelling 100
▁Adjust 100
स्थापना 100
्याङ 100
संख्या 100
▁pursue 100
▁treat 100
▁सेवाहरु 100
▁2.0 100
▁विश्वका 100
▁quick 100
▁नगरेको 100
▁reflect 100
▁रोजगार 100
िरहेछ 100
▁inherit 100
▁अनुक्रम 100
▁जाभा 100
अन्तर्राष्टिँ्रय 100
▁Follow 100
▁Gentiles 100
▁Industry 100
▁Policy 100
▁atmosphere 100
▁convention 100
▁ourselves 100
▁province 100
▁अवधारणा 100
▁गुनासो 100
▁व्यभिचार 100
▁Execut 100
▁Reuben 100
▁condemn 100
▁smoke 100
▁कन्सोल 100
▁बिरुवा 100
▁Style 100
▁अब्राम 100
▁rotate 100
▁stress 100
▁sometimes 100
▁किरिङ 100
▁dozen 100
▁Passover 100
▁Transport 100
threw 100
▁Nations 100
▁Neither 100
▁authorities 100
▁जुत्ता 100
द्धारा 100
▁पूर्वस्थिति 100
▁fought 100
▁justified 100
▁Using 100
▁पर्थ्यो 100
▁beaten 100
▁बफर 100
▁36 100
▁बताउंछ 100
▁भाला 100
▁ठुल 100
▁journalist 100
▁Manager 100
▁पार्यो 100
वृत्ति 100
▁घेरा 100
नुसार 100
▁तवर 100
▁रहन्छन् 100
▁पत्नीहरू 100
▁Mal 100
▁हुनुहोस् 100
ँझ 100
=... 100
पथ 100
▁award 100
▁locked 100
▁भाई 100
▁जिल्लाका 100
▁horse 100
▁भारी 100
▁गर्नै 100
▁घरबाट 100
▁खालि 100
▁गराएको 100
▁धोका 100
▁reduc 100
▁अधि 100
▁मिल्दैन 100
▁बिन्यामीनका 100
बेल 100
वाणी 100
▁साह 100
▁पथ 100
▁सिल 100
79 100
९७ 100
▁decades 100
▁फेर्न 100
▁गरेनौ 100
▁चक 100
Back 100
akh 100
▁ठाँउमा 100
▁पक्र 100
सल 100
▁कार्यले 100
32 100
▁नभन 100
६८ 100
▁नोकरहरू 100
{0} 100
Please 100
▁Ya 100
वस 100
month 100
▁cents 100
▁निस्के 100
uri 100
▁संचाल 100
▁consumers 100
▁ज्या 100
समक्ष 100
▁छुट्याउन 100
▁outer 100
▁देख्यौ 100
▁Administration 100
▁Horizontal 100
▁Myanmar 100
▁Perhaps 100
▁Police 100
▁consult 100
▁encouraging 100
▁reproach 100
▁tomorrow 100
▁अवलम्बन 100
▁दर्ुइ 100
▁पुँजी 100
▁विलम्ब 100
▁Retriev 100
▁अंग्रेजी 100
▁वचत 100
▁विजार्ड 100
▁Track 100
▁innocent 100
▁नाटक 100
▁Word 100
▁चालीस 100
▁म्यानमार 100
▁नजर 100
▁housing 100
▁Rotate 100
▁Trash 100
▁यिनीहरु 100
▁साम्बा 100
▁बनायाह 100
▁शेष 100
▁विक्री 100
▁२०४० 100
▁liter 100
▁ढिलो 100
▁beat 100
▁तिनिहरू 100
▁संचार 100
▁चौध 100
▁अपवित्र 100
▁खिच 100
क्कै 100
▁fig 100
▁Sign 100
▁हात्ती 100
▁pictures 100
▁चेक 100
▁हुनुहुन्न 100
▁एण्ड 100
▁केन्या 100
ology 100
▁नसक्नु 100
▁सम्झन्छ 100
▁सन्देशको 100
▁सक्तैनन् 100
▁Medic 100
▁registered 100
▁Editor 100
▁गर्जन 100
▁कोशी 100
▁सास 100
▁काठको 100
▁classes 100
▁inputs 100
▁स्तम्भहरू 100
▁पृष्ठको 100
▁upward 100
▁फोटोः 100
▁grade 100
▁inserted 100
▁delivery 100
▁गर्नुपर्नेछ 100
SA 100
▁अनुप 100
▁tents 100
▁बर 100
▁spending 100
▁speaks 100
▁talked 100
SE 100
▁weeks 100
▁Generate 100
हरुमध्ये 100
▁views 100
स्टर 100
▁sets 100
▁तालिमको 100
▁तुल्याउने 100
▁अनुकूलन 100
AR 100
▁सक्तैनौ 100
▁relatives 100
▁पार्नेछ 100
▁चलाउनु 100
▁छे 100
्याउनु 100
▁पठाएका 100
▁रोकिए 100
▁ज्ञ 100
▁टर् 100
▁diet 100
▁३६ 100
▁viewer 100
३९ 100
ूत 100
▁उभिरहे 100
रहे 100
▁धर 100
▁बेंसीमा 100
▁maker 100
▁doors 100
connect 100
इँ 100
http 100
▁लाग्नु 100
यौं 100
▁न्यु 100
▁स्वदेश 100
▁भक्त 100
त्रा 100
wan 100
▁mention 100
भित्रै 100
1) 100
▁अगुवाहरूले 100
सुन 100
▁prosper 100
▁absence 100
▁forgotten 100
▁polygon 100
▁preliminar 100
▁pride 100
▁repent 100
▁simply 100
▁worried 100
▁अहज्याह 100
▁आइतबार 100
▁पर्यावरण 100
▁मलखाद 100
▁श्रेणी 100
▁स्क्रिनसेभर 100
▁Application 100
▁examine 100
▁foodgrain 100
▁quiet 100
▁कब्जा 100
▁दुर्घटना 100
▁भैरहवा 100
▁समारोह 100
▁phone 100
▁सक्तिन 100
▁James 100
▁बाधा 100
▁Tribhuvan 100
▁देखापरे 100
▁स्नेह 100
▁Likewise 100
▁जनसङ्ख्या 100
▁अनुचित 100
▁फार्म 100
▁Stock 100
▁horizontal 100
▁poll 100
xml 100
▁faithful 100
▁दरबार 100
▁manual 100
▁त्यहां 100
▁बिस्तारै 100
▁affliction 100
▁boil 100
▁observe 100
▁एयर 100
▁पावर 100
▁२०४८ङ्ग 100
▁~ 100
▁पैदा 100
▁सुगन्धित 100
▁partner 100
▁invited 100
▁डाटा 100
▁ठोक 100
▁पक्का 100
▁dependent 100
▁anyway 100
▁उत्पादनशील 100
▁जित 100
▁हामीसँग 100
▁झोल 100
▁professional 100
▁Pharisees 100
▁तपाईंहरू 100
▁hilly 100
▁स्वदेशी 100
▁borders 100
ट्रो 100
▁declined 100
lf 100
▁बमोजिम 100
▁आदेशहरू 100
▁भागको 100
23 100
▁writer 100
▁prey 100
▁प्रश्नहरू 100
▁Bug 100
▁सहि 100
▁खट 100
▁सेवालाई 100
ica 100
▁पासो 100
िन्थ्यो 100
▁अवसरमा 100
▁पट 100
▁65 100
▁lt 100
▁Icon 100
▁states 100
▁spaces 100
Missing 100
स्तो 100
▁ग्राम 100
▁धार्मिकता 100
dai 100
▁झा 100
script 100
▁दुर् 100
छन 100
▁गएँ 100
▁tabs 100
▁जेठा 100
उने 100
▁फर्कि 100
नान 100
▁wouldn 100
sufficient 100
पछाडि 100
▁हामीसित 100
▁४३ 100
▁Pal 100
१४ 100
awa 100
वद्ध 100
▁३१ 100
▁rams 100
2,000 100
▁greet 100
▁दर्श 100
▁Jehoshaphat 100
▁Kantipur 100
▁commodities 100
▁defeat 100
▁initiative 100
▁तैयार 100
▁सन्तुलित 100
▁Finance 100
▁proportion 100
▁soldiers 100
▁खरानी 100
▁नमुना 100
▁Sorry 100
▁queue 100
▁North 100
▁agency 100
▁पारिएमा 100
▁वक्र 100
▁दबाब 100
▁Example 100
▁semi 100
▁विलाप 100
▁Elisha 100
▁चुनिएका 100
▁safety 100
▁आवधि 100
▁घुमाउनुहोस् 100
▁पङ्क्तिबद्ध 100
▁जाडो 100
▁दावी 100
▁existence 100
▁शेयर 100
▁inquire 100
▁भन्छिन् 100
विहिन 100
▁कहिलेकाही 100
▁pop 100
▁begins 100
▁भन्दछन् 100
▁मर्नु 100
▁exalted 100
▁सक्यो 100
▁लगाऊ 100
▁तीनजना 100
सङ्ग 100
▁हरि 100
▁particularly 100
▁निकास 100
▁नारायण 100
▁sensitive 100
▁अन्तसम्म 100
▁कार्यस्थान 100
▁अस् 100
▁डु 100
▁widely 100
▁equally 100
▁enterprises 100
▁विच्छेदन 100
▁gnome 100
▁सल्लाहकार 100
▁कानूनी 100
▁वढ 100
पति 100
डिया 100
67 100
▁outline 100
nam 100
▁काट्ने 100
▁fun 100
ओटा 100
▁arrow 100
▁par 100
ware 100
▁हुँदैनन् 100
बाल 100
मानिसहरू 100
▁पर्दामा 100
▁अन्तर् 100
▁ideas 100
र्ता 100
▁भारतले 100
▁चरणमा 100
▁क्रिया 100
▁Im 100
▁arrows 100
▁ut 100
▁३७ 100
using 100
▁४७ 100
▁दियौ 100
ball 100
मूर्त 100
▁requests 100
प्रतिको 100
▁patterns 100
uda 100
▁चन्द्र 100
▁परिवारहरू 100
▁Ask 100
▁elections 100
▁1989/90. 100
▁mourn 100
▁standards 100
▁exceed 100
▁पू 100
औं 100
▁servers 100
▁नराख 100
▁पर्व 100
▁भाँच 100
▁पर्नु 100
▁Capital 100
▁Eleazar 100
▁Everest 100
▁XDMCP 100
▁competitive 100
▁diagram 100
▁everlasting 100
▁financing 100
▁improving 100
▁pollution 100
▁rebuke 100
▁stumble 100
▁wheel 100
▁आलोचना 100
▁उपासना 100
▁पुनरावलोकन 100
▁संक्षिप्त 100
▁सहुलियत 100
▁हेब्रोन 100
compatible 100
▁perhaps 100
▁जनकपुर 100
▁संवाददाता 100
▁सैन्य 100
▁ल्याटिन 100
▁निकट 100
▁अभिभावक 100
▁नैतिक 100
▁truck 100
▁parsing 100
▁त्यत्ति 100
▁उत्तेज 100
▁Court 100
▁compound 100
▁परिपाटी 100
▁मेलबलि 100
▁विद्रोह 100
▁tray 100
▁१९९० 100
▁push 100
▁कार्यसम्पादन 100
▁फर्काउनुहोस् 100
▁२०१५ 100
▁Everyone 100
▁Count 100
इस्राएलका 100
▁vice 100
▁ऋणपत्र 100
AND 100
▁बाँधे 100
▁बढाउनुहोस् 100
▁देख्यो 100
▁उल्टो 100
▁चढे 100
▁manually 100
▁faces 100
▁Mid 100
जाऊ 100
▁देशलाई 100
▁hire 100
▁मोल 100
▁बस्तु 100
▁Return 100
▁discussed 100
▁floating 100
▁thereby 100
▁canceled 100
▁reminder 100
▁समाजको 100
रियो 100
▁जग्गामा 100
▁खेतहरू 100
▁clothed 100
mini 100
▁खान्छ 100
▁regularly 100
हिं 100
▁विकासलाई 100
erial 100
▁Forest 100
▁बटनले 100
▁knowing 100
िनेछन् 100
▁एकता 100
▁issued 100
▁परिवारमा 100
itude 100
▁इन्च 100
▁horns 100
▁sleeping 100
▁figure 100
▁३०० 100
▁sand 100
▁गरिन्छन् 100
▁talking 100
13 100
▁नीतिको 100
▁सन्देशमा 100
▁pleased 100
▁promot 100
▁600 100
▁देखाएको 100
▁बनिएको 100
िसकेका 100
▁band 100
▁फोटोहरू 100
▁भेग 100
▁लैजानु 100
▁abominations 100
▁फर्काउने 100
▁Tim 100
▁\\ 100
▁covering 100
▁विन 100
▁150 100
uck 100
भूमि 100
बमोजिम 100
istic 100
48 100
▁जिम्मेवार 100
न्छु 100
▁चर्च 100
▁advance 100
▁गोल 100
▁(" 100
▁utter 100
▁marketing 100
▁कन 100
▁तत्वहरू 100
struct 100
▁गौरव 100
▁प्रावधान 100
▁ब्रह्म 100
▁1989 100
▁Hetauda 100
▁January 100
▁Meanwhile 100
▁NFS 100
▁activist 100
▁extensive 100
▁faint 100
▁federal 100
▁newspaper 100
▁अवलोकन 100
▁एजेन्सी 100
▁द्वन्द्व 100
▁प्रतिसेयर 100
▁प्रेरणा 100
▁भ्वाइसेज 100
▁रेन्डर 100
▁करूब 100
▁शकेम 100
▁lady 100
▁slave 100
▁एमोरी 100
▁movie 100
▁यकीन 100
▁पीडीए 100
▁अपलोड 100
▁होटल 100
▁sustainable 100
▁छाती 100
▁मार्गदर्शन 100
▁strip 100
▁campus 100
ाउँछौ 100
▁स्टेसन 100
▁पतन 100
▁बेलायत 100
▁नदेखाउने 100
▁प्रजनन 100
▁दिइन्छ 100
▁सीमान्त 100
rim 100
▁Shiva 100
▁1,000 100
▁van 100
रेट 100
▁कपाल 100
▁रोए 100
"; 100
▁विपक्षी 100
▁अम्मोनी 100
▁geographical 100
तन्त्र 100
▁रहेछन् 100
hood 100
▁सुनें 100
▁park 100
▁लगत 100
▁West 100
▁Put 100
▁२००० 100
▁स्थ 100
▁नभएर 100
▁bowed 100
▁उत्प 100
▁दिइए 100
▁राखिनेछ 100
▁जसबाट 100
▁features 100
▁तुल्याउनु 100
▁सञ्जालमा 100
▁परामितिहरू 100
▁recipients 100
▁sow 100
▁लाने 100
▁bond 100
्याएर 100
▁विधा 100
मेन्ट 100
▁talks 100
▁सँ 100
▁स्त्रीको 100
LE 100
५४ 100
▁वित 100
▁मान्ने 100
▁क्षेत्रहरु 100
▁एला 100
बन्द 100
वेश 100
▁बुढ 100
▁दिनपछि 100
▁canal 100
▁कवि 100
ंकर 100
▁receiv 100
▁रुख 100
पानी 100
▁मन्द 100
▁संस्थानको 100
▁हरू 100
▁मीका 100
प्रथम 100
प्रणाली 100
धेरै 100
▁listening 100
▁३३ 100
विकास 100
▁periodic 100
▁हुन्थे 100
hold 100
rely 100
▁टिक 100
▁थाम 100
▁अक्ष 100
तपाईँले 100
▁Chinese 100
▁Contact 100
▁Greek 100
▁HotSync 100
▁Janakpur 100
▁Survey 100
▁Three 100
▁basket 100
▁dignity 100
▁easier 100
▁entrance 100
▁familiar 100
▁institute 100
▁opposite 100
▁scholar 100
▁shield 100
▁straight 100
▁synagogue 100
▁आत्महत्या 100
▁आयुर्वेद 100
▁गोरखा 100
▁तस्विर 100
▁पारवहन 100
▁भल्भ 100
▁रक्तचाप 100
▁सम्बोधन 100
▁स्वास्नी 100
▁Hebron 100
▁belief 100
▁handmaid 100
▁दांत 100
▁दाज्यु 100
▁Attach 100
▁denied 100
▁फारम 100
▁scene 100
▁मासिक 100
▁taste 100
▁इजाजतपत्र 100
▁श्राप 100
▁pace 100
▁धागो 100
▁Management 100
▁क्लिप 100
▁Twitter 100
▁interval 100
▁prefer 100
▁लौरो 100
▁Simon 100
▁भेटघाट 100
वर्ती 100
▁bright 100
▁ढंग 100
▁mobilisation 100
▁corruption 100
▁2003 100
▁गुणात्मक 100
▁असन्तुलन 100
▁NO 100
▁आदान 100
▁arranged 100
▁स्केल 100
▁सलह 100
▁indicator 100
▁नियुक्ति 100
▁पुरै 100
बोध 100
▁गराइएको 100
▁Collection 100
▁earn 100
▁बनाउँदै 100
▁रुपैयाँ 100
▁अश 100
▁सावधानी 100
न्डा 100
▁surveys 100
▁मिलेर 100
▁उदास 100
तपाईँको 100
▁recognized 100
▁Nar 100
ीकृत 100
▁invested 100
▁पञ्चायतहरु 100
▁ग्रा 100
▁Sar 100
▁दुर 100
▁surrounding 100
▁बनाएँ 100
▁जन्मे 100
अर 100
▁dock 100
▁किसानहरू 100
दर्शी 100
स्य 100
lon 100
▁खोलिएको 100
▁भन्नेछु 100
▁तिर्न 100
ञ्जेल 100
वाहक 100
▁कानुनी 100
▁Force 100
▁singing 100
▁cow 100
ong 100
३६ 100
▁दगुर 100
▁त्यहाँका 100
▁उल्ट 100
▁ज्यान 100
्यान्ड 100
▁abomination 100
▁decade 100
▁गुणन 100
▁प्रयासहरु 100
िदियो 100
IC 100
▁reg 100
▁साइ 100
▁43 100
▁सोझै 100
▁believes 100
▁उनक 100
▁थाल्छ 100
▁इकाई 100
▁flowers 100
▁margin 100
फु 100
▁घमण्ड 100
▁Over 100
ण्ट 100
24 100
ius 100
▁पापी 100
▁couldn 100
▁island 100
▁रुलाई 100
▁observ 100
government 100
▁कामदार 100
Because 100
बाकस 100
ुपरेको 100
▁न्यू 100
स्थिति 100
zi 100
▁dia 100
hum 100
नारायण 100
▁encrypt 100
खण्ड 100
दायी 100
वारी 100
▁continues 100
रूपमा 100
aught 100
▁ओर्ल 100
▁पिक्सेलमा 100
पाई 100
▁Attempt 100
▁Lebanon 100
▁TRUE 100
▁Template 100
▁analyst 100
▁अमस्याह 100
▁दशमलव 100
▁निर्वाचित 100
▁पंक्ति 100
▁मुकुट 100
▁सान्त्वना 100
▁हड्डी 100
▁Galilee 100
▁Jhapa 100
▁compassion 100
▁heritage 100
▁अचानक 100
▁डिसेम्बर 100
▁प्रचलन 100
▁प्रतिव्यक्ति 100
▁फोटोग्राफ 100
▁मूल्याङ्न 100
▁हेटौंडा 100
▁Audio 100
▁बथान 100
▁couple 100
▁ashamed 100
▁concentrat 100
▁composition 100
▁residential 100
▁धातु 100
▁द्वि 100
▁२०३८ 100
▁बिभिन्न 100
▁discard 100
▁फसल 100
▁रहस्य 100
▁मुख्यतया 100
▁Without 100
▁confirmation 100
▁weakness 100
▁punishment 100
▁सिमाना 100
▁Camp 100
▁एचटीएमएल 100
▁पार्क 100
▁नजान 100
▁yen 100
▁नपर्ने 100
▁हुनुहुनेछ 100
▁bag 100
▁यसप्रकार 100
▁id 100
mac 100
लोक 100
▁भङ्ग 100
▁actually 100
▁कम्प्युटरमा 100
▁सकेट 100
well 100
▁प्रेस 100
▁बढे 100
▁रहनेछन् 100
▁expenses 100
15 100
▁गरिएन 100
▁अप्र 100
▁लास 100
▁बोलाउनु 100
सिन 100
▁चाहने 100
वो 100
▁None 100
▁था 100
ically 100
▁Mis 100
लिङ 100
▁हाँगाहरू 100
▁नदिन 100
▁II 100
ासन 100
▁पढाइ 100
▁lamb 100
▁आउँदछ 100
auto 100
भाष 100
पीएन 100
▁पहाडमा 100
▁फर्कन 100
▁MS 100
▁मैदानमा 100
▁जनावरहरू 100
श्र 100
▁छोरालाई 100
▁छाने 100
न्द्र 100
िदै 100
▁ban 100
▁अवसरहरु 100
▁लेखा 100
▁विदा 100
ising 100
▁z 100
▁connecting 100
▁corners 100
▁Cho 100
▁scripts 100
▁टाँस 100
▁पाँचवट 100
folder 100
नुभयो 100
una 100
िङ् 100
▁Area 100
four 100
▁connections 100
निर्देश 100
▁स्वीकृत 100
▁सकिए 100
▁धनु 100
▁households 100
▁newly 100
▁judges 100
हामीले 100
tool 100
▁mat 100
▁belongs 100
url 100
मोत 100
यान 100
लाग्दो 100
▁रथहरू 100
▁assist 100
▁अनुप्रयोगले 100
▁catalog 100
▁tendency 100
▁vocabulary 100
▁आत्मनिर्भर 100
▁क्षयरोग 100
▁लाभदायक 100
▁लोकप्रिय 100
▁paddy 100
▁verify 100
▁एक्सचेन्ज 100
▁ब्राजिल 100
▁विधेयक 100
▁क्यान्सर 100
▁नामाकरण 100
▁awake 100
▁boast 100
▁तनाव 100
▁नम्र 100
▁वाह्य 100
▁आँधी 100
▁परिक्रमण 100
▁सर्वप्रथम 100
▁मर्यो 100
▁trail 100
▁reduction 100
▁Help 100
▁पुनलोड 100
▁मौन 100
बारी 100
▁Copyright 100
▁बिलाम 100
▁clay 100
▁व्यर्थ 100
▁Jehu 100
▁wool 100
▁ड्र 100
▁पाउँदैन 100
▁2007 100
▁विवरणिका 100
▁spare 100
▁शर्त 100
▁औलो 100
▁parable 100
64 100
▁hang 100
▁अहँ 100
▁प्रदायक 100
▁नभएसम्म 100
▁powerful 100
▁बनाउनेछु 100
▁notice 100
▁प्रतिदिन 100
▁cave 100
▁Tu 100
▁हिमाली 100
▁Bad 100
▁बोके 100
▁roll 100
▁Sur 100
▁हाँसो 100
▁ताप 100
▁skilled 100
▁Projects 100
▁त्यसमाथि 100
host 100
▁games 100
▁हेरी 100
▁forgive 100
▁converted 100
▁दिनेछन् 100
▁judged 100
▁ka 100
▁expanding 100
▁जोर 100
▁pitch 100
▁पोख 100
▁फैलिएको 100
▁increasingly 100
▁vehicles 100
▁fertilizers 100
▁includes 100
▁crying 100
▁शु 100
परमेश्वर 100
▁स्त्रीलाई 100
▁हातहरू 100
▁बढाउनु 100
ाउनेछन् 100
▁loves 100
ाउदछ 100
▁नग 100
lly 100
्छौं 100
▁तालिकामा 100
▁बताउने 100
ought 100
▁trap 100
▁seal 100
▁बनाउँन 100
▁प्रमुखहरू 100
▁हिमाल 100
▁चुने 100
▁शै 100
▁channels 100
न्याह 100
▁समितिले 100
▁futures 100
होइन 100
▁भूइँमा 100
▁येन 100
अक्षम 100
▁विश्वासीहरू 100
▁pad 100
सेवा 100
▁Bir 100
▁reveal 100
▁certificates 100
Arise 100
ेण्ट 100
४३ 100
▁माटोको 100
भरी 100
▁अस्पष्ट 100
५०० 100
▁formal 100
▁34 100
▁fold 100
▁भन्दछ 100
▁Food 100
▁Should 100
▁category 100
▁fetch 100
▁fifteen 100
▁imbalance 100
▁obligation 100
▁आविष्कार 100
▁एनिमेसन 100
▁कारागार 100
▁तुरून्त 100
▁tremble 100
▁जङ्धल 100
▁भाषण 100
▁रेखदेख 100
▁वैशाख 100
▁spear 100
▁पिसाब 100
▁राहेल 100
▁लाबान 100
▁utilis 100
▁तापक्रम 100
▁पुर्याइ 100
जान 100
▁KDEPrint 100
▁Update 100
▁Eastern 100
▁मतदान 100
▁brain 100
▁Reload 100
▁रत्न 100
▁aspect 100
▁यसैगरी 100
▁दर्जन 100
▁बेतेल 100
▁झापा 100
Admin 100
▁बाछा 100
graphic 100
▁बोन्ड 100
▁सोध्नुहोस् 100
६७ 100
▁Hence 100
्थें 100
▁oppression 100
▁टक्स 100
▁गन्ध 100
▁wallet 100
▁Programmes 100
ivity 100
▁सम्पर्कहरू 100
▁Lock 100
▁हुनसक्ने 100
▁ju 100
▁dump 100
▁emphasized 100
▁डट 100
हुनेछ 100
मूल 100
▁दिएनन् 100
▁वर्षअघि 100
▁चाहिए 100
▁सर्त 100
▁क्षेत्रहरू 100
▁गोठालाहरू 100
ारण 100
▁recommended 100
22 100
▁cor 100
▁differences 100
▁risen 100
▁obtained 100
▁clock 100
▁भएता 100
▁origin 100
▁tile 100
▁suffered 100
▁रिसाए 100
▁मान्य 100
▁39 100
▁परी 100
▁आयु 100
▁घटाउने 100
▁आउट 100
पर्दछ 100
ट्स 100
▁तान्न 100
▁Canaanite 100
▁डाइ 100
▁ल्याएर 100
▁demands 100
▁practices 100
८२ 100
▁हारूनका 100
▁lamp 100
ola 100
▁बनेका 100
▁principles 100
▁Em 100
▁शब्दमा 100
▁farms 100
▁समयदेखि 100
ाउँनेछु 100
ासी 100
case 100
▁भनिने 100
▁Mary 100
order 100
▁पै 100
TM 100
69 100
aim 100
ette 100
system 100
▁तरीका 100
▁मारि 100
related 100
पोर्ट 100
्रिक 100
▁कोट 100
पर्यो 100
ठीक 100
▁resolve 100
▁लगाएका 100
▁तास 100
मन्त्री 100
▁जङ्गल 100
▁युरोप 100
ऋ 100
पर्ूण्ा 100
▁1983/84 100
▁HMG 100
▁Lumbini 100
▁SVG 100
▁adversaries 100
▁desolation 100
▁hungry 100
▁species 100
▁अभिवादन 100
▁कटौती 100
▁प्रक्षेपण 100
▁प्रवक्ता 100
▁रजस्वला 100
▁सदैव 100
▁सुख्खा 100
▁allocation 100
▁micro 100
▁भइसकेका 100
▁flame 100
▁युवक 100
▁dried 100
▁समझदारी 100
▁outlay 100
▁intensive 100
▁snare 100
▁Bookmark 100
Result 100
▁स्किमा 100
▁अनौठ 100
▁परिप्रेक्ष्य 100
▁पार्टीका 100
▁testify 100
▁वृक्ष 100
▁cancer 100
▁२०१६ 100
▁2015 100
▁herbs 100
▁हतार 100
▁playlist 100
वासीहरू 100
▁शीर्षकपट्टी 100
▁kindled 100
▁पठाइएको 100
▁प्रसङ्ग 100
▁Full 100
▁ल्याउनुहोस् 100
▁habitation 100
▁blow 100
▁कमजोरी 100
EC 100
▁offset 100
▁अग्ला 100
▁ल्याउनेछु 100
▁exactly 100
▁पढ्नुहोस् 100
▁तुरुन्तै 100
▁सक्रियता 100
▁संघको 100
▁ह्यु 100
▁जसद्वारा 100
▁Woe 100
▁Login 100
▁accounts 100
▁लेख्नुहोस् 100
▁आलु 100
▁पाँचौं 100
▁ox 100
▁कोनिक 100
▁Stop 100
स्कृत 100
▁बन्यो 100
▁taxes 100
▁score 100
गामी 100
▁undo 100
▁Ben 100
▁greatest 100
▁काटेर 100
▁अन्तरि 100
▁bulls 100
शान 100
▁documentation 100
inary 100
▁restored 100
▁रेड 100
▁config 100
▁mourning 100
▁कोठाहरू 100
▁urge 100
ule 100
▁messengers 100
३८ 100
▁दूतहरू 100
▁पिए 100
्युट 100
▁learning 100
▁handled 100
▁experienced 100
ila 100
ाइड 100
▁पोस्ट 100
▁चारै 100
nick 100
ख्या 100
▁अही 100
▁socket 100
▁हराउने 100
▁organisation 100
▁बोध 100
▁Khan 100
▁Multi 100
▁linked 100
▁कारोबारमा 100
▁aren 100
▁प्रभुको 100
▁क्यारेक्टरहरू 100
▁Printer 100
त्तै 100
72 100
place 100
▁लगायत 100
▁specialist 100
▁निज 100
▁older 100
▁तिनै 100
▁बदल्न 100
gas 100
3,000 100
▁इन्स 100
▁भोट 100
▁गरिरहेछ 100
भेद 100
१६ 100
EN 100
▁तोक्न 100
atic 100
▁pointer 100
हुंदैन 100
आउट 100
उत्पादन 100
apa 100
▁तर्कहरू 100
▁धारण 100
▁कुलबाट 100
्ड 100
▁RA 100
▁gra 100
▁consume 100
▁ठूल 100
▁क्रे 100
▁stretch 100
अनि 100
▁बुद्धिमान 100
ini 100
▁adverse 100
▁खानेपानीको 100
▁plug 100
▁उपहारहरू 100
दिनुहोस् 100
elcome 100
▁naked 100
्नुपर्ने 100
शमशेर 100
▁Preferences 100
▁Video 100
▁absolute 100
▁blemish 100
▁literacy 100
▁resolution 100
▁swallow 100
▁virtual 100
▁तेश्रो 100
▁न्यायकर्त्ता 100
▁पब्लिक 100
▁भरपर्दो 100
▁भूमिसुधार 100
▁श्रद्धा 100
▁Ayurved 100
▁PDA 100
▁Position 100
▁अल्पविराम 100
▁आहाज 100
▁रिबेका 100
▁एकत्रित 100
▁Chaldeans 100
▁cedar 100
ोन्मुख 100
▁कृति 100
ão 100
▁latter 100
▁संयन्त्र 100
▁tied 100
▁involvement 100
▁spell 100
apt 100
▁देखाउँदछ 100
▁timely 100
▁Foundation 100
▁फिलिप 100
▁fake 100
▁अबनेर 100
▁Someone 100
▁मुखिया 100
▁Bethel 100
▁lightning 100
▁असुल 100
▁फर्काई 100
▁Changes 100
▁सित्र्चाइ 100
▁वृद्धिदर 100
▁keyring 100
▁agreed 100
▁10,000 100
▁sex 100
▁मुल 100
▁dance 100
भक्त 100
ग्रह 100
▁Drag 100
Bring 100
▁उसै 100
▁मिल्दछ 100
्लो 100
weekday 100
▁म्याक 100
▁SQL 100
विद् 100
ask 100
▁पाउनेछ 100
▁annually 100
▁नाति 100
▁परेर 100
▁गराइ 100
्वित 100
▁गरिबी 100
▁डाक 100
▁केटीहरू 100
▁३४ 100
बन 100
▁बाख्रा 100
▁Loading 100
▁वह 100
▁गर् 100
▁Has 100
▁चढाएको 100
वत् 100
ney 100
pat 100
▁पारियो 100
▁सक्थे 100
▁transaction 100
▁hectare 100
▁scribes 100
▁खुव 100
reg 100
▁creatures 100
▁transactions 100
▁गर्दैछन् 100
▁भइरह 100
▁३९ 100
▁संलग्नता 100
▁बीज 100
प्रद 100
ट्टी 100
▁figures 100
▁flower 100
▁मनाउन 100
▁जरा 100
भने 100
ज्ञान 100
▁grants 100
▁एच 100
▁उठाउनु 100
▁लड्न 100
▁बसाल 100
▁highlight 100
▁६५ 100
scribe 100
▁donkeys 100
▁उपकरणहरु 100
▁राखियो 100
value 100
क्रो 100
▁निस्कन 100
ञ 100
made 100
There 100
All 100
▁calling 100
▁rapid 100
राख्न 100
ाँउछ 100
▁asking 100
▁tiles 100
▁पाखुरा 100
▁Earlier 100
▁Quanta 100
▁Software 100
▁Status 100
▁Street 100
▁combination 100
▁criminal 100
▁goddess 100
▁intellectual 100
▁operator 100
▁provoke 100
▁satisfied 100
▁silence 100
▁swear 100
▁अनावश्यक 100
▁अभिषेक 100
▁असहाय 100
▁ध्रुव 100
▁रेखाङ्कन 100
▁रोकथाम 100
▁समग्र 100
▁सादोक 100
▁हस्तक्षेप 100
▁Details 100
▁eleven 100
▁juice 100
▁शिखर 100
▁सांसद 100
▁roof 100
▁storm 100
▁र्वष 100
▁strict 100
▁solar 100
▁Thank 100
▁Talk 100
▁suspension 100
▁अग्रसर 100
▁salary 100
▁चिल्लो 100
▁brook 100
▁रक्सी 100
▁miles 100
▁Authority 100
▁Abram 100
▁stability 100
▁पारिवार 100
▁देखिँदैन 100
▁Production 100
बदल 100
▁शिमी 100
▁नजीक 100
▁Email 100
▁पद्म 100
▁नदेऊ 100
▁partition 100
▁बालिका 100
▁chest 100
▁संवेदनशील 100
▁व्याज 100
र्ुपर्छ 100
▁पञ्च 100
▁filesystem 100
▁सागर 100
▁Village 100
▁निर्मित 100
▁नगरिएका 100
▁wept 100
▁reap 100
▁CPU 100
▁सम्बद्ध 100
▁Shall 100
▁Once 100
▁विचारहरू 100
▁HP 100
▁प्रतिष्ठान 100
▁complaint 100
▁Station 100
▁अधिराज्यभर 100
▁असमर्थित 100
▁described 100
▁merge 100
%% 100
▁passes 100
ility 100
▁सचेतक 100
▁MB 100
▁नर्स 100
ii 100
▁exception 100
pra 100
▁शास्त्रीहरू 100
२९ 100
▁गर्नुहोस 100
ML 100
▁learned 100
97 100
▁Col 100
▁Char 100
▁strengthening 100
▁रोम 100
▁measured 100
▁रेखाहरू 100
थिए 100
▁talents 100
▁हेरेर 100
▁bio 100
समय 100
▁Bh 100
bus 100
cial 100
▁38 100
100 100
वार्ड 100
▁बुल 100
ल्ली 100
▁warm 100
▁नपाए 100
▁बचाउँनु 100
घट 100
▁स्वरुप 100
▁creature 100
▁chariot 100
ppa 100
▁needy 100
▁अपराधी 100
▁भागेर 100
31 100
▁परमेश्वरसित 100
▁लू 100
▁ग्या 100
▁मेनुबाट 100
▁पाई 100
्मोन 100
▁पक्राउ 100
▁Top 100
▁घु 100
▁रोजगारीका 100
▁भएकी 100
rum 100
▁सहितको 100
्रय 100
▁इँट 100
▁सेनाका 100
▁क्षेत्रहरूमा 100
57 100
▁publish 100
▁cap 100
▁कता 100
ठी 100
एउटा 100
प्रयोग 100
प्रयोगकर्ता 100
▁इन्टर 100
▁accordingly 100
▁punish 100
anj 100
▁अस्पतालहरु 100
▁redeem 100
▁वृ 100
लोन 100
ाउँनु 100
▁गतिशील 100
खाना 100
ाउण्ड 100
▁careful 100
▁"% 100
▁छैठौ 100
▁पुनसुरु 100
plan 100
▁flour 100
▁Event 100
▁Shechem 100
▁serpent 100
▁trigger 100
▁College 100
▁Private 100
▁Shankar 100
▁encoder 100
▁illegal 100
▁participants 100
▁अजर्याह 100
▁गिरावट 100
▁चुरोट 100
▁पिछडिएक 100
▁यहोयादा 100
▁रमाइलो 100
▁वीरगञ्ज 100
▁baby 100
▁copied 100
▁folk 100
▁indirect 100
▁macro 100
▁uncover 100
▁प्रतिरोध 100
▁Scale 100
▁सघन 100
▁exceedingly 100
▁दाँत 100
▁भक्तजनहरू 100
▁assigned 100
▁palm 100
▁Resize 100
▁railway 100
▁दाँज 100
▁petroleum 100
▁पहल 100
▁Selah 100
▁generating 100
▁प्रदूषण 100
▁crash 100
▁Profile 100
minated 100
▁spiritual 100
▁directories 100
▁वीउ 100
▁ल्याइएको 100
▁अन्तराल 100
▁स्तनको 100
▁वालेट 100
▁Mer 100
▁(1 100
▁उत्तिक 100
▁सापेक्ष 100
ोदय 100
▁lament 100
▁economically 100
▁gray 100
▁हत्यारा 100
▁बाजा 100
▁चल्न 100
▁सम्भवतः 100
▁educated 100
▁Write 100
▁स्टार 100
▁contribut 100
▁bowl 100
▁highlighted 100
▁तोक 100
म्बु 100
▁FTP 100
गोल 100
▁साहसी 100
▁लिइने 100
▁setup 100
▁sexually 100
▁devotees 100
▁बिहानै 100
▁अगमवक्ताहरूले 100
▁needle 100
▁City 100
बन्दी 100
▁ल्याएका 100
▁भान 100
सेर 100
▁विजयी 100
▁चोरी 100
▁जगत 100
▁रोजगारीको 100
▁promoted 100
▁लागी 100
▁गर्द 100
▁कथाहरू 100
▁दण्डित 100
▁डाय 100
▁cycle 100
▁heap 100
▁अन्यत्र 100
▁जता 100
MP 100
▁fan 100
▁Saving 100
▁फ्याँकि 100
▁(@ 100
▁खोले 100
ED 100
▁ठाउँहरूमा 100
गठित 100
▁दीप 100
▁तिर्नु 100
▁पूर्वक 100
▁Setting 100
▁बोल्छ 100
▁इतिहासको 100
▁Accordingly 100
26 100
जुल 100
92 100
वित 100
▁व्यवसायीहरू 100
▁cups 100
▁गुज 100
▁तहका 100
छोरी 100
▁sisters 100
घात 100
▁quarters 100
▁rare 100
▁गीतहरू 100
▁चुन्नु 100
▁references 100
हिर 100
छिन् 100
▁unusual 100
पवित्र 100
▁locally 100
source 100
टुक्रा 100
स्वरूप 100
▁विश्वमा 100
▁चिहानमा 100
▁oppress 100
▁expressions 100
atha 100
▁400 100
▁stands 100
▁Dang 100
▁introduce 100
▁देह 100
▁भद्राक्ष 100
▁Agency 100
▁Assembly 100
▁Calendar 100
▁Indonesia 100
▁guarantee 100
▁happiness 100
▁kidney 100
▁removing 100
▁studied 100
▁victory 100
▁अन्तर्रर्ााट्रय 100
▁उम्मेदवार 100
▁जिब्रो 100
▁टेलिभिजन 100
▁प्रतीक्षा 100
▁समुचित 100
▁Boston 100
▁bottle 100
▁decree 100
▁fourteen 100
▁profane 100
▁मिद्यान 100
▁मोर्दकै 100
▁Title 100
▁virus 100
▁अलावा 100
▁animation 100
▁Index 100
▁betray 100
▁महासंघ 100
.148 100
▁tube 100
▁बतास 100
▁Syrians 100
▁छेऊ 100
▁परिच्छेद 100
▁submitted 100
▁ownership 100
▁Restart 100
▁रूपरेखा 100
▁oversea 100
▁सहवास 100
▁आवश्यकतानुसार 100
▁मारिदिए 100
▁Device 100
▁ghost 100
▁suddenly 100
▁Road 100
▁Know 100
GL 100
▁Short 100
▁Reform 100
▁प्रतिबन्ध 100
▁इट्टा 100
▁क्षेत्रफल 100
▁Directory 100
▁बस्ती 100
▁encountered 100
▁भयौ 100
▁सङ्धठन 100
▁bold 100
help 100
▁शीत 100
▁पाइयो 100
▁du 100
▁matches 100
▁Sho 100
▁३८ 100
They 100
▁lesson 100
ञ्चित 100
▁सिकाउनु 100
▁rent 100
▁Tar 100
▁Win 100
▁checking 100
▁farm 100
शिल 100
▁शाय 100
▁दिनुपर्ने 100
▁Ke 100
▁Big 100
तर्फबाट 100
ima 100
:% 100
▁stretched 100
▁जोडाइ 100
▁सिक्न 100
मिति 100
▁matters 100
▁जुटाउन 100
▁श्र 100
cular 100
▁लौ 100
▁eliminate 100
▁घण्टी 100
▁gained 100
▁मातृ 100
▁आजसम्म 100
न्च 100
▁नाक 100
▁MP 100
aries 100
▁यसअघि 100
▁सोध्नु 100
▁protected 100
▁Named 100
▁Sam 100
▁सुत्ने 100
म्यान 100
jan 100
▁entering 100
▁vegetables 100
now 100
▁सामानहरू 100
▁बेल 100
▁अं 100
▁pole 100
▁relation 100
▁तरिकाबाट 100
▁चन्द्रमा 100
▁छोडी 100
▁55 100
▁क्वा 100
▁देखी 100
▁घटे 100
रेस 100
▁tear 100
94 100
Face 100
गर्ने 100
▁शिक्षाहरू 100
२४ 100
▁आफन्त 100
▁arms 100
▁weigh 100
load 100
& 100
default 100
पुस्तक 100
▁Chang 100
config 100
▁लान 100
गुण 100
▁gener 100
▁register 100
मोर 100
▁सकियो 100
▁लक 100
uli 100
scale 100
▁37 100
▁तुरुन्त 100
गमन 100
▁सुगन्ध 100
▁comments 100
▁हाड 100
▁liquid 100
मञ्जूषा 100
▁Trans 100
{1} 100
▁advertis 100
▁Factory 100
▁Graph 100
▁Package 100
▁Student 100
▁Technology 100
▁elephant 100
▁executing 100
▁identification 100
▁investigation 100
▁occurrence 100
▁slaughter 100
▁teenager 100
▁universe 100
▁क्ष्ँेत्र 100
▁नडराऊ 100
▁प्रतियोगिता 100
▁फेसबूक 100
▁भौगर्भिक 100
▁लिमिटेड 100
▁GIF 100
▁engrave 100
▁multiply 100
▁यिशै 100
▁फोहोर 100
▁Tyre 100
▁append 100
▁spices 100
▁यातना 100
▁गल्ली 100
▁peak 100
▁statue 100
बित्तिकै 100
▁ruin 100
▁तथ्यांक 100
▁Midian 100
▁stirred 100
▁क्रियाशील 100
▁व्याजदर 100
▁धर्ती 100
▁solid 100
▁सभापति 100
▁श्रमशक्ति 100
▁ठाउँहरू 100
▁मेसिन 100
▁skillful 100
▁मुल्य 100
▁clip 100
▁jute 100
▁स्टेशन 100
▁2017 100
▁caught 100
▁महसू 100
▁समर्पण 100
▁मैला 100
▁अगाडी 100
▁राज्यपाल 100
▁सींङ 100
▁बदला 100
▁ढाकेको 100
▁villagers 100
▁चर्को 100
▁शैया 100
▁नयां 100
RC 100
ensive 100
▁climate 100
▁facilitate 100
▁पुकार 100
▁बाबा 100
▁Undo 100
▁driven 100
▁Long 100
▁torn 100
▁कार्यालयहरु 100
▁attraction 100
▁चेला 100
▁Listen 100
▁devoured 100
▁उपस्थिति 100
▁finding 100
मानिस 100
▁escaped 100
▁बिदा 100
▁सम्झनु 100
▁tests 100
▁mock 100
▁मसंग 100
▁Christian 100
▁विषयहरु 100
▁नपार 100
abha 100
▁बनाइए 100
▁खेर 100
▁यसपछि 100
▁Say 100
▁variables 100
▁marked 100
▁नोक्सानी 100
▁procedures 100
▁मिलाए 100
दिन्छ 100
▁47 100
isation 100
्ाा 100
▁सर्वे 100
▁डोर 100
ftp 100
पाटी 100
eh 100
▁Sil 100
▁रक्षक 100
▁बनाइनेछ 100
▁अञ्चलको 100
▁राजाहरूलाई 100
फेस 100
▁हुदै 100
▁बरु 100
▁duplicate 100
▁मनश्शेका 100
▁उभिएका 100
मन्त्र 100
▁shed 100
▁कष्टहरू 100
stat 100
itch 100
▁बाटा 100
▁caus 100
▁पारिदिनु 100
▁असं 100
क्षय 100
▁signing 100
▁गेट 100
▁वास्तविकता 100
▁sessions 100
▁gifts 100
zo 100
▁वेद 100
▁pu 100
ूँ 100
▁उपत्यकामा 100
▁उभ 100
▁worker 100
▁offers 100
{ 100
अधिकार 100
नीति 100
wood 100
ोडेर 100
रङ 100
७४ 100
▁dam 100
▁mix 100
▁multitudes 100
▁डोर्याउन 100
▁clouds 100
▁चन्द 100
▁Abimelech 100
▁Damascus 100
▁February 100
▁Function 100
▁Progress 100
▁borrow 100
▁brackets 100
▁conduit 100
▁evidence 100
▁magnet 100
▁obstacle 100
▁renovation 100
▁senior 100
▁supervision 100
▁translation 100
▁unleavened 100
▁unnecessary 100
▁गवाही 100
▁निशुल्क 100
▁बन्दरगाह 100
▁बेतलेहेम 100
▁हैसियत 100
▁कूवा 100
▁गिबोन 100
▁प्याड 100
▁कम्बो 100
▁Value 100
▁खूब 100
▁Fund 100
▁मामिला 100
▁Gtk 100
▁overcome 100
▁insult 100
▁शंका 100
▁Children 100
▁ब्यक्ति 100
Your 100
▁conversion 100
▁laboratory 100
▁Highlight 100
▁Praise 100
▁Drink 100
▁mobilization 100
▁nakedness 100
▁विपत्ति 100
▁साधारणतया 100
▁लाग्दैन 100
▁अलग्ग 100
▁prosperity 100
▁Zone 100
▁Latin 100
▁renew 100
▁पेपर 100
▁खन्नुहोस् 100
▁deeds 100
▁interpretation 100
▁डेढ 100
▁Market 100
▁खालीस्थान 100
▁Later 100
▁घोर 100
▁gpg 100
▁बिचार 100
▁लुकाए 100
▁Paulo 100
▁USB 100
▁Must 100
▁निर्वाह 100
▁लोप 100
▁नहोस् 100
मंत्र 100
▁जर्ज 100
▁फूलहरू 100
▁समातेर 100
▁आधारहरू 100
▁ट्रि 100
वर्ण 100
ठो 100
▁nest 100
▁भनौं 100
▁साङ्ग 100
दैनन् 100
▁किरण 100
▁अत्य 100
▁तीब्र 100
▁नगर्न 100
प्रो 100
अमान्य 100
▁बुद्धिमानी 100
र्श 100
▁Arrangements 100
▁सेन्टर 100
देवी 100
▁कारक 100
atory 100
▁कोटि 100
▁bat 100
▁कृषकहरुलाई 100
▁Qt 100
▁चित्त 100
▁devise 100
▁अर्कोतर्फ 100
▁मेला 100
▁seeks 100
▁यहा 100
▁चिर 100
▁सिट 100
▁balanced 100
▁राख्दै 100
९० 100
्धन 100
▁झै 100
▁shepherd 100
▁smaller 100
कुन 100
८४ 100
▁हराउन 100
▁देखिदैन 100
▁चुक 100
ब्य 100
▁Mad 100
९४ 100
▁खाँदै 100
▁खोर 100
1" 100
new 100
▁scribe 100
▁हेरोद 100
hari 100
▁sam 100
▁हटाए 100
▁committees 100
▁अध 100
▁चो 100
▁उमेरका 100
▁सुनाए 100
▁निकाल्न 100
निर्धारण 100
▁discuss 100
उपयोग 100
tune 100
hya 100
स्कर 100
▁desires 100
▁कांग्रेसको 100
▁मरेका 100
▁बनाउँदछ 100
apps 100
ाइदिनु 100
▁Form 100
▁flags 100
▁ignore 100
▁decide 100
▁happens 100
▁वृद्ध 100
च्छेद 100
देऊ 100
▁सङ्घ 100
▁कुसुण्डा 100
▁जनसाधारण 100
▁बिशेष 100
Generic 100
elecommunication 100
▁Account 100
▁Almighty 100
▁Bagmati 100
▁Bethlehem 100
▁Chicago 100
▁Economic 100
▁Psalm 100
▁Unsupported 100
▁Zoom 100
▁continuing 100
▁delegate 100
▁leprosy 100
▁mistake 100
▁relief 100
▁securities 100
▁technicians 100
▁आश्रित 100
▁इश्माएल 100
▁कन्ड्युट 100
▁क्लिनिक 100
▁चुम्बक 100
▁जलवायु 100
▁टेलिस्कोप 100
▁पुनप्रयास 100
▁प्रख्यात 100
▁प्रवर्धन 100
▁भ्रष्टाचार 100
▁मूल्यांकन 100
▁श्रृजना 100
▁स्ट्रोक 100
▁boost 100
▁century 100
▁experts 100
▁summer 100
▁अग्नि 100
▁उजाड 100
▁खरायो 100
Description 100
▁काँध 100
▁पेट्रोलियम 100
▁हल्का 100
▁glass 100
▁cement 100
▁introduction 100
midd 100
▁drama 100
▁Mailbox 100
▁Thapa 100
▁ग्रीक 100
▁राजकुमार 100
▁dropped 100
▁welcome 100
▁आइरहेछ 100
▁infant 100
▁सुदृढीकरण 100
▁कच्च 100
▁motion 100
▁motor 100
▁बेग्ल 100
▁पाउलो 100
▁Light 100
▁oath 100
▁Tux 100
▁देख्नेछन् 100
▁Ok 100
▁आत्मिक 100
▁रोक्नुहोस् 100
▁गरिदैछ 100
▁थापा 100
bah 100
▁कठिनाइ 100
▁initialize 100
▁TV 100
▁आयोजनाअन्तर्गत 100
▁शिक्षित 100
▁दासहरू 100
▁भन्नुहोस् 100
▁interesting 100
▁डरलाग्दा 100
▁html 100
▁Chu 100
▁छोए 100
▁Currently 100
▁symptoms 100
▁Max 100
▁उद्यमी 100
▁refused 100
▁sharing 100
▁arrived 100
▁activated 100
▁साइड 100
▁सक्दछन् 100
३५ 100
▁Gath 100
▁mounted 100
▁decreased 100
▁केबल 100
▁समयमै 100
▁निकालेर 100
त्रो 100
▁अनुरूप 100
▁cursed 100
him 100
▁reporter 100
▁हानी 100
▁demons 100
गरे 100
▁सञ्झ्यालहरू 100
भिन्न 100
▁'% 100
▁तोड 100
▁पर्दछन् 100
▁Cancel 100
आइ 100
्रेट 100
ज्जा 100
▁देशभित्र 100
▁मर्छ 100
▁रहेर 100
part 100
▁tears 100
▁vegetable 100
▁principle 100
▁पुग्नु 100
▁विद्यालयहरु 100
▁employee 100
▁भोग्नु 100
▁कर्महरू 100
भुत 100
▁भूमिबाट 100
▁स्वरमा 100
▁पल 100
▁क्रस 100
ेक्ट 100
▁लगि 100
▁challenges 100
▁पलिश्तीहरूले 100
▁देखाइ 100
▁भागहरू 100
▁१५० 100
▁भाग्ने 100
▁घुसाउन 100
▁इलाकामा 100
▁feared 100
▁nose 100
▁प्रेमी 100
निर्माण 100
nbsp 100
ISO 100
▁छान्नु 100
विधि 100
▁infrastructures 100
flow 100
▁चाहेका 100
will 100
▁searched 100
▁सावधान 100
▁देशभर 100
▁anoint 100
▁कन्फिग 100
option 100
▁unexpected 100
▁टुक्राहरू 100
▁द्रष्टव्यहरू 100
▁forsake 100
▁mobilis 100
▁conscious 100
▁revolution 100
▁pack 100
▁दीर्घ 100
परिमार्जित 100
▁1988 100
▁Album 100
▁Balaam 100
▁Bhairahawa 100
▁Extension 100
▁Investment 100
▁JavaScript 100
▁Zedekiah 100
▁manufacture 100
▁petition 100
▁qualitative 100
▁stories 100
▁transmission 100
▁आशिष 100
▁कृत्रिम 100
▁जहिले 100
▁जैविक 100
▁नटलस 100
▁पत्राचार 100
▁पदयात्रा 100
▁भजनसंग्रह 100
▁मेगाबाइट 100
▁सर्भेक्षण 100
▁स्क्रिन 100
_ 100
▁Consider 100
▁crush 100
▁शताब्दी 100
▁guest 100
▁Josiah 100
▁behalf 100
▁प्रतिबद्धता 100
▁सुलभ 100
▁reply 100
▁चिन्तन 100
▁वाचन 100
▁उपसर्ग 100
▁आदर्श 100
▁wonderful 100
▁prefix 100
▁अप्रिल 100
▁Child 100
▁सभामुख 100
▁prospect 100
▁आवरण 100
▁गर्मी 100
▁workshop 100
▁ब्याङ्क 100
▁२००७ 100
▁thin 100
▁Human 100
▁उपवास 100
▁तितर 100
▁businessmen 100
▁व्यक्तित्व 100
▁personality 100
▁dedicated 100
▁प्रतिवर्ष 100
▁assistant 100
▁forsaken 100
▁स्टोर 100
▁dir 100
▁chance 100
▁stir 100
▁तानेर 100
▁Fill 100
▁meters 100
▁तोडा 100
▁पारिन्छ 100
▁अनुमतिपत्र 100
▁afflicted 100
▁temp 100
▁considerable 100
▁पार्दा 100
▁defiled 100
▁सोध्ने 100
▁divisions 100
▁सिंहासनमा 100
▁नदिने 100
▁गाभ 100
▁ब्रि 100
▁प्रजा 100
▁utilized 100
▁Share 100
▁सङ्गठन 100
▁redeemed 100
▁बाला 100
▁1.0 100
▁ease 100
▁mal 100
▁armor 100
▁मदन 100
▁वास्ता 100
▁केटो 100
▁प्रयोगकर्ताहरू 100
▁corrupted 100
▁अफ्रिका 100
▁कमारी 100
▁अन्याय 100
ोचक 100
▁addresses 100
▁Samba 100
▁कप 100
▁हाम्र 100
▁updated 100
▁^ 100
ऊँ 100
▁मानिएको 100
▁एकीकरण 100
▁weapons 100
▁कैदीहरू 100
▁metal 100
▁collecting 100
meter 100
▁ब्याक 100
▁पुग्नेछ 100
▁भएनन् 100
arian 100
▁endures 100
▁हुनुभन्दा 100
▁घमण्डी 100
▁wages 100
▁चालक 100
▁treasures 100
CC 100
▁सडकहरु 100
▁Lot 100
▁citizen 100
▁जातिहरूलाई 100
▁lamps 100
िणी 100
▁प्राणीहरू 100
▁बिग 100
hort 100
क्री 100
▁सम्पादकमा 100
▁42 100
▁भण्डारी 100
▁minute 100
▁Mac 100
▁estimates 100
pass 100
roll 100
▁बस्छ 100
▁जिते 100
▁render 100
thrown 100
▁owned 100
standing 100
फ्रेम 100
Ctrl 100
View 100
आफ्ना 100
बर्ग 100
यसकारण 100
▁highways 100
ीठो 100
▁passing 100
▁छोडि 100
रेख 100
▁दाल 100
▁distribute 100
▁तिम्र 100
▁माता 100
▁बौद्ध 100
बाज 100
बिना 100
▁immediate 100
▁undertake 100
▁खेल्ने 100
सिल 100
▁पाइन 100
▁Encrypt 100
▁cultiva 100
▁danger 100
▁Common 100
▁Efforts 100
▁Environment 100
▁Expand 100
▁GConf 100
▁Jericho 100
▁afforestation 100
▁blasphem 100
▁circumstances 100
▁platform 100
▁wizard 100
▁अधिवेशन 100
▁अनुमोदन 100
▁अभिग्रहण 100
▁गिरफ्तार 100
▁निजामती 100
▁परिवर्तित 100
▁मङ्गलबार 100
▁मेगावाट 100
▁मेडिकल 100
▁सदरमुकाम 100
▁हानिकारक 100
▁DPI 100
▁PDF 100
▁console 100
▁डेइमोन 100
▁शङ्कर 100
▁सत्तरी 100
▁vocational 100
▁wander 100
▁कम्मर 100
▁advise 100
▁नूह 100
▁Power 100
▁सिकागो 100
▁astray 100
▁kiss 100
▁Target 100
▁सारांश 100
▁इन्जिनियर 100
▁उत्पत्ति 100
▁राष्ट्रसंघ 100
▁सचिवालय 100
▁acid 100
▁आउँनेछ 100
▁Process 100
▁Perform 100
▁चम्किलो 100
▁देखापर्यो 100
▁1997 100
▁संगठित 100
▁सभाघर 100
▁गाडे 100
▁250 100
▁northern 100
▁सकृय 100
▁जूम 100
▁प्रत्यायोजन 100
▁शुभ 100
▁गरिँदैछ 100
▁असम्भव 100
▁अपवाद 100
▁बताउँछन् 100
▁उच्चस्तरीय 100
▁ध्व 100
▁projection 100
▁== 100
▁पुष्टि 100
▁हुँदछ 100
▁2002 100
▁विहान 100
▁कमिट 100
▁गर्थ्यो 100
▁हुँनेछ 100
▁बडो 100
▁औंला 100
▁मर्नेछन् 100
नयाँ 100
▁Bharat 100
▁reset 100
▁engaged 100
▁vertically 100
८१ 100
▁पाइन्छन् 100
range 100
air 100
▁उमेरमा 100
▁painting 100
▁gar 100
▁दुखी 100
▁robe 100
▁Wait 100
▁कुलहरू 100
char 100
खेल 100
▁जोडिए 100
▁बेच्ने 100
IP 100
▁नोकरले 100
▁aimed 100
ासाथ 100
▁Arya 100
▁counted 100
▁searching 100
संस्था 100
▁बालकहरू 100
▁उठ्न 100
▁cookies 100
▁चिज 100
चाइ 100
ela 100
▁Men 100
▁कृषकहरु 100
▁Base 100
▁tar 100
▁मिश्रित 100
▁सुपर 100
▁छरिए 100
▁wonders 100
६४ 100
▁fed 100
hang 100
वाई 100
▁उठ्ने 100
▁दोहोर्याउन 100
▁Does 100
▁labels 100
lib 100
▁प्रविष्टिहरू 100
▁जोड्ने 100
▁पृष्ठहरू 100
▁Dia 100
▁भेट्ने 100
उँछ 100
हिरो 100
▁५९ 100
▁भाग्न 100
▁elder 100
तह 100
▁sockets 100
▁investor 100
▁पक्रे 100
▁Radio 100
जन्य 100
शेबा 100
▁गल 100
▁बहन 100
▁क्यान 100
56 100
▁जसका 100
▁heading 100
▁विस्तारै 100
▁सघाउन 100
▁निकाल्ने 100
▁ऊनी 100
▁रिड 100
▁interested 100
▁मारिने 100
▁पस्न 100
▁भर्न 100
▁ill 100
▁सिके 100
=" 100
प्रबन्धक 100
केडीई 100
तालिका 100
जुन 100
बजार 100
▁ल्याउँद 100
col 100
local 100
▁sal 100
यहाँ 100
▁express 100
▁ordered 100
▁upgrade 100
▁प्रदाय 100
▁उनि 100
▁ठाउँबाट 100
▁chose 100
पाट 100
▁prior 100
▁समर्प 100
▁Activate 100
▁Financial 100
▁Include 100
▁Mordecai 100
▁Philip 100
▁Pilate 100
▁Population 100
▁Regular 100
▁Supply 100
▁deprived 100
▁evident 100
▁herself 100
▁inflation 100
▁junk 100
▁primarily 100
▁registration 100
▁twice 100
▁vaccine 100
▁अप्रत्यक्ष 100
▁उत्तरदायित्व 100
▁जकर्याह 100
▁त्रिवर्षीय 100
▁निष्कर्ष 100
▁परिमार्जक 100
▁रित्तो 100
▁लुम्बिनी 100
▁व्यायाम 100
▁१९८९ 100
▁२०४७ङ्ग४८ 100
▁History 100
▁buddy 100
▁drought 100
▁visual 100
▁Iraq 100
▁आयोजित 100
▁जादू 100
▁बाचन 100
▁'{0}' 100
▁veil 100
▁चिच्याए 100
▁खमीर 100
▁roar 100
▁Coordination 100
सामयिक 100
▁swap 100
▁Primar 100
▁ढुंगा 100
▁knee 100
▁बेरोजगार 100
▁cherubim 100
▁र्फक 100
▁Scripture 100
▁म्याक्रो 100
▁प्रभावशाली 100
▁lawyer 100
▁फोहर 100
▁teen 100
▁भाकल 100
▁childhood 100
ilateral 100
▁सशक्त 100
▁उत्तरदायी 100
▁विविधीकरण 100
▁टायर 100
▁वक्ता 100
▁titlebar 100
▁छानिएका 100
▁संभावना 100
▁catch 100
▁Brahma 100
▁साइनिङ 100
ोत्तर 100
▁इराक 100
▁beast 100
▁ऊन 100
▁गार्ड 100
▁systematic 100
▁सार्दा 100
▁वर्गीकरण 100
▁unread 100
▁विश्वस्त 100
▁prevention 100
▁दशौं 100
▁विन्दु 100
ये 100
▁कित्ता 100
▁कुकर्म 100
▁स्थानिय 100
▁सिक्ने 100
▁समाजका 100
▁earned 100
▁मिश्रण 100
▁weeping 100
▁पायो 100
▁schemes 100
▁निम्नलिखित 100
▁वहु 100
▁माग्न 100
▁TB 100
▁योजनाअन्तर्गत 100
▁पूर्णरूप 100
▁tune 100
▁Jag 100
▁prayed 100
▁गुरू 100
▁Amorites 100
▁quanti 100
▁अधिकारीहरूलाई 100
▁spin 100
▁unity 100
▁trusted 100
▁वो 100
▁59 100
▁दाना 100
atri 100
गण 100
▁capita 100
▁हिंड्न 100
चारी 100
▁सोध्न 100
▁MA 100
कर्ताहरू 100
▁६३ 100
हदद 100
प्लेट 100
logical 100
▁हिर्काउ 100
power 100
▁मूर्खता 100
▁पूज 100
PC 100
ल्याण्ड 100
▁64 100
▁विशेषताहरू 100
▁समाते 100
इस्राएल 100
▁Initial 100
▁चिच्याउ 100
व्यवस्था 100
▁testing 100
▁त्यागे 100
▁गर्दैनौ 100
टिभ 100
▁तथ्याक 100
▁सोच्न 100
6,000 100
ायौं 100
▁हराएको 100
▁निस्केको 100
US 100
▁दम 100
▁resize 100
▁६२ 100
▁मेटिए 100
▁fulfil 100
ised 100
▁भिड 100
▁बचाउँन 100
▁preach 100
▁घरि 100
probability 100
यर्मिया 100
Type 100
defined 100
field 100
agricultural 100
सिंह 100
सिर्जना 100
पूर्वनिर्धारित 100
▁सुत्न 100
▁rings 100
▁लेखेको 100
्नाले 100
39 100
दत्त 100
fix 100
संख्य 100
उठ 100
▁मण्डल 100
▁intent 100
▁recognize 100
03 100
▁zones 100
▁साहस 100
▁गधाहरू 100
▁भाषाहरू 100
▁धान्न 100
▁Europe 100
▁Brazil 100
▁descend 100
vocation 100
▁निर्ण्र्ाा 100
▁Chairman 100
▁Empty 100
▁KStars 100
▁Memory 100
▁Modify 100
▁Rachel 100
▁Treasur 100
▁WARNING 100
▁availability 100
▁conceived 100
▁constellation 100
▁constitute 100
▁decrypt 100
▁incomplete 100
▁purple 100
▁अनुशरण 100
▁अभाज्य 100
▁कर्पोरेशन 100
▁निष्क्रिय 100
▁फ्रान्स 100
▁बिरयानी 100
▁मजदुर 100
▁मस्तिष्क 100
▁यहोयाकीम 100
▁शिर्षक 100
▁सिमलत्तरुल 100
▁Restore 100
▁एघार 100
▁पंचायत 100
▁वरदान 100
▁हेल्थ 100
▁typing 100
▁curtain 100
▁rush 100
सेकेण्ड 100
▁Paste 100
upreme 100
▁भोलिपल्ट 100
▁कथन 100
▁informed 100
▁Preview 100
▁caption 100
▁combine 100
▁disorder 100
▁पुर्याउँछ 100
▁Output 100
▁bride 100
▁Nathan 100
▁त्यतिबेला 100
▁पठाउँदै 100
▁bud 100
▁exploitation 100
▁Madan 100
▁कोर्नुहोस् 100
▁गोल्ड 100
▁उपनाम 100
▁blog 100
▁Bush 100
▁हामान 100
▁Match 100
▁नीलो 100
▁Never 100
▁प्रतिक 100
▁मिलान 100
▁अचल 100
menu 100
३१ 100
▁सम्वन्ध 100
▁specification 100
▁अस्पष्टता 100
▁acquired 100
▁gap 100
▁एक्लो 100
▁मास्टर 100
▁पार्नुभयो 100
▁वर्ड 100
▁manage 100
▁डाउन 100
▁उच्चतम 100
▁managed 100
▁ride 100
▁Net 100
▁afterward 100
▁दुईजना 100
▁Sheet 100
▁सादा 100
उप 100
ाँउ 100
87 100
▁coordinates 100
जीवन 100
▁ल्याएँ 100
▁favorite 100
▁तय 100
axis 100
▁apostles 100
▁लानु 100
▁वर्षभित्र 100
▁जानेछु 100
gue 100
▁ग्यास 100
▁accorded 100
▁राखिने 100
▁कराए 100
राजा 100
▁attributes 100
▁पेस 100
proved 100
▁मौसमी 100
▁चढाउँछ 100
▁processes 100
▁गराएर 100
▁directed 100
▁describe 100
▁formula 100
▁चाहि 100
▁younger 100
eko 100
▁लेखेका 100
▁पङ्क्तिहरू 100
▁q 100
▁हिंड्ने 100
▁चिन्न 100
▁इन्ट 100
▁Cut 100
▁ordinance 100
▁बच्चाहरू 100
▁बोका 100
▁विकासतर्फ 100
▁संगै 100
▁निस्कने 100
sci 100
१७ 100
बिट 100
▁प्रतिभा 100
▁एन् 100
▁५५ 100
महाराज 100
▁दैन 100
▁Bus 100
▁Mich 100
▁दिदै 100
▁51 100
ential 100
औ 100
▁पिउ 100
#8 100
▁kw 100
०१ 100
▁खोज्नु 100
▁donor 100
kal 100
▁आर्क 100
▁airports 100
दृश्य 100
▁Ji 100
where 100
बृद्धि 100
Shift 100
पश्चिम 100
with 100
▁सिन् 100
राष्ट्रिय 100
▁appoint 100
त्यसपछि 100
dict 100
४०० 100
▁गाउन 100
▁expire 100
▁जन्मिए 100
▁मोटो 100
▁weep 100
▁संगत 100
▁थक 100
cher 100
tel 100
▁नलाग 100
ङ्केत 100
▁Automatic 100
▁Anjuta 100
▁Calculate 100
▁Dhankuta 100
▁Industries 100
▁Ishmael 100
▁KPilot 100
▁Writing 100
▁acquisition 100
▁baptized 100
▁comparative 100
▁desirable 100
▁meditation 100
▁passengers 100
▁philosophy 100
▁pregnant 100
▁separator 100
▁असमानता 100
▁उत्सुक 100
▁कर्णाली 100
▁क्यालिफोर्निया 100
▁चुहावट 100
▁प्राध्यापक 100
▁भित्तेचित्र 100
▁मालपोत 100
▁विपरीत 100
▁विभाजक 100
▁समष्टिगत 100
▁सूक्ष्म 100
▁२०२१ 100
▁Build 100
▁Space 100
▁headquarters 100
▁ऋतु 100
▁गहिराइ 100
▁ग्याँस 100
▁वीणा 100
▁Democrat 100
▁courtesy 100
▁honest 100
▁संजाल 100
▁विनियोजन 100
▁ruling 100
▁Class 100
▁minimiz 100
▁accent 100
▁थिच्द 100
▁harp 100
▁सिक्का 100
▁Operation 100
▁wireless 100
▁संग्रहालय 100
▁assets 100
▁suicide 100
▁ढङ्ध 100
▁बाइट 100
▁Laban 100
▁थोप्ला 100
▁बीऊ 100
▁liquidity 100
▁Herod 100
▁Computer 100
▁Increase 100
▁उपयोगिता 100
▁Satan 100
▁snow 100
▁अनुक्रमण 100
▁अभिकर्ता 100
▁waves 100
▁अधर्म 100
▁सुची 100
▁recur 100
▁उपभोग्य 100
मिटर 100
▁रुचि 100
▁वाइ 100
▁prisoners 100
▁slot 100
▁विकृति 100
▁pasture 100
▁Haman 100
▁श्यामश्वेत 100
▁cutting 100
▁मार्छ 100
▁सच्याउने 100
▁Balak 100
▁European 100
▁correction 100
▁कुशल 100
▁एकपल्ट 100
▁बौद्धिक 100
▁allocated 100
▁expired 100
▁detected 100
▁बालबालिकाहरुको 100
▁72 100
▁broadcasting 100
▁भाउ 100
GA 100
रहनुभएको 100
▁जर्मनी 100
▁गिर 100
▁promised 100
▁लूत 100
▁थान 100
▁Noah 100
▁तथ्या 100
▁Five 100
▁{ 100
▁हिम 100
etic 100
▁तेज 100
▁खोट 100
▁पूर्वाधारहरु 100
▁आएपछि 100
chu 100
▁दिलाउन 100
िहित 100
▁pic 100
jung 100
▁duration 100
▁Ah 100
▁उठेर 100
▁बहादुर 100
▁संसारभर 100
▁निलो 100
▁Compar 100
▁120 100
WM 100
▁formulat 100
भेल 100
▁Dha 100
▁तिनीसित 100
▁प्राथमिकताहरू 100
▁छोडन 100
▁treasure 100
mod 100
ounce 100
गति 100
▁bone 100
▁यसअनुसार 100
▁कृषिक्षेत्र 100
▁पातल 100
▁पज 100
▁छोड्नु 100
▁क्व 100
बितर 100
▁forgiven 100
▁वस 100
▁काटे 100
▁किरा 100
▁सिकाए 100
▁भारतबाट 100
▁Non 100
▁४२ 100
▁Bara 100
western 100
normal 100
वितरण 100
टाढा 100
बोर्ड 100
लेखन 100
left 100
clock 100
▁ओछ्यानमा 100
▁निस्कन्छ 100
▁फिट 100
▁scatter 100
▁finish 100
धर्म 100
▁divide 100
▁पर्खालहरू 100
श्री 100
▁सङ्लग्न 100
▁shake 100
▁drunk 100
थियो 100
▁organis 100
▁Script 100
▁क्रान्ति 100
▁Brother 100
▁1961 100
▁Aborting 100
▁Buddhist 100
▁Channel 100
▁Digital 100
▁GCompris 100
▁Immediately 100
▁Kusunda 100
▁Multiple 100
▁Problem 100
▁Properties 100
▁Request 100
▁Virtual 100
▁Zadok 100
▁appeal 100
▁compromise 100
▁consensus 100
▁creative 100
▁criteria 100
▁integrity 100
▁mobile 100
▁privatization 100
▁prominent 100
▁television 100
▁अमारोक 100
▁कम्प्यूटर 100
▁खडेरी 100
▁ग्राफिकल 100
▁डाटावेस 100
▁दिऊन् 100
▁द्रष्टब्य 100
▁नमस्कार 100
▁निकुञ्ज 100
▁निवेदन 100
▁नेभारा 100
▁परिकल्पना 100
▁पहिचायक 100
▁पूर्वाञ्चल 100
▁भूकम्प 100
▁मोनिटर 100
▁र्सार्वजनिक 100
▁लबानोन 100
▁विण्डो 100
▁Life 100
▁diverse 100
▁शमायाह 100
▁सदोम 100
▁सौर्य 100
▁multiplied 100
▁रणनीति 100
▁त्यसैकारण 100
▁Password 100
Linux 100
▁bury 100
▁sports 100
▁yoke 100
▁गरायो 100
▁यौनसम्पर्क 100
▁diesel 100
▁मौरा 100
▁इच्छु 100
▁सुरुवात 100
▁confident 100
▁परमात्मा 100
▁अग्रभूमि 100
दृष्ट 100
▁कहात 100
▁Photograph 100
▁अनलोड 100
▁worm 100
▁दिवस 100
▁सामदान 100
▁संक्रमण 100
▁Musician 100
▁सुदृढिकरण 100
▁सतर्क 100
▁Bashan 100
▁Abner 100
▁नपढिएक 100
▁1985 100
▁अफसेट 100
▁brightness 100
▁arrival 100
▁कालेब 100
▁खूद 100
▁withdraw 100
▁खोल्दछ 100
▁shine 100
▁विकृत 100
▁यात्री 100
▁2005 100
▁mountainous 100
▁यहां 100
▁खर्चिलो 100
▁भद्र 100
▁rectangle 100
▁योजनावद्ध 100
▁गरिन्थ्यो 100
▁transparent 100
▁परिकार 100
some 100
▁adversely 100
▁opposed 100
▁Mill 100
▁बोक्ने 100
▁wishes 100
▁tip 100
▁Equ 100
▁वेला 100
▁बरू 100
▁researchers 100
▁Lal 100
▁reaches 100
▁अध्य 100
▁scope 100
▁suit 100
▁पेज 100
Mural 100
▁बढाई 100
उनु 100
▁यसबाहेक 100
▁जंगली 100
▁presentation 100
▁planet 100
kai 100
▁claimed 100
▁washed 100
नियम 100
रहने 100
▁formation 100
lal 100
▁observed 100
▁(19 100
▁arrive 100
▁बेचे 100
▁होल्ड 100
▁बाध्यता 100
▁entrepreneurs 100
▁Objectives 100
झै 100
cell 100
७६ 100
▁जान्दैन 100
▁focused 100
▁logo 100
▁बैङ्कहरु 100
▁तरीकाले 100
▁Pen 100
▁counter 100
▁गर्दछौं 100
▁नआए 100
▁६१ 100
2.5 100
▁involve 100
▁वर्षपछि 100
▁पक्रन 100
▁निहुर 100
▁भवनहरु 100
▁union 100
▁shepherds 100
हीं 100
ँङ 100
▁Savings 100
▁62 100
37 100
▁happening 100
▁सिपाही 100
१३ 100
head 100
Bus 100
▁खुले 100
▁६०० 100
OP 100
▁भिज 100
म्बा 100
▁सड 100
▁लोभ 100
▁भाले 100
सामान्य 100
रहेकी 100
disabled 100
यहूदा 100
process 100
▁exact 100
33 100
सेल 100
िन्न 100
▁छाना 100
िन्थे 100
▁हिल 100
▁allocate 100
▁रोक्ने 100
▁उद्योगहरू 100
▁उपायहरु 100
▁apt 100
▁locate 100
▁लगाइने 100
▁Director 100
â 100
▁रूपैयाँ 100
▁Character 100
▁Civil 100
▁Column 100
▁Hebrew 100
▁Support 100
▁Tokyo 100
▁decimal 100
▁discourage 100
▁duties 100
▁excellent 100
▁increment 100
▁leaf 100
▁patience 100
▁pluck 100
▁slept 100
▁summary 100
▁transparency 100
▁uniform 100
▁university 100
▁अभिप्राय 100
▁धनकुटा 100
▁नहुँदा 100
▁मोबाइल 100
▁irrigate 100
▁अत्याचार 100
▁गैह्र 100
▁देखाउछ 100
▁राप्ती 100
▁Sidon 100
लक्ष्मी 100
▁सेक्सन 100
▁clinic 100
▁crime 100
▁estate 100
▁Require 100
▁kilometers 100
▁aroma 100
▁instant 100
▁सिमित 100
▁cholesterol 100
▁confess 100
▁horsemen 100
▁cultivated 100
▁stronghold 100
▁थुपार 100
▁soft 100
▁Sunday 100
▁dependence 100
▁हुंदा 100
▁जरूर 100
▁armies 100
▁महशु 100
▁रीति 100
▁टाँग 100
▁ढुसी 100
▁shade 100
▁गिबा 100
▁lake 100
▁guilty 100
▁गाँस 100
▁मूल्यवान 100
▁एस्तर 100
▁shaken 100
▁दैलो 100
▁विज्ञ 100
▁peaceful 100
▁पाटन 100
▁जङ्क 100
▁विचल 100
▁likewise 100
▁cool 100
▁दलान 100
▁पम्प 100
▁Artist 100
▁सएछ 100
▁आँखाहरू 100
▁पेय 100
▁sentence 100
▁constitutional 100
▁महङ्ग 100
▁cooked 100
▁Gda 100
▁Kig 100
ria 100
▁Lama 100
▁चाहन्छौं 100
▁नुन 100
tech 100
सिम 100
▁बढाए 100
ठ्ठ 100
ाउंदै 100
▁माँग 100
▁पोखरी 100
▁Amen 100
▁RE 100
▁Regional 100
▁अटो 100
▁pursued 100
▁slowly 100
िदैन 100
▁refuse 100
▁सालसम्म 100
▁Persia 100
▁सम्झने 100
ोटी 100
▁KW 100
▁ISO 100
▁४६ 100
*** 100
▁नदीहरू 100
▁गाली 100
परमेश्वरले 100
▁सोच्नु 100
▁dish 100
▁borne 100
▁61 100
▁seminars 100
▁माघ 100
▁कायमै 100
▁तान्ने 100
▁thank 100
dad 100
▁उपज 100
graph 100
▁Park 100
59 100
ography 100
▁हस्त 100
▁poles 100
ोभा 100
▁जुवा 100
▁६४ 100
सूच 100
्छिन् 100
▁५२ 100
▁48 100
▁cit 100
▁mostly 100
▁उल्टाउन 100
▁fertilizer 100
▁सङ्ख्याहरू 100
िदिनेछु 100
▁Egyptian 100
▁participat 100
▁मर्नेछ 100
▁बचाउने 100
▁५८ 100
▁wage 100
▁बचाए 100
▁कलम 100
dding 100
▁Sah 100
▁हेर्दै 100
▁जस् 100
लागु 100
▁बन्नु 100
▁organize 100
electric 100
produc 100
प्रभु 100
विरूद्ध 100
number 100
▁गाऊ 100
terim 100
▁बेच्न 100
party 100
पर्दा 100
▁हिंसा 100
▁despise 100
बलि 100
▁भइन् 100
aja 100
▁gradual 100
▁भगवान 100
▁गइन् 100
▁exploit 100
▁uncle 100
▁बताउँछ 100
▁submit 100
▁धितो 100
▁पुननिरन्तर 100
असुरक्षित 100
▁Bhattarai 100
▁CHAPTE 100
▁Employee 100
▁Federation 100
▁Jehoiada 100
▁Jezreel 100
▁Karnali 100
▁Rehoboam 100
▁anxiety 100
▁approval 100
▁bridegroom 100
▁cubic 100
▁fundamental 100
▁impossible 100
▁magnitude 100
▁pestilence 100
▁poison 100
▁quantities 100
▁regulations 100
▁societies 100
▁sprinkle 100
▁visibility 100
▁अन्धो 100
▁उड्डयन 100
▁जबूलून 100
▁दुलही 100
▁परिपूर्ति 100
▁बाइन्डिङ 100
▁बैशाख 100
▁महोत्सव 100
▁सदुपयोग 100
▁१९८८ 100
▁Lanka 100
▁गाविस 100
▁तटस्थ 100
▁फिंज 100
▁सोमबार 100
▁deleting 100
▁जर्नल 100
▁Sector 100
▁निद्रा 100
▁derive 100
▁gentle 100
▁लगायो 100
▁हजुर 100
▁thunder 100
▁digital 100
▁Jesse 100
▁मदिरा 100
▁Normal 100
▁vagina 100
▁fortified 100
▁lodge 100
▁hydropower 100
▁लाभांश 100
▁उज्जियाह 100
▁debugging 100
▁सुहाउँद 100
▁anchor 100
▁Transfer 100
▁incorrect 100
▁Align 100
▁Section 100
▁cultivation 100
▁Receiv 100
▁1981 100
▁नगरिकन 100
▁समुद्रपार 100
▁हित्ती 100
▁४१ 100
▁jail 100
▁२०३६ 100
▁सकुन् 100
▁तरलता 100
212; 100
▁combo 100
▁meaningful 100
▁दर्जा 100
▁customize 100
▁marry 100
▁identifier 100
▁toggle 100
▁somewhere 100
▁bullet 100
▁जूट 100
▁warned 100
▁मेट्नुहुन्छ 100
▁जान्नुहुन्छ 100
▁लिपि 100
▁Dialog 100
▁बताउन 100
▁कोसिस 100
▁dung 100
▁कार्यनीति 100
▁नाडी 100
▁सामेल 100
▁समझ 100
▁camels 100
▁निल 100
▁herds 100
▁लेऊ 100
▁साक्षरता 100
▁कठिनाई 100
▁forestry 100
▁rapidly 100
▁graphical 100
▁Tele 100
▁बौरी 100
▁पाँचौ 100
▁despised 100
▁wherever 100
▁हाउस 100
▁चिने 100
▁cumulative 100
▁Kish 100
cker 100
▁७२ 100
ष्क 100
▁BY 100
▁Guru 100
▁एकाधिकार 100
विहीन 100
स्सा 100
▁लाग्दछ 100
▁Down 100
▁उभि 100
▁चर्क 100
▁granted 100
▁बाशान 100
▁linear 100
▁faster 100
▁विद्या 100
▁ल्याउ 100
▁scientists 100
▁पदार्थहरु 100
वीच 100
▁crossing 100
▁२५० 100
▁नदिए 100
भएन 100
▁63 100
▁सकेपछि 100
्वी 100
५९ 100
▁बनायौ 100
▁बोल्दै 100
७२ 100
स्पेस 100
एच 100
▁बच्न 100
Be 100
▁हद 100
▁राखिन्छ 100
▁Warn 100
▁आउँद 100
▁Kumar 100
losing 100
▁माइल 100
डेन 100
▁पिक 100
▁जार 100
सिस 100
▁gram 100
▁pillar 100
▁bird 100
Pa 100
98 100
▁achiev 100
unda 100
जसो 100
▁परामिति 100
▁जान्दैनौ 100
exec 100
जात 100
▁hid 100
▁trans 100
दर्शन 100
▁राज्यहरू 100
▁घरभित्र 100
ghat 100
mag 100
▁mobilize 100
▁पुँर्याउन 100
▁पालना 100
▁गयौ 100
्ली 100
ddy 100
▁छिमेकीहरू 100
▁बजाए 100
२६ 100
board 100
निमित्त 100
born 100
उहाँ 100
सुरुआत 100
आदेश 100
▁बासिन्दाहरू 100
▁Star 100
▁जोगाउन 100
▁engage 100
▁defile 100
uku 100
▁ठाने 100
▁Info 100
▁किग 100
▁भ्रम 100
▁Author 100
▁parliament 100
▁debug 100
▁Accept 100
▁Judea 100
▁KGpg 100
▁Muslim 100
▁Policies 100
▁Statistics 100
▁Zebulun 100
▁cigarette 100
▁disadvantage 100
▁equivalent 100
▁fascinating 100
▁incentives 100
▁integration 100
▁military 100
▁pregnancy 100
▁rebellious 100
▁restriction 100
▁resurrection 100
▁rotation 100
▁thigh 100
▁volunteer 100
▁widespread 100
▁अकुपञ्चर 100
▁उल्लिख 100
▁कङ्ग्रेस 100
▁कोलेस्टेरोल 100
▁ढुकुर 100
▁न्यूयोर्क 100
▁पाठ्यक्रम 100
▁पूर्वानिर्धारित 100
▁प्रभावकारिता 100
▁बर्णाबास 100
▁बारम्बार 100
▁बिरूद्ध 100
▁बोअज 100
▁यथाशक्य 100
▁विश्वसनीय 100
▁Isaiah 100
▁VDC 100
▁chapter 100
▁copies 100
▁cotton 100
▁dpkg 100
▁worry 100
▁निष्कासन 100
▁पन्ध्र 100
▁Field 100
▁contend 100
▁Green 100
▁Sodom 100
▁avenge 100
▁उत्प्रेर 100
▁इलाम 100
▁गणित 100
▁bacteria 100
▁breed 100
▁enforce 100
▁tiger 100
▁decorat 100
▁Unexpected 100
▁एक्कास 100
▁Thread 100
▁dividend 100
▁lust 100
▁interview 100
▁फलस्वरूप 100
▁तामार 100
▁अनुकुल 100
▁अर्थव्यवस्था 100
▁गरिदिने 100
▁Task 100
▁प्रमूल 100
▁ashes 100
▁52 100
▁सावित 100
▁दरिलो 100
▁Seven 100
▁सकोस् 100
▁wake 100
▁Recently 100
▁गर्नुभएन 100
▁Code 100
▁witnesses 100
▁अनाज 100
▁मल्ल 100
▁rating 100
▁ओजन 100
▁मोडेल 100
▁Tell 100
▁तीनै 100
▁भर्नुहोस् 100
▁पाउँन 100
▁छरप 100
▁विराम 100
▁परिरहेको 100
▁refer 100
▁हटाई 100
▁अमर 100
▁बाघ 100
▁दुख्ने 100
▁USA 100
hop 100
▁helpful 100
▁उम्रन 100
▁हुल 100
cvs 100
▁दिल 100
▁व्यवसायिक 100
▁नील 100
▁Gold 100
▁नातान 100
▁दिनभरि 100
▁एकदिन 100
▁बस्नेछन् 100
▁हिर्काए 100
▁Exist 100
▁UI 100
▁probability 100
▁वाइन 100
▁स्थानहरुमा 100
▁चिकित्सकहरु 100
▁मुलुकहरु 100
▁विविधता 100
▁७७ 100
ुञ्जेल 100
▁rejoiced 100
▁बोक्न 100
▁evaluate 100
▁(1) 100
▁representatives 100
▁नरम 100
एमएस 100
▁बजाउने 100
▁maximize 100
▁जान्छु 100
▁41 100
▁Officer 100
िकन 100
quite 100
▁दिँदै 100
▁कार्यकर्ताहरु 100
07 100
▁खाऊ 100
▁Bri 100
▁आउँदैछ 100
▁सङ 100
▁प्रस्तुति 100
▁गुमाए 100
दानी 100
गाउँ 100
▁डराउने 100
▁experiment 100
▁कारणहरु 100
▁watching 100
▁wonder 100
andi 100
▁बुझाउन 100
asi 100
▁चराहरू 100
ंगुर 100
▁Hav 100
▁लाईन 100
▁बोली 100
▁Merc 100
▁बैङ् 100
▁corn 100
▁प्रतिमाहरू 100
▁छोड्ने 100
▁निस्किए 100
न्तर 100
▁बोलाउन 100
▁फर्काइ 100
▁यहि 100
▁बारी 100
▁थर 100
यन्त्र 100
चिन्ह 100
कृपया 100
control 100
स्रोत 100
face 100
केही 100
▁खोज्छ 100
81 100
▁निराश 100
क्लिक 100
RE 100
▁recover 100
▁भट्ट 100
▁जीवनस्तर 100
Alt 100
▁ढोकाहरू 100
mphasis 100
▁उत्थान 100
▁एपोद 100
▁चुनौति 100
▁मालसामान 100
▁यरीहो 100
HOME 100
mbassador 100
▁Energy 100
▁Hittite 100
▁Lalitpur 100
▁Nautilus 100
▁alignment 100
▁assembled 100
▁collapse 100
▁composer 100
▁contrary 100
▁convenience 100
▁corporate 100
▁disobedience 100
▁fashion 100
▁metadata 100
▁muscle 100
▁sackcloth 100
▁strategy 100
▁survive 100
▁threshold 100
▁zonal 100
▁अनौपचारिक 100
▁आधिकारिक 100
▁आरम्भ 100
▁ट्रान्स 100
▁दमीशक 100
▁दूषित 100
▁पौष्टिक 100
▁यिप्तह 100
▁सङ्लन 100
▁स्थायित्व 100
▁ह्याण्डल 100
-8859- 100
▁Goddess 100
▁Greet 100
▁Kexi 100
▁grapes 100
▁repay 100
▁smell 100
▁परस्पर 100
▁मर्यादा 100
▁वक्तव्य 100
▁सीसरा 100
▁Trust 100
▁companion 100
▁ninth 100
▁distinct 100
▁sinners 100
▁spokesman 100
▁Protect 100
▁Business 100
▁कर्नेल 100
▁disappear 100
▁संधै 100
▁capability 100
▁साइकल 100
▁Monday 100
▁फारस 100
▁dangerous 100
▁अपनाए 100
▁Oct 100
▁प्लेसूची 100
▁सहारा 100
▁२०१३ 100
▁Toolbar 100
▁आँसु 100
▁कपटी 100
▁rope 100
▁Guard 100
▁harmful 100
▁classification 100
▁२०३९ 100
▁त्यसैगरी 100
▁गुफा 100
▁२०३७ 100
▁sanctified 100
▁Joash 100
▁accessible 100
▁चतुर 100
▁Master 100
▁Sarah 100
▁देखिन्थ्यो 100
▁UID 100
▁fade 100
▁reaction 100
▁कुल्च 100
▁ल्यायो 100
क्रमण 100
▁alter 100
▁Germany 100
▁नगरेसम्म 100
▁Drop 100
▁स्वर्गीय 100
▁एसिया 100
▁trip 100
▁approximately 100
▁ट्वीटर 100
▁राख्यो 100
▁पजल 100
▁deceived 100
▁scheduled 100
frames 100
▁भएपनि 100
▁adjustment 100
▁खान्छन् 100
▁deny 100
▁तेरा 100
▁लेख्दा 100
▁DN 100
▁ग्याल 100
▁थालेपछि 100
▁लगाउँछ 100
▁Mass 100
▁preached 100
▁गरिदैन 100
▁उनै 100
▁conic 100
▁संभाव्यता 100
▁घन्टा 100
▁Surely 100
▁गिरी 100
जति 100
▁समूहगत 100
छवि 100
▁separately 100
▁Pick 100
▁shoes 100
▁डाँक 100
▁इङ्ग 100
definite 100
▁अवधिभित्र 100
IM 100
▁merchants 100
चन्द्र 100
साओ 100
▁determin 100
▁मेटा 100
▁downloaded 100
▁लड्ने 100
पुर्खा 100
▁Reading 100
show 100
▁पुरूषहरू 100
,600 100
hap 100
▁परियोजनाहरु 100
▁सुते 100
▁हेरोदले 100
▁hated 100
▁melt 100
▁दाइ 100
▁सुती 100
▁kg 100
▁विकाससम्बन्धी 100
▁थुमाहरू 100
▁निकाल्नु 100
▁पाइए 100
दिनेछु 100
abad 100
▁Rule 100
▁1000 100
▁मनाए 100
▁jo 100
yana 100
▁भएकै 100
▁बसिरहे 100
वाहन 100
▁sole 100
east 100
भेट 100
पिता 100
याकल 100
▁gun 100
▁1.5 100
▁कार्ल 100
▁जय 100
▁आफूसित 100
▁योताम 100
▁vehicle 100
8,000 100
rub 100
yak 100
▁घण्ट 100
▁Jar 100
१०० 100
dustrialization 100
▁Jew 100
▁पकाए 100
▁Hari 100
enter 100
▁पस्ने 100
५५ 100
conf 100
▁endure 100
▁भन्ना 100
▁खुवाउन 100
▁दलाल 100
▁mad 100
गीत 100
▁cure 100
जोड 100
प्रतिस्पर्धात्मक 100
राष्ट्र 100
gnome 100
SQL 100
— 100
उदाहरण 100
from 100
rib 100
Have 100
परिवार 100
LO 100
▁अश् 100
▁योजनाकाल 100
So 100
▁अधिन 100
▁पढिए 100
▁detect 100
▁accomplish 100
▁reject 100
▁वाई 100
▁संलग् 100
▁रुट 100
▁काली 100
▁बुझ्नु 100
▁Direct 100
▁बेक 100
▁paint 100
▁psych 100
▁craft 100
Peace 100
▁1974/75 100
▁Amarok 100
▁Biryani 100
▁Esther 100
▁Expected 100
▁Gideon 100
▁Issachar 100
▁Kohath 100
▁Language 100
▁London 100
▁Origin 100
▁Previous 100
▁Secretariat 100
▁Wednesday 100
▁accessibility 100
▁artificial 100
▁boolean 100
▁brief 100
▁chronic 100
▁compression 100
▁distortion 100
▁ephah 100
▁frequent 100
▁furnace 100
▁hunger 100
▁indentation 100
▁intense 100
▁lampstand 100
▁migration 100
▁municipal 100
▁necessity 100
▁opacity 100
▁plenty 100
▁revision 100
▁scarlet 100
▁swift 100
▁sworn 100
▁threshing 100
▁ultimate 100
▁vengeance 100
▁violent 100
▁अन्तरक्रिया 100
▁अपरिहार्य 100
▁आवशयक 100
▁झोलुङ्धे 100
▁टिमुर 100
▁थिचेर 100
▁धनगढी 100
▁नप्ताली 100
▁भट्टराई 100
▁यबूसी 100
▁श्वास 100
▁हिस्टोग्राम 100
▁ह्यान्डहेल्ड 100
wikipedia 100
▁Double 100
▁Prompt 100
▁afford 100
▁आतङ्क 100
▁नक्शा 100
▁परन्तु 100
▁वार्तालाप 100
▁Fatal 100
▁dominion 100
▁बखत 100
▁बसाइँ 100
▁attitude 100
NORM 100
▁olive 100
▁चाहानुहुन्छ 100
▁Present 100
buntu 100
▁बोधार्थ 100
▁Shimei 100
▁माधव 100
▁Feed 100
▁neighborhood 100
▁कपास 100
reliance 100
▁Korah 100
द्वितीय 100
▁ट्रिगर 100
▁drainage 100
▁grand 100
▁Media 100
▁Security 100
apur 100
▁Morang 100
▁भाइरस 100
▁इन्द्र 100
▁autonom 100
▁June 100
▁जेनेरि 100
▁धुलो 100
▁NOT 100
▁सरुवा 100
▁गुप्तीकरण 100
▁anywhere 100
▁लडाईं 100
▁मिलाउनुहोस् 100
▁unlock 100
▁Super 100
▁2004 100
▁घटाउनुहोस् 100
▁अदृश्य 100
▁difficulties 100
▁लाभान 100
▁हुँदो 100
▁झर्ने 100
▁आशेर 100
▁– 100
▁withdrawal 100
▁lend 100
On 100
▁जेठो 100
▁affection 100
▁surprised 100
▁आँप 100
▁SHIFT 100
▁Sound 100
त्र्ग 100
▁स्थलहरु 100
▁चित्रण 100
▁Law 100
▁सिजर 100
▁बनिए 100
म्याक 100
▁महसुल 100
▁बनाउँछन् 100
दारी 100
▁Well 100
▁enhanc 100
▁दमन 100
▁resolved 100
▁निराशा 100
▁controlled 100
▁गरोस् 100
▁पार्नेछन् 100
▁oppressed 100
▁punished 100
जाति 100
▁provider 100
पालन 100
▁न्यायिक 100
▁अन्त्यसम्म 100
God 100
▁exportable 100
▁तलतिर 100
hour 100
३३ 100
▁राम्रोसंग 100
▁हाने 100
▁hat 100
▁naturally 100
▁heavenly 100
▁Basic 100
▁यसबारे 100
▁स्ल 100
वास्तव 100
▁Baba 100
▁applying 100
▁paste 100
▁tail 100
▁गर्दिन 100
पक्षीय 100
▁राख्छन् 100
स्तै 100
ija 100
▁अपनाइने 100
rank 100
▁controll 100
▁Sham 100
▁समात्न 100
निधि 100
Nothing 100
▁चयनकर्ता 100
▁पहाडहरू 100
lowercase 100
▁हाम 100
▁56 100
▁Chand 100
jasta 100
पत्ति 100
▁graph 100
eight 100
▁दलहरू 100
cast 100
▁Teacher 100
win 100
▁Dai 100
▁दाता 100
▁0.0 100
▁सुकै 100
▁procedure 100
▁हाँगा 100
▁degree 100
▁instrument 100
▁सिकाउन 100
३४ 100
▁horn 100
▁शत 100
▁संकटहरू 100
▁गरिँदै 100
▁स्रोतहरु 100
▁काख 100
▁earning 100
▁बर्न 100
▁सत्यता 100
पढ 100
▁गोठाला 100
शैली 100
शाली 100
style 100
अनुरूप 100
install 100
window 100
object 100
▁attach 100
▁पुर्खा 100
ार्य 100
आऊ 100
िक्त 100
grade 100
▁proclaim 100
सानो 100
▁schedule 100
▁छोराछोरी 100
▁CA 100
▁कक्षहरू 100
▁continual 100
▁utilize 100
▁German 100
▁घुमाउन 100
muni 100
▁संभाव 100
ावलोकन 100
é 100
€ 100
á 100
▁Amalek 100
▁Azariah 100
▁Communication 100
▁Himalayan 100
▁KTTS 100
▁Monitor 100
▁Rapti 100
▁Standard 100
▁analyze 100
▁assemblies 100
▁awesome 100
▁categories 100
▁composite 100
▁confusion 100
▁contrast 100
▁equity 100
▁garbage 100
▁glorious 100
▁ministries 100
▁murmur 100
▁plunder 100
▁polluted 100
▁prostitution 100
▁stylesheet 100
▁tweet 100
▁अर्घबलि 100
▁कन्टेनर 100
▁काइन्डनेस 100
▁कारोवार 100
▁घाँटी 100
▁जडीबुटी 100
▁जीएनयू 100
▁ज्वाला 100
▁ट्राफिक 100
▁दुर्भाग्य 100
▁नियन्त्रित 100
▁निलम्बन 100
▁नोभेम्बर 100
▁पखेटा 100
▁पछाडी 100
▁पठायो 100
▁परिवर्त्य 100
▁बहुदलीय 100
▁मध्यमाञ्चल 100
▁राष्टँ्र 100
▁लाइसेन्स 100
▁वरिष्ठ 100
▁षडयन्त्र 100
▁सामूहिक 100
▁सिमेण्ट 100
▁सुर्खेत 100
▁Heaven 100
▁Middle 100
▁airfields 100
▁gamma 100
▁orientation 100
▁tooltip 100
▁पाचौं 100
▁Content 100
▁Earth 100
▁facing 100
▁thorns 100
▁घोषित 100
▁भेट्टाए 100
▁ordinary 100
▁कण्डम 100
▁valor 100
▁waist 100
▁खुम्च 100
▁debate 100
▁स्वयम् 100
▁transgressions 100
▁उफ्र 100
▁Complete 100
▁Ltd 100
▁fraction 100
▁TIFF 100
▁दुर्बल 100
▁parliamentary 100
▁colon 100
▁फ्याक्स 100
▁दिइरहेका 100
▁Asaph 100
▁alert 100
▁बन्धन 100
▁bondage 100
▁बिगार 100
▁एसिड 100
▁एसियाली 100
▁दिइरहेको 100
▁कोर्दछ 100
▁maize 100
▁बेहो 100
▁तिर्खा 100
▁opt 100
▁twin 100
▁terminate 100
▁machinery 100
▁इनार 100
▁overflow 100
▁Whatever 100
▁native 100
▁८५ 100
▁agent 100
▁गरिसकेका 100
▁भगवान् 100
▁लगाइएका 100
ाधिन 100
▁घराना 100
▁tread 100
▁minor 100
▁गुहार 100
RA 100
▁saver 100
▁खोज्दा 100
▁bigge 100
▁replacement 100
विधानहरू 100
▁फाटक 100
▁touches 100
▁पेन्स 100
▁बढिरहेको 100
▁द्वीप 100
▁पुगेपछि 100
ब्रु 100
▁पठन 100
▁नियाल 100
▁horizontally 100
▁सङ्लग्नता 100
▁ओठ 100
▁दोहोरो 100
▁settled 100
▁Case 100
▁Pass 100
▁dip 100
▁बिज 100
ieth 100
▁आबद्ध 100
▁helpless 100
▁जेठ 100
▁upgraded 100
▁cooking 100
▁GV 100
▁आवश्यकताअनुसार 100
that 100
नेपाल 100
▁बढ्यो 100
▁Gul 100
▁लेआ 100
▁hiding 100
▁बढ्छ 100
्याएको 100
▁exceeded 100
,400 100
▁timeout 100
▁normally 100
▁armed 100
create 100
▁friendly 100
▁उभिएर 100
▁घात 100
▁nbsp 100
▁Tag 100
ाँए 100
▁53 100
ह्या 100
▁coat 100
▁सेता 100
▁श्रोता 100
▁पुँर्याउने 100
▁हीराम 100
▁attacked 100
iko 100
pani 100
▁सोच्छौ 100
▁नुह 100
▁sacrificed 100
▁समाह 100
mode 100
▁हार् 100
▁कामदारहरू 100
▁किने 100
२८ 100
▁मारेर 100
▁राष्ट्रहरु 100
▁वार्ड 100
बाली 100
▁critic 100
खोट 100
छैनौ 100
▁घेरे 100
▁Fla 100
▁46 100
▁बिर्सन 100
▁recipient 100
▁statute 100
देख 100
मिट 100
▁फोर 100
▁जव 100
न्जेल 100
▁eliminat 100
▁६६ 100
▁Disc 100
Speak 100
दाऊद 100
▁कर्मीहरू 100
▁अल्पकाल 100
▁सङ्गठ 100
सुरु 100
▁strange 100
सभा 100
▁९३ 100
▁Row 100
▁float 100
color 100
▁Extra 100
▁उभिनु 100
सामु 100
नजिक 100
मोड 100
▁परिषद 100
▁निक्क 100
▁44 100
witter 100
▁Ganesh 100
evolution 100
▁Journal 100
responsibilities 100
▁1979/80 100
▁Appropriate 100
▁Bhandari 100
▁Continue 100
▁GStreamer 100
▁Gibeon 100
▁Gilgal 100
▁Jebusite 100
▁Judge 100
▁Naphtali 100
▁Python 100
▁Thursday 100
▁Zechariah 100
▁bondservant 100
▁butterflies 100
▁devoted 100
▁infection 100
▁narrow 100
▁perception 100
▁privilege 100
▁professor 100
▁sewage 100
▁एक्सएमएल 100
▁खतरनाक 100
▁चुपचाप 100
▁जबरजस्त 100
▁जीनोम 100
▁ज्वरो 100
▁डिजेल 100
▁बेवास्ता 100
▁मेटि्रक 100
▁यिज्रेल 100
▁राजदूत 100
▁सामर्थ्य 100
▁स्मारक 100
▁हडताल 100
▁हिब्रू 100
म्युरल 100
▁Confirm 100
▁Split 100
▁adultery 100
▁pilot 100
▁आसपास 100
▁गिलगाल 100
▁चितवन 100
▁थैली 100
▁देखिंदैन 100
▁पुष्प 100
▁माइक्रो 100
▁रुपियां 100
▁विरुवा 100
▁साढे 100
▁अनियन्त्रित 100
▁सिचाई 100
▁GAP 100
▁Honor 100
▁definitely 100
▁truly 100
▁आकृति 100
▁झर्यो 100
▁करिव 100
▁capabilities 100
▁telescope 100
▁engineering 100
▁steal 100
▁उन्मुख 100
▁coast 100
▁paragraph 100
▁consequence 100
▁बिरोध 100
▁सिंचाइ 100
डब्लु 100
▁freight 100
▁gtk 100
▁tank 100
▁Shortcut 100
▁पुर्याई 100
FOV 100
▁ग्राफिक्स 100
▁Transform 100
▁आश्चर्यजनक 100
▁container 100
▁विन्ती 100
▁Priority 100
▁favourable 100
▁गाढा 100
▁मृग 100
▁1999 100
ुपर्थ्यो 100
▁लायक 100
▁होस्टनाम 100
▁Lamb 100
▁लङ्गड 100
▁Island 100
nteger 100
▁pool 100
▁गोबर 100
▁नआउ 100
ाधीन 100
▁मेनुपट्टी 100
ING 100
▁statusbar 100
▁बाजाहरू 100
▁बालाक 100
▁बोझ 100
▁आघात 100
▁रिसाउनु 100
▁असामान्य 100
▁march 100
▁plow 100
▁आवद्ध 100
▁लाग्दा 100
▁Browse 100
▁त्रैमासिक 100
▁Old 100
▁अनिश्चित 100
▁dug 100
▁जान्दैनन् 100
▁इनाम 100
▁बेथ 100
▁lawful 100
▁Yah 100
▁aborted 100
▁सञ्चिति 100
▁क्यू 100
▁वर्षअगाडि 100
▁Query 100
▁बन्देज 100
▁customers 100
▁घट्यो 100
▁coll 100
▁seriously 100
▁मिलेको 100
▁सच्चा 100
चोक 100
▁वाहेक 100
▁rendered 100
▁गतिशीलता 100
अन्तरगत 100
▁ओछ्यान 100
▁बन्छ 100
▁soap 100
४६ 100
▁preserved 100
▁span 100
▁greatness 100
▁हठ 100
▁Relat 100
▁गहना 100
▁publishing 100
▁कोरह 100
▁highlighting 100
▁खाइ 100
▁उपलव्धि 100
▁hanging 100
▁दरवार 100
ould 100
▁अनुप्रयोगहरू 100
▁indicated 100
▁logge 100
▁weary 100
▁बहिर 100
▁Sir 100
रुण 100
▁ग्राहकहरू 100
ऋणात्मक 100
उंदा 100
▁पुगेर 100
▁शासनकाल 100
▁sender 100
▁चेतन 100
▁नाग 100
▁पर्नेछन् 100
▁Panch 100
share 100
▁Jagu 100
▁स्थिरता 100
last 100
▁काट्न 100
सरह 100
▁बटनहरू 100
▁जाम 100
रहनु 100
▁कुवा 100
▁गर्दैछु 100
▁Swa 100
▁देख्नेछौ 100
▁बिताउन 100
▁भाँडाहरू 100
▁सुन्दरता 100
▁Teach 100
▁carrie 100
▁shekel 100
▁व्यहोर 100
▁मेट्ने 100
▁Generat 100
वती 100
▁गरिदै 100
▁जोड्न 100
▁बस्दै 100
▁दिन्छौ 100
▁५६ 100
server 100
▁नदि 100
▁मित्रहरू 100
▁Map 100
▁८३ 100
हारी 100
▁सार्ने 100
कुञ्जी 100
minute 100
separated 100
visible 100
गृह 100
economic 100
प्रत्येक 100
संस्करण 100
three 100
▁पार्टीहरू 100
class 100
▁पापीहरू 100
▁broadcast 100
▁quota 100
File 100
▁फैलाउन 100
house 100
▁प्रतिष्ठा 100
▁settle 100
DE 100
▁बनाइने 100
▁journal 100
Get 100
▁गरिदिन्छ 100
▁possibl 100
▁ताक 100
▁आँट 100
▁टोल 100
▁संरक्ष 100
▁sanit 100
▁deceit 100
▁Company 100
▁Gibeah 100
▁Himalayas 100
▁Improvement 100
▁Indigenous 100
▁Simulate 100
▁Yoga 100
▁algorithm 100
▁coffee 100
▁diversification 100
▁ethnic 100
▁foreground 100
▁ignorance 100
▁ignoring 100
▁iniquities 100
▁kernel 100
▁majesty 100
▁memorial 100
▁milliseconds 100
▁nutritious 100
▁prophesied 100
▁thrust 100
▁अदोनियाह 100
▁अध्यापन 100
▁अन्जुता 100
▁चरित्र 100
▁जरिवाना 100
▁दिउँसो 100
▁नगरपालिका 100
▁निराकरण 100
▁परिवहन 100
▁बङ्गलादेश 100
▁बागमती 100
▁मनोरञ्जन 100
▁मेहनत 100
▁रिजोल्युसन 100
▁वासिन्दा 100
▁श्रृंखला 100
▁सम्प्रदाय 100
▁सीभीएस 100
▁१९९१ 100
▁protein 100
▁puzzle 100
▁smart 100
▁ललितपुर 100
▁Article 100
▁छरितो 100
▁झर्नुहोस् 100
▁प्रतिपक्ष 100
▁राजकीय 100
▁राम्रै 100
ville 100
▁Practi 100
▁overtake 100
▁निर्देशित 100
▁हेतुले 100
▁मिस्पा 100
▁argue 100
▁बाबज 100
▁plate 100
▁Madhav 100
▁consent 100
▁फीट 100
▁हलुका 100
▁कुरै 100
▁tired 100
▁राहत 100
ézi 100
▁सन्तोषजनक 100
▁महामारी 100
▁aviation 100
▁नियन्त्रक 100
▁priorities 100
▁बुहारी 100
▁constraints 100
▁फायर 100
▁शीलो 100
▁मिठो 100
▁ढुक्क 100
▁unemployment 100
▁1987 100
▁शिल्प 100
▁Tree 100
▁inspiration 100
▁चमक 100
▁२०३१ 100
▁Launch 100
▁टाँस्नुहोस् 100
▁authorized 100
▁परिक्षा 100
▁प्रतिच्छेद 100
▁एसेन्ट 100
▁Bond 100
▁चौडाई 100
▁1980 100
▁jealousy 100
▁पांच 100
▁wrap 100
▁2006 100
▁Durbar 100
▁नदिनुहोस् 100
▁sidebar 100
▁डम्प 100
▁सर्वनाश 100
▁dpi 100
▁Exit 100
लोड 100
▁परिपूर्ण 100
▁OK 100
▁Menu 100
▁प्रेषण 100
▁tries 100
▁१००० 100
▁रोप्ने 100
▁अङ्ध 100
▁losses 100
▁पूज्न 100
▁acceptable 100
▁proclaimed 100
▁developers 100
▁recovered 100
▁सुनौल 100
▁पाउँछन् 100
▁जोन्स 100
▁चालिने 100
▁पछ्याए 100
152 100
▁टोन 100
▁लक्ष्यअनुसार 100
▁authenticate 100
▁preaching 100
▁कोलम्बिया 100
▁rendering 100
▁badly 100
Not 100
▁बद्लि 100
▁बटुल 100
▁गजल 100
▁गोरूहरू 100
▁पहिलेदेखि 100
▁stronger 100
रिएर 100
▁घट्दै 100
Man 100
ttendee 100
kill 100
▁गात 100
▁दिवा 100
▁दिइन् 100
ल्हा 100
gconf 100
deb 100
५६ 100
फर्क 100
▁कोरिया 100
▁पारित 100
▁योग्यता 100
▁Player 100
▁मिलाउने 100
▁नछोड 100
▁statistic 100
▁मोहर 100
▁सीता 100
CA 100
▁जोगाउनु 100
२३ 100
info 100
▁** 100
▁छिमेक 100
▁कृषकहरू 100
▁तुल्याइ 100
▁जर्मन 100
quarter 100
message 100
service 100
तेस्रो 100
अतिरिक्त 100
सञ्चार 100
button 100
कार्यक्रम 100
▁associat 100
▁Random 100
ेशनल 100
▁emphasiz 100
राज्य 100
root 100
▁बौर 100
▁ट्वीट 100
▁83 100
▁सञ्चित 100
angle 100
▁साँच्च 100
▁मोटा 100
▁प्रत्या 100
▁XSL 100
▁drain 100
घरि 100
▁शुक्र 100
▁कुखुरा 100
ltogether 100
í 100
▁Credit 100
▁Differen 100
▁Focus 100
▁Further 100
▁Hydro 100
▁Michael 100
▁Municipal 100
▁Quality 100
▁Revenue 100
▁aligned 100
▁apparent 100
▁devotion 100
▁diabetes 100
▁discovered 100
▁dismayed 100
▁glorified 100
▁inadequate 100
▁modification 100
▁reputation 100
▁residue 100
▁tribal 100
▁undertaking 100
▁अनुभूति 100
▁आरोहण 100
▁उद्घाटन 100
▁क्षितिज 100
▁जगुआर 100
▁जनआन्दोलन 100
▁ठेकेदार 100
▁फराकिलो 100
▁बैजनी 100
▁मनुष्य 100
▁यहोयाकीन 100
▁येर्गिन 100
▁षड्यन्त्र 100
▁संन्देश 100
▁सञ्चय 100
▁सरसफाइ 100
▁साटासाट 100
▁सुक्खा 100
▁FIT 100
▁Leave 100
▁disseminat 100
▁guess 100
▁उत्प्लावन 100
▁प्रोटिन 100
▁विज्ञप्ति 100
▁साबुन 100
▁बान्की 100
▁सजीव 100
FILE 100
▁tithe 100
▁लन्डन 100
▁बेलुका 100
▁ascend 100
▁recognition 100
▁केक्सी 100
▁cheer 100
▁loose 100
▁कफी 100
▁इन्डेन्टेसन 100
Config 100
▁दाइजो 100
▁इन्डेन्ट 100
▁ब्यवस्था 100
▁Ahaziah 100
▁admitted 100
▁दाखबारी 100
▁जनस्वास्थ्य 100
▁गइरहेका 100
▁technologies 100
▁तारामण्डल 100
▁शिफ्ट 100
▁टिभी 100
▁मार्गदर्शक 100
▁सिलास 100
▁classroom 100
▁testified 100
▁जुम्ला 100
▁trial 100
▁Arrow 100
▁cleansed 100
▁शावल 100
▁ध्वनी 100
▁vital 100
▁snap 100
▁यत्ति 100
एजेर 100
▁binary 100
▁eastward 100
▁everywhere 100
▁रहँदा 100
▁पखाल 100
▁Patan 100
▁प्रमाणिकरण 100
▁checkbox 100
▁कृषिजन्य 100
▁stake 100
▁प्रस्तुतिकरण 100
▁स्याउ 100
▁Found 100
▁justify 100
▁भनिन्थ्यो 100
▁oxen 100
▁Still 100
▁PostScript 100
ार्षिक 100
▁pull 100
▁Bho 100
▁बालुवा 100
▁लिटर 100
▁होईन 100
▁अगुवाई 100
▁perverse 100
▁टुङ्ग 100
▁कहीं 100
▁fever 100
▁सीनै 100
▁मैदानहरु 100
दर्शक 100
▁उदय 100
▁पारिएका 100
▁कार्यशाला 100
▁चारजना 100
▁Gradient 100
▁sail 100
▁पेन्ट 100
▁Host 100
▁poly 100
layer 100
See 100
टोल 100
▁eighty 100
▁fatherless 100
position 100
▁मणि 100
▁उति 100
▁बढाएर 100
▁boxes 100
▁लिन्छन् 100
▁नारायणी 100
ेखि 100
▁difficulty 100
▁purchased 100
▁shouted 100
▁हराइरहे 100
▁retriev 100
▁Song 100
्तम 100
पोष्ट 100
▁डेल 100
▁कार्डहरू 100
bata 100
gam 100
▁speaker 100
▁जलाए 100
▁पुर्व 100
▁Arch 100
▁दिइन 100
▁नमान 100
▁पुस्तकचिनोहरू 100
▁grab 100
▁खोज्दै 100
▁ऊँटहरू 100
तपाईँ 100
▁सार्दछ 100
▁बर्ग 100
eather 100
▁हिउँद 100
▁जहा 100
▁marginal 100
▁involv 100
▁बारा 100
▁बनाउँनेछ 100
आएको 100
▁नदीहरु 100
▁Gau 100
tsu 100
कृय 100
▁Prepar 100
▁सवाल 100
eometric 100
▁सप् 100
▁सिद्धि 100
▁बाख्राहरू 100
▁Palm 100
adha 100
▁रक्षकहरू 100
▁एकान्त 100
त्त्व 100
▁क्रु 100
▁सरे 100
▁ideal 100
▁idol 100
▁भर्ने 100
▁देख्दै 100
▁gene 100
सम्भव 100
screen 100
CVS 100
पदार्थ 100
ढाँचा 100
scope 100
directory 100
Most 100
index 100
अहिले 100
free 100
मानचित्र 100
search 100
start 100
▁बाशा 100
▁घन्ट 100
▁deceive 100
▁विश्लेषकहरू 100
▁slide 100
Give 100
▁browse 100
echnical 100
▁permit 100
▁supplement 100
▁गदल्याह 100
▁जीवाणु 100
▁तत्पर 100
Pacific 100
idirectional 100
‬ 100
▁Benaiah 100
▁Developer 100
▁Electricity 100
▁Furthermore 100
▁Kalzium 100
▁Microsoft 100
▁Picture 100
▁Quit 100
▁SOCKS 100
▁William 100
▁consolidate 100
▁conspiracy 100
▁defense 100
▁drove 100
▁erosion 100
▁fluid 100
▁merciful 100
▁numerous 100
▁persuade 100
▁physician 100
▁prohibit 100
▁removal 100
▁restricted 100
▁significance 100
▁अपरान्ह 100
▁उन्मूलन 100
▁कारवाही 100
▁झट्टै 100
▁टोकियो 100
▁ट्विट 100
▁ठेक्का 100
▁ड्राफ्ट 100
▁दुश्मन 100
▁पंखेटा 100
▁पुरातात्विक 100
▁प्रक्षेपित 100
▁बिमस्टेक 100
▁शल्यक्रिया 100
▁शौचालय 100
▁श्रृङ्खला 100
▁सत्याग्रह 100
▁समृद्ध 100
▁सम्भोग 100
▁स्वेच्छा 100
▁हजाएल 100
mimetype 100
▁KDM 100
▁KWord 100
▁PNM 100
▁discharge 100
▁magic 100
▁mandatory 100
▁porch 100
▁slightly 100
▁yoga 100
▁गुँड 100
▁चित्रकला 100
▁पण्डित 100
▁Sinai 100
▁carpet 100
▁असोज 100
▁पदाधिकारी 100
▁terai 100
▁pledge 100
▁shelter 100
▁कान्छा 100
▁दुर्व्यवहार 100
▁Cray 100
▁"{0}" 100
▁पहरा 100
▁छिट्ट 100
▁महाकाली 100
▁शुरुवात 100
▁Tibet 100
▁Indeed 100
▁Order 100
▁Large 100
▁दशांश 100
▁पैदल 100
▁थुप्रो 100
▁Valid 100
▁discrimination 100
▁fresh 100
▁bribe 100
▁हावापानी 100
▁pump 100
▁creep 100
▁predict 100
▁stuck 100
▁सम्मुख 100
▁परिक्षण 100
▁बहुमत 100
▁Jones 100
▁Padma 100
▁सक्थ्यो 100
▁detection 100
▁संभार 100
▁पागल 100
▁Mask 100
▁vanity 100
▁फ्लपी 100
▁reload 100
▁Watch 100
▁boundary 100
▁सिचाइ 100
▁जनजाति 100
▁एशियाली 100
▁सिमेन्ट 100
▁secretary 100
▁लैजाऊ 100
▁SSH 100
▁यज्ञ 100
▁airline 100
▁Active 100
करीव 100
▁Music 100
▁दही 100
▁variat 100
▁selfish 100
▁नपरे 100
▁लडाई 100
▁पुग्दा 100
Yes 100
▁बुझिन्छ 100
▁आईपी 100
▁Range 100
▁Hold 100
▁व्यवस्थापक 100
▁बिमारी 100
▁लिनुपर्छ 100
▁देख्दा 100
▁Butwal 100
▁पक्कै 100
▁hail 100
▁dash 100
▁राख्दा 100
▁Narayani 100
▁भरिएका 100
▁पार्नुहुन्छ 100
▁नरहेको 100
▁profitable 100
▁निर्माणकार्य 100
▁हेरें 100
▁जलाउनु 100
▁थप्दछ 100
▁accomplished 100
▁गर्छिन् 100
tax 100
haruko 100
▁significantly 100
▁determination 100
▁damaged 100
▁usual 100
बीजहरू 100
▁झिक्न 100
ains 100
▁goodness 100
▁उमार 100
▁mule 100
▁irr 100
▁Merge 100
bai 100
▁प्रसंग 100
ठाउँ 100
▁घटाउ 100
▁Rama 100
▁अगा 100
▁सञ् 100
▁मार्नेछ 100
wl 100
▁मिसाए 100
दिन्छु 100
▁पिउनु 100
▁यथावत 100
टेल 100
harule 100
easing 100
7,000 100
▁तुल्याउँछ 100
New 100
▁लडिरहे 100
▁साधनहरू 100
▁रसायन 100
▁critical 100
▁Model 100
▁compete 100
ततै 100
जीवी 100
rude 100
▁Jami 100
▁फ्याक 100
▁seminar 100
▁talent 100
mbu 100
▁जीप 100
▁lag 100
▁remind 100
रोजगार 100
employed 100
FTP 100
अन्त्य 100
पुस्तिका 100
▁profession 100
स्टिक 100
version 100
making 100
▁Mini 100
साधन 100
▁Collect 100
▁घोड 100
▁agree 100
▁साँच 100
निज 100
▁Product 100
▁Ahaz 100
▁अस्तव्यस्त 100
▁इस्साकार 100
▁गोल्यत 100
▁ढैंचा 100
▁मजदूर 100
ATION 100
KATHMANDU 100
raffiti 100
प्रशोधित 100
वर्धक 100
▁1964/65 100
▁Adhikari 100
▁Australia 100
▁DVD 100
▁Especially 100
▁External 100
▁MPEG 100
▁Macedonia 100
▁Physical 100
▁Poudel 100
▁SMTP 100
▁Shemaiah 100
▁ceremony 100
▁colour 100
▁concubine 100
▁diligently 100
▁leakage 100
▁manufacturing 100
▁modifier 100
▁museum 100
▁nucle 100
▁politician 100
▁pronounce 100
▁radius 100
▁satisfy 100
▁somewhat 100
▁stolen 100
▁syntax 100
▁tremendous 100
▁unavailable 100
▁unchanged 100
▁unsupported 100
▁venture 100
▁अभिमुखीकरण 100
▁आकांक्षा 100
▁औद्योगीक 100
▁क्षतिपूर्ति 100
▁डेइमन 100
▁दुग्ध 100
▁दौरान 100
▁नियमावली 100
▁निर्देशिका 100
▁प्रोजेक्ट 100
▁बाइनरी 100
▁भूमध्य 100
▁युनिक्स 100
▁विनम्र 100
▁सप्तरी 100
▁सार्वभौम 100
▁स्थगित 100
▁हुकुम 100
▁१९८७ 100
▁Chitwan 100
▁audience 100
▁chicken 100
▁एङ्कर 100
▁टाढो 100
▁डेटाबेस 100
▁नाङ्गो 100
▁हाइपर 100
Columbia 100
▁Norman 100
▁Session 100
▁histogram 100
▁override 100
▁पोसाक 100
▁explore 100
▁मनिटर 100
▁basin 100
▁forehead 100
▁pulse 100
▁अपनाई 100
▁कोष्ठक 100
▁gconfd 100
▁नभै 100
▁calm 100
▁ज्यामिति 100
▁alleged 100
▁आश्रय 100
▁बजाउन 100
▁जागृत 100
▁Self 100
▁योगफल 100
▁Header 100
▁adapt 100
▁कूश 100
▁Applet 100
▁suspect 100
▁व्याप्त 100
▁लाठी 100
▁blameless 100
▁फँस 100
▁ब्रस 100
▁Merari 100
▁जीभी 100
▁शब्दकुञ्जी 100
▁रहँदैन 100
▁trick 100
▁पुनर्वास 100
महाशय 100
▁Weather 100
▁Hamath 100
▁योद्धा 100
▁announcement 100
▁drank 100
▁अङ्गुर 100
▁barley 100
▁नदिई 100
▁digging 100
▁1992 100
▁blame 100
▁Koshi 100
▁लम्बाई 100
▁गरिसकेपछि 100
▁discern 100
▁2013 100
▁इरान 100
CSV 100
▁मिलाइनेछ 100
▁नरोक 100
▁असत्य 100
▁proof 100
▁logging 100
▁1960 100
▁realized 100
printer 100
▁gladness 100
▁devil 100
▁सम्हाल 100
▁sickness 100
▁सक्ला 100
▁fruitful 100
▁संदेश 100
▁Campus 100
▁धकेल 100
्थ्यौं 100
▁सङ्ख्यात्मक 100
▁digest 100
▁thirsty 100
▁Bhat 100
▁काट्नुहोस् 100
▁Seir 100
▁गरिदिनेछु 100
▁Fire 100
ख्ख 100
▁स्वर्गदूतहरु 100
▁thief 100
▁नपाउने 100
▁Lower 100
▁कार्यविधि 100
▁नजाऊ 100
▁exhibition 100
▁यदी 100
▁छुटेको 100
▁पाएनन् 100
▁डराउनु 100
▁unexpectedly 100
▁रुजु 100
▁effectiveness 100
▁सबैजसो 100
▁textile 100
▁आइनु 100
▁Cell 100
▁बेद 100
▁nobody 100
▁intended 100
▁favorable 100
▁काव्य 100
▁plantation 100
▁पहिरन 100
ncreas 100
▁रोकिन 100
▁Sale 100
▁shareholder 100
Root 100
कूल 100
▁oldest 100
▁आउँदैन 100
▁seize 100
▁सयौं 100
▁टुक्र 100
▁ओढ 100
▁जोशी 100
▁आपत 100
▁उसो 100
▁प्रविधिहरु 100
▁54 100
▁सुश्र 100
▁खोलेर 100
▁dear 100
▁employed 100
▁पूरक 100
▁taxi 100
▁आतंकवाद 100
cepti 100
प्रायजसो 100
▁Ramah 100
▁फैलिए 100
िराख 100
▁छोडनु 100
▁श्रमिक 100
▁monk 100
▁शंकर 100
▁पठाइन्छ 100
ुन्जेल 100
▁आर्य 100
▁नाता 100
मुक्त 100
yang 100
▁निवासी 100
▁var 100
▁समानता 100
ायल 100
▁वहन 100
PN 100
▁हटाउँद 100
▁छुट्टा 100
▁सदस्यहरु 100
hav 100
▁अपनाइ 100
prop 100
▁disciple 100
पार्ट 100
▁सर्ने 100
▁आतंक 100
▁साटो 100
कमारीहरू 100
▁दोह 100
▁sq 100
Print 100
determination 100
Surely 100
▁Arab 100
कृष्ण 100
Control 100
फोल्डर 100
सर्भर 100
प्रतिलिपि 100
मिनेट 100
गणना 100
which 100
▁बस्तुहरू 100
गाडी 100
एन्ड 100
▁oppose 100
▁acquire 100
▁सच्याउन 100
दण्ड 100
▁referr 100
▁Ten 100
▁अम्मोनीहरू 100
▁भन्नेबारे 100
▁courage 100
titution 100
एफओभी 100
▁Cooperative 100
▁ERROR 100
▁George 100
▁Kiriath 100
▁Method 100
▁Mizpah 100
▁Pattern 100
▁Prevent 100
▁Promotion 100
▁Quick 100
▁Summit 100
▁Surkhet 100
▁acknowledge 100
▁anguish 100
▁astonished 100
▁compensation 100
▁dependencies 100
▁embedded 100
▁hinder 100
▁laboratories 100
▁locust 100
▁obvious 100
▁plastic 100
▁recurrence 100
▁remedies 100
▁revised 100
▁saturation 100
▁screenshot 100
▁supplication 100
▁terrible 100
▁thanksgiving 100
▁trembling 100
▁tribute 100
▁unsaved 100
▁अनुत्पाद 100
▁अपरिचित 100
▁अभिभारा 100
▁अमेरिकन 100
▁अम्नोन 100
▁एर्रावाडी 100
▁ओबेद 100
▁कम्पाइल 100
▁गन्तब्य 100
▁छैटौं 100
▁जीटीके 100
▁तिमोथी 100
▁दिशानिर्देशन 100
▁दोब्बर 100
▁नबुझ 100
▁निर्गात 100
▁न्यायाधीश 100
▁प्रशिक्षार्थी 100
▁बहुसंख्यक 100
▁बेलुकी 100
▁मिलिसेकेन्ड 100
▁लेखाजोखा 100
▁वाषिर्क 100
▁शैलीपाना 100
▁श्रेस्ता 100
▁स्प्रेड 100
▁हस्तकला 100
▁हिल्कियाह 100
→ 100
▁Brahmin 100
▁defend 100
▁eighteen 100
▁ghee 100
▁दवाव 100
▁silk 100
▁troop 100
▁सोझो 100
▁टुहुरा 100
▁पसिना 100
▁repeatedly 100
▁compiled 100
▁Overwrite 100
▁skip 100
▁जनवरी 100
▁abound 100
▁सुगम 100
▁असिना 100
sortable 100
▁scaling 100
▁पोष्टस्क्रिप्ट 100
▁Treat 100
▁Ainu 100
▁bald 100
तृप्त 100
▁cords 100
▁rebelled 100
▁Securities 100
▁अहियाह 100
▁folly 100
▁क्र्यास 100
▁स्पर्श 100
▁begged 100
▁जोर्नी 100
▁stirring 100
▁trapped 100
▁Recent 100
▁considerably 100
▁calf 100
▁urgent 100
▁संवैधानिक 100
▁exhort 100
▁बुटवल 100
▁underlying 100
▁नाबाल 100
▁1998 100
▁Blue 100
▁अंकुर 100
▁गणेशमान 100
▁alien 100
▁अदुवा 100
▁Jump 100
▁दिंदा 100
▁terrorism 100
▁hostname 100
▁खिन्न 100
▁धामी 100
▁गिद्ध 100
▁भइरहेछ 100
▁आइरहेका 100
▁भैसके 100
▁Design 100
▁informal 100
▁मोहडा 100
▁जांच 100
▁जान्दछ 100
▁क्लोन 100
▁थिचि 100
▁breakpoint 100
▁स्याहार 100
▁Sometime 100
▁स्पेन 100
▁collective 100
▁Manage 100
▁स्लट 100
बापत 100
▁थाल्दछ 100
▁चढाऊ 100
▁uncleanness 100
▁घडि 100
▁लिंदै 100
▁छाडिए 100
▁sys 100
▁अगुवाइ 100
ंदो 100
▁socio 100
▁जातीय 100
▁मार्यो 100
▁जान्दछन् 100
▁Java 100
▁behave 100
▁ब्याज 100
▁दिएनौ 100
▁tight 100
▁बढाउँदै 100
▁होटेल 100
▁मोटोपन 100
▁unset 100
लिट 100
▁कस्ता 100
▁vary 100
▁ओपन 100
्याइएको 100
▁विश्लेषक 100
विचार 100
▁भलो 100
▁Yu 100
▁सोचाइ 100
bell 100
▁celebrated 100
▁आर्ट 100
▁Sever 100
▁intention 100
▁पारें 100
ुक्ति 100
▁Input 100
▁[] 100
▁bake 100
▁होलान् 100
▁प्रयोजन 100
▁हाइलाइटिङ 100
ियाली 100
▁लाखौं 100
▁lean 100
▁लग्यो 100
▁देखाइन्छ 100
▁काण्ड 100
ease 100
▁थरी 100
▁Low 100
▁सर्वाधिक 100
७७ 100
▁फेड 100
0.5 100
पुर्ण 100
gz 100
▁controller 100
▁हिमालय 100
इएको 100
▁Pla 100
lection 100
▁भक्ति 100
▁बोलिरहे 100
▁रूथ 100
▁Mov 100
▁बदल्ने 100
▁बाहु 100
iharu 100
▁हिट 100
▁पुर्याइनेछ 100
▁विमानस्थलहरु 100
▁मोहन 100
ग्री 100
▁1,2 100
▁गुड 100
▁रोगहरु 100
जातिहरू 100
शासन 100
▁दगुरे 100
▁dimension 100
▁Zu 100
▁फर्कन्छ 100
▁Geo 100
▁cookie 100
▁तोके 100
▁Kamal 100
६०० 100
चयन 100
hill 100
Blessed 100
Group 100
Color 100
construction 100
हजार 100
▁complet 100
▁educat 100
Make 100
भारत 100
शहर 100
▁चुक्त 100
▁Russia 100
▁celebrate 100
▁continuous 100
▁भर्खर 100
▁logic 100
▁guilt 100
etween 100
▁rebel 100
▁सन्तोष 100
▁uplift 100
▁1972/73 100
▁Communit 100
▁Consequently 100
▁Constitution 100
▁Family 100
▁Flickr 100
▁Introduction 100
▁Irrawaddy 100
▁Jamaica 100
▁KOrganizer 100
▁Learning 100
▁Module 100
▁Simeon 100
▁Temple 100
▁UNESCO 100
▁UNIX 100
▁Zawinski 100
▁adversary 100
▁bronze 100
▁browsing 100
▁commerce 100
▁conscience 100
▁controversy 100
▁courtyard 100
▁curriculum 100
▁declaration 100
▁ephod 100
▁explicit 100
▁imagination 100
▁inhabited 100
▁legend 100
▁pocket 100
▁remarkable 100
▁steadfast 100
▁structural 100
▁subsequent 100
▁supposed 100
▁tuberculosis 100
▁अघाडी 100
▁अमालेकीहरू 100
▁असन्तुष्ट 100
▁कृयाकलाप 100
▁ग्रेस्केल 100
▁नाओमी 100
▁निपुण 100
▁पछिल्तिर 100
▁परिवर्त्तन 100
▁पाङ्ग्रा 100
▁फैसला 100
▁बृक्ष 100
▁ब्राह्मण 100
▁ब्रिटिश 100
▁महँगो 100
▁यहूदिया 100
▁युनियन 100
▁वाञ्छित 100
▁साधरण 100
▁स्ट्रिट 100
▁स्वाचालित 100
▁Bhutan 100
▁EOL 100
▁Georgia 100
▁Period 100
▁composed 100
▁fortress 100
▁तन्तुपथ 100
▁त्यतिखेर 100
▁नेकपा 100
▁बसोवास 100
▁मधुमेह 100
▁रूपियाँ 100
▁Airlines 100
▁Sunsari 100
▁TCP 100
▁absor 100
▁नार्मन 100
▁न्यानो 100
▁सीदोन 100
▁straw 100
▁rival 100
▁शङ्का 100
▁Curve 100
▁worst 100
▁Coast 100
▁प्रायश्चित 100
▁cakes 100
▁Veer 100
▁rescue 100
▁Secur 100
▁महासचिव 100
▁Detect 100
▁Baasha 100
▁मामला 100
▁युवती 100
▁leather 100
▁भएतापनि 100
▁अवतार 100
▁आउंछ 100
▁banner 100
▁characteristic 100
▁मेरै 100
▁manipulat 100
▁fullscreen 100
▁अध्याय 100
▁flourish 100
▁चाहाना 100
▁meantime 100
▁framework 100
▁२०२८ 100
▁तेह्र 100
▁minority 100
▁रेशम 100
▁देख्छु 100
▁transferred 100
▁Balance 100
▁अन्ततः 100
▁उखेल 100
▁२००५ 100
▁Mouse 100
▁Opera 100
▁mol 100
▁lame 100
▁xterm 100
▁फूट 100
▁preset 100
▁BMP 100
▁गाडियो 100
▁रूजु 100
▁grieved 100
▁menubar 100
▁साँच्चि 100
▁सङ्गत 100
▁Assign 100
▁bigger 100
▁नाप्यो 100
▁continuously 100
▁campuses 100
▁tele 100
▁Russian 100
▁indication 100
▁देउ 100
▁बद् 100
▁भेटिए 100
▁Really 100
▁Vice 100
▁inspired 100
▁कोरेस 100
▁अस्थिरता 100
▁लिनक्स 100
▁दुध 100
▁बद्ला 100
pati 100
▁1:1 100
▁बनाउनुभयो 100
▁Limited 100
▁treaty 100
▁WW 100
▁मार्नेछन् 100
▁उतार्न 100
▁homeless 100
ग्रो 100
▁मानवीय 100
▁जान्दछौं 100
▁एपा 100
▁Kali 100
▁DR 100
▁भोकै 100
▁handling 100
▁000 100
▁texture 100
▁ड्रप 100
▁नहेर 100
▁Way 100
▁Arabia 100
▁ट्रेड 100
▁Remov 100
▁Parse 100
▁झुट 100
▁८९ 100
▁सिकाउँछ 100
▁चिप्ल 100
▁जान्नेछौ 100
▁handler 100
▁pity 100
▁overthrow 100
▁देखाइने 100
▁दिइरह 100
▁पुग्दछ 100
▁mute 100
▁Kumari 100
▁lap 100
लागे 100
ोचित 100
▁थालिए 100
▁घृण 100
▁weapon 100
▁Option 100
▁demon 100
▁सुम्पन 100
▁लाउने 100
▁foo 100
िँदै 100
▁गहन 100
▁पढ्दै 100
ida 100
▁cook 100
▁छात्र 100
` 100
सेकेन्ड 100
MIME 100
channel 100
stream 100
Therefore 100
हाम्रो 100
वचन 100
electricity 100
बाबेल 100
word 100
tribe 100
sharing 100
▁फेद 100
Down 100
स्थानीय 100
six 100
▁बल्दै 100
▁बृद्ध 100
▁thirst 100
▁motivat 100
ultural 100
▁constrain 100
▁transgress 100
▁पुनरावृत 100
▁Giri 100
Prefecture 100
▁1961/62 100
▁1971 100
▁Amaziah 100
▁Branch 100
▁California 100
▁DocBook 100
▁Encoding 100
▁Friday 100
▁Jehoiakim 100
▁Jumla 100
▁MDN 100
▁Mahakali 100
▁Miscellaneous 100
▁Pradesh 100
▁Structur 100
▁Usually 100
▁Washington 100
▁accurate 100
▁affiliate 100
▁anniversary 100
▁cloak 100
▁commodity 100
▁communist 100
▁custody 100
▁irregular 100
▁opponent 100
▁potatoes 100
▁procure 100
▁purchasing 100
▁repository 100
▁screensaver 100
▁sovereignty 100
▁strife 100
▁stuff 100
▁synchronize 100
▁triangle 100
▁universal 100
▁अकाउन्ट 100
▁अङ्ग्रेजी 100
▁अट्टेरी 100
▁अनमाउन्ट 100
▁अपहरण 100
▁अबीशै 100
▁आवागमन 100
▁गलैंचा 100
▁गेहजी 100
▁ग्रिटर 100
▁ट्याक्सी 100
▁धिक्कार 100
▁नहोऊ 100
▁निश्चिन्त 100
▁पोडकास्ट 100
▁प्रवन्ध 100
▁प्लेब्याक 100
▁फेसबुक 100
▁बिरुद्ध 100
▁भ्रष्ट 100
▁मस्यौदा 100
▁माइक्रोसफ्ट 100
▁राजमहल 100
▁लहुरो 100
▁शरणार्थी 100
▁शल्लूम 100
▁शेर्पा 100
▁सम्विधान 100
▁सुनिश्चित 100
▁सैद्धान्तिक 100
▁स्तरवृद्धि 100
▁Finish 100
▁Robert 100
▁Sherpa 100
▁Symbol 100
▁afternoon 100
▁exposed 100
▁precept 100
▁कठीन 100
▁कार्बन 100
▁बेहेरूवा 100
▁विजेता 100
▁वैदिक 100
▁advertisement 100
▁handheld 100
▁Aviation 100
▁overlaid 100
▁प्रज्ञा 100
▁Judas 100
▁comprehen 100
▁कारीगर 100
▁राक्षस 100
▁sorry 100
▁insects 100
▁निमार्ण 100
▁Tourist 100
▁judicia 100
▁Junk 100
▁chair 100
▁entity 100
▁भगवती 100
▁नहुञ्जेल 100
▁मरारी 100
▁फौज 100
▁हन्ना 100
▁आँउछ 100
▁Friends 100
▁ropeway 100
▁व्रत 100
▁shock 100
▁जेम्स 100
▁कुमारी 100
▁sanctify 100
युरोपेली 100
▁शापान 100
▁चाहँदैन 100
▁unproductive 100
▁Samson 100
▁jump 100
▁luck 100
▁उल्टाउनुहोस् 100
▁टिपोट 100
▁dragging 100
वैधानिक 100
▁फोर्ड 100
▁सक्तछ 100
▁authorization 100
▁दिमाग 100
▁assessment 100
▁बजाउनुहोस् 100
▁clone 100
▁Bridge 100
▁loop 100
▁1970 100
▁आइसकेको 100
▁correspondent 100
▁कोडेक 100
▁stamp 100
▁ninety 100
▁sanitation 100
▁वेशी 100
▁सक्दिन 100
▁ज्ञात 100
▁mapping 100
▁बाह्रजना 100
ाचार्य 100
▁बलवान 100
▁नलाग्ने 100
▁२०४२ 100
▁फेशन 100
▁बेहोर्न 100
▁suspended 100
▁Roman 100
▁implie 100
▁आदेशरेखा 100
▁समन्वयात्मक 100
▁त्रास 100
▁प्रशिक्षक 100
▁Bhim 100
▁ताओ 100
▁शरण 100
▁FOR 100
▁भन्दैछु 100
▁पढाउने 100
तन्तु 100
▁1950 100
▁दिलाउने 100
▁rail 100
▁carefully 100
▁समलि 100
▁leap 100
▁सार्क 100
▁कही 100
▁खस्क 100
▁अवधिभर 100
▁Elam 100
▁formatting 100
▁Letter 100
▁गुणस्तरीय 100
▁विशेषतः 100
▁हुनुपर्नेछ 100
▁honorable 100
▁Bhag 100
▁sown 100
▁पर्वतमाथि 100
▁बांक 100
मणि 100
▁Sita 100
तंत्र 100
▁एरे 100
▁लिनेछन् 100
▁त्याग्नु 100
▁छात्रा 100
▁देखाई 100
▁Raise 100
▁choos 100
▁भूइँ 100
▁Side 100
▁Veda 100
horn 100
▁मर्नेछौ 100
▁टाँस्न 100
▁पुलहरु 100
▁Meta 100
▁Delet 100
▁फर्किने 100
0.00 100
▁हलो 100
▁Off 100
▁स्याल 100
▁सामन्त 100
िरह्यो 100
▁बिताए 100
▁आइलाग 100
▁Qua 100
▁बढदै 100
▁खोलिने 100
topped 100
▁निहुरिए 100
▁Love 100
bstract 100
▁geo 100
▁बगाल 100
▁experienc 100
▁फ्रि 100
▁Hanan 100
▁representative 100
▁दीन 100
gel 100
▁भत्काए 100
▁adj 100
▁Nep 100
▁historic 100
▁पत्त 100
▁नदिनु 100
▁अफ्रिक 100
▁complain 100
From 100
Show 100
अवस्थित 100
हाँसो 100
Log 100
KDE 100
close 100
after 100
▁Typ 100
शान्ति 100
▁Korea 100
▁सद् 100
title 100
▁पारिनेछ 100
▁employ 100
writer 100
Hear 100
▁arrange 100
▁साक्षर 100
▁abundant 100
▁त्यहा 100
ैकल्पिक 100
▁formulate 100
▁Comma 100
▁hyper 100
▁wiki 100
सङ्कुचित 100
▁Administrative 100
▁CMYK 100
▁Concern 100
▁Ethiopia 100
▁Heshbon 100
▁Hilkiah 100
▁Jeshua 100
▁KAlarm 100
▁KSpread 100
▁Magnatune 100
▁Nuwakot 100
▁Parameters 100
▁Record 100
▁Refresh 100
▁Sanskrit 100
▁Shaphan 100
▁Shiloh 100
▁Sihon 100
▁adolescent 100
▁affairs 100
▁compulsory 100
▁electronic 100
▁enrolment 100
▁eventually 100
▁fertility 100
▁hurried 100
▁imagine 100
▁mathematic 100
▁merchandise 100
▁reservoir 100
▁routine 100
▁snapshot 100
▁solemn 100
▁substitute 100
▁uncircumcised 100
▁upgrading 100
▁अद्वितिय 100
▁कङ्ग्लोमरेट 100
▁घुँडा 100
▁घोप्ट 100
▁जीकम्प्रिस 100
▁जेनेरल 100
▁टुप्पो 100
▁धूपौरो 100
▁नगण्य 100
▁पाइथोन 100
▁पौडेल 100
▁प्लास्टिक 100
▁भइसक्यो 100
▁मांसपेशी 100
▁मेटाडेटा 100
▁मोटरसाइकल 100
▁यूफ्रेटिस 100
▁विषालु 100
▁सुनियोजित 100
▁हनन्याह 100
graduate 100
▁Alarm 100
▁Justice 100
▁nursing 100
▁अमृत 100
▁कलकत्ता 100
▁ग्रीष्म 100
▁दवाब 100
▁धुवाँ 100
▁फाइनान्स 100
▁भूईंमा 100
▁मोडलिंग 100
▁सङ्कट 100
▁सिपालु 100
▁Major 100
▁Micah 100
▁Pilot 100
▁groan 100
▁आंखा 100
▁आचार्य 100
▁चौंरी 100
▁जिम्री 100
▁महंगो 100
▁याबेश 100
▁विपन्न 100
▁investigate 100
▁द्वन्द 100
▁heavily 100
▁नभइ 100
▁लघु 100
▁वरपर 100
▁Institution 100
▁हरायो 100
▁अतीत 100
▁Skip 100
▁peas 100
▁Price 100
▁माइती 100
▁पन्ना 100
▁greed 100
▁serving 100
▁थिच्न 100
▁चक्का 100
▁barrier 100
▁~/. 100
▁entreat 100
▁Mall 100
▁maternity 100
▁मिनट 100
▁वायुसेवा 100
▁आमसभा 100
▁legislation 100
▁immorality 100
▁Subject 100
▁बारूक 100
▁कम्पोज 100
▁Conglomerate 100
▁slip 100
▁फ्लिप 100
▁Republic 100
▁बोतल 100
▁एन्टि 100
▁महाराजा 100
▁पक्क 100
▁सम्झनुहोस् 100
Engine 100
▁Himal 100
▁घट्दो 100
▁टोपी 100
▁क्लास 100
▁sack 100
▁CPN 100
▁आइपर्ने 100
▁Joshi 100
▁मेची 100
▁नवीकरण 100
▁इन्द्रिय 100
▁२०१९ 100
▁drunken 100
▁convinced 100
▁brand 100
▁छुट्टी 100
▁समाचारपत्र 100
▁अबियाह 100
▁lilo 100
▁motivation 100
▁चार्ज 100
▁खोजिरहेको 100
▁Kong 100
▁मर्छन् 100
▁उखु 100
▁comma 100
▁Team 100
▁सुनेनन् 100
▁Mobil 100
▁कम्पनीहरु 100
▁लिनुभयो 100
▁businessman 100
▁oak 100
▁png 100
▁चाख 100
▁lowest 100
▁आसाप 100
▁वजन 100
▁लेवल 100
▁दुर्ल 100
▁हरफ 100
▁राख्नुपर्छ 100
▁बियर 100
IBM 100
▁greeter 100
▁भयौं 100
▁demo 100
▁सोचें 100
▁Nun 100
▁छुट्याइए 100
▁राइट 100
▁खाँद 100
▁विग्र 100
true 100
▁Mala 100
2.0 100
▁भइरहन्छ 100
gua 100
▁लुकाउने 100
▁निकालिए 100
50,000 100
▁बल्ल 100
change 100
ाँई 100
▁चैत्र 100
▁प्रजाति 100
▁पुर्याउ 100
▁निस्कियो 100
▁Khar 100
▁फाट 100
▁पठाइने 100
▁दाङ 100
▁किसानहरु 100
मदत 100
▁बनाइरहे 100
▁हिउँ 100
ट्ठ 100
▁त्यहि 100
▁श्रमिकहरु 100
▁पोलि 100
▁सर्ब 100
▁ब्राउजिङ 100
▁technique 100
▁cubit 100
▁रोकिने 100
▁सोच्ने 100
▁स्थानीयस्तर 100
▁लैजा 100
▁बज्र 100
भाईहरू 100
quality 100
घण्टा 100
अज्ञात 100
हाम्रा 100
सुरक्षा 100
सुविधा 100
▁afflict 100
▁हरिया 100
force 100
▁intend 100
apping 100
▁अभिव्यक्त 100
▁compute 100
वेभ 100
हिल्यै 100
▁काठमाडौ 100
▁फर्कने 100
व्यापी 100
ncorrect 100
कृष्ट 100
uspicious 100
° 100
▁Attribute 100
▁Bhagwati 100
▁Determine 100
▁Falgun 100
▁Gedaliah 100
▁InfoBox 100
▁Insurance 100
▁SAARC 100
▁Scheme 100
▁Scroll 100
▁Society 100
▁Synchroniz 100
▁Syntax 100
▁abhor 100
▁applies 100
▁cereal 100
▁condoms 100
▁confounded 100
▁consuming 100
▁discovery 100
▁floppy 100
▁gracious 100
▁imperative 100
▁interference 100
▁mortgage 100
▁parallel 100
▁receipt 100
▁satisfactory 100
▁stumbling 100
▁treacherous 100
▁writable 100
▁अखमिर 100
▁औचित्य 100
▁गम्भिर 100
▁चिट्ठी 100
▁जनचेतना 100
▁द्रौपदी 100
▁धम्की 100
▁नबूकदनेसर 100
▁निर्दलीय 100
▁पारिश्रमिक 100
▁पूंजी 100
▁बैज्ञानिक 100
▁भिटामिन 100
▁मर्ूर्ति 100
▁युनिकोड 100
▁युनेस्को 100
▁रिक्शा 100
▁लैंगिक 100
▁विश्वयुद्ध 100
▁सम्वेदनशील 100
▁सिफारिश 100
▁सुव्यवस्थित 100
बहुँविध 100
▁Carmel 100
▁Singapore 100
▁architect 100
▁church 100
▁harmony 100
▁intensity 100
▁maternal 100
▁neutral 100
▁treasury 100
▁जकरिया 100
▁तिब्बत 100
▁द्धन्द्ध 100
▁श्रीलंका 100
▁हस्तमैथुन 100
▁Caleb 100
▁Finally 100
▁Label 100
esettlement 100
oogle 100
▁True 100
▁उरियाह 100
▁बाल्यकाल 100
▁Glom 100
▁dawn 100
▁steel 100
▁beneath 100
▁tolerance 100
▁रुजू 100
▁forecast 100
▁उखान 100
▁यशू 100
▁सभ्यता 100
▁साँप 100
▁इसाई 100
▁zeal 100
▁हाजिर 100
▁बक्र 100
▁द्विपक्षीय 100
स्वतपत्ता 100
▁Repeat 100
▁इकाइ 100
Minimum 100
▁fuelwood 100
▁dying 100
▁विलियम 100
▁साबित 100
▁Mitsu 100
▁excess 100
Unicode 100
▁Zerah 100
▁भविष्यवाणी 100
▁dependency 100
▁अनुच्छेद 100
▁Version 100
▁deceitful 100
▁rehabilitation 100
▁सम्पति 100
▁अभियोग 100
▁Ganeshman 100
▁ब्यापार 100
▁बताउँदै 100
▁trace 100
▁subscribe 100
▁Jonah 100
▁च्याते 100
▁सकून् 100
▁suggestions 100
▁पारिदिनेछु 100
▁organs 100
▁जीविका 100
▁पकेट 100
▁undone 100
▁civilization 100
▁जनजीवन 100
▁प्लेयर 100
▁classified 100
▁literate 100
▁revolutionar 100
▁faithfulness 100
▁Preparation 100
▁urbanization 100
▁Encryption 100
▁null 100
▁पठाऊ 100
▁painful 100
▁जतिबेला 100
▁नौलो 100
▁गाइड 100
▁idle 100
▁रेखात्मक 100
▁serial 100
▁वेदना 100
▁printout 100
▁हटाइएको 100
▁wedding 100
onomy 100
▁बिग्रिएको 100
▁अम्बा 100
▁दशजना 100
▁आउनुभयो 100
▁हमात 100
▁abundantly 100
▁निदान 100
▁Leah 100
▁पठाइयो 100
▁खानुपर्छ 100
▁जून 100
▁उसक 100
▁पठाई 100
▁नित्य 100
▁स्वभाविक 100
▁अर्की 100
खोल्न 100
▁स्थितिपट्टी 100
▁जानुपर्छ 100
▁Store 100
▁ब्रो 100
ानुकूल 100
▁हूँ 100
▁लगाइन्छ 100
jee 100
▁पकाउने 100
▁खाट 100
्लेड 100
▁गोठ 100
chok 100
▁चिप 100
Step 100
▁मिल्क 100
▁भन्थे 100
▁इकाईहरु 100
ाइदिन्छ 100
▁धोए 100
▁जिउन 100
▁दबाउनु 100
makers 100
▁मेटिने 100
ोत्तम 100
corp 100
▁मिसिए 100
▁पुर्याइने 100
▁resident 100
▁preference 100
ाइदिनेछु 100
▁ल्याइनेछ 100
उँद 100
▁पत्या 100
HTML 100
पोषण 100
वाहेक 100
स्क्रिप्ट 100
Return 100
विद्यार्थी 100
html 100
सम्पत्ति 100
desktop 100
दक्षिण 100
Japan 100
foot 100
विरोध 100
त्यहाँ 100
treat 100
factor 100
▁भुक्तान 100
कन्फिगर 100
▁बटुले 100
▁arrest 100
string 100
▁जरुर 100
▁फोल्ड 100
▁invite 100
▁technolog 100
ircuit 100
▁Commit 100
Advanced 100
▁2046 100
▁Acharya 100
▁Beersheba 100
▁Consumer 100
▁Dynamic 100
▁EXIF 100
▁Growth 100
▁Implementation 100
▁Mozilla 100
▁PATH 100
▁Politic 100
▁Rebekah 100
▁Representative 100
▁Signature 100
▁Thailand 100
▁Thousands 100
▁Volume 100
▁circulation 100
▁coconut 100
▁complicated 100
▁convenient 100
▁crucified 100
▁delegation 100
▁diagnose 100
▁grievous 100
▁illiterate 100
▁immortal 100
▁injustice 100
▁integral 100
▁libraries 100
▁loaves 100
▁malaria 100
▁perpetual 100
▁phenomenon 100
▁regexp 100
▁reinstat 100
▁satellite 100
▁separation 100
▁sixteen 100
▁supplies 100
▁tariff 100
▁temporarily 100
▁unfortunate 100
▁valuation 100
▁violation 100
▁vomit 100
▁warehouse 100
▁आकस्मिक 100
▁इज्जत 100
▁उँभो 100
▁ऋषि 100
▁काँटछाँट 100
▁चम्चा 100
▁जलश्रोत 100
▁निरक्षर 100
▁निरुत्साह 100
▁परमेशवर 100
▁परोपकार 100
▁पहेंलो 100
▁पीनहास 100
▁प्रतिविम्ब 100
▁प्रतिस्पर्धी 100
▁फडानी 100
▁बिटम्याप 100
▁बुधबार 100
▁बौलाहा 100
▁भिक्षु 100
▁भिनाजु 100
▁रोबर्ट 100
▁शीघ्र 100
▁सम्बर्द्धन 100
▁साँघुर 100
▁स्वमूत्रपान 100
▁GPG 100
▁Galeon 100
▁Gandhi 100
▁Layout 100
▁anxious 100
▁hazard 100
▁meditate 100
▁अप्ठेरो 100
▁आचरण 100
▁गेलियन 100
▁डीभीडी 100
▁दिंदछ 100
▁राजविराज 100
▁विष्णु 100
▁सुरक्षण 100
ildlife 100
पर्ूर्ति 100
▁Personal 100
▁eagle 100
▁functionality 100
▁sweat 100
▁निष्काशन 100
▁स्न्याप 100
▁France 100
▁revive 100
▁खैरो 100
▁सँगठन 100
▁सीधा 100
▁प्लोट 100
▁फर्सी 100
▁Army 100
▁मिहिन 100
▁Mother 100
▁oracle 100
Stretch 100
▁र्बष 100
▁torture 100
▁त्रिकोण 100
▁Vedic 100
▁covet 100
▁pertain 100
▁अहंकार 100
▁recursive 100
▁मौरी 100
▁summit 100
▁बाहुल्य 100
▁नचाहे 100
▁नेभिगेसन 100
▁लाजरस 100
▁वाधा 100
▁empower 100
▁boundaries 100
▁Upload 100
▁wrapped 100
▁दूरवाणी 100
▁मैत्री 100
▁ब्याजदर 100
▁कोमल 100
घोष 100
▁भेट्टाउन 100
▁कुपोषण 100
▁महासभा 100
,00,000 100
▁चाहान्छ 100
▁उहि 100
▁postpon 100
▁Arabah 100
▁वसन्त 100
▁विस्थापित 100
▁ढाड 100
▁बद्ली 100
मूख 100
▁पिठो 100
▁simulation 100
▁पुनर्स्थापना 100
▁firewood 100
▁स्विकार 100
▁dropping 100
▁lifestyle 100
▁खण्डास्मित 100
▁चाहन्न 100
▁echo 100
▁2018 100
▁departure 100
▁२००९ 100
▁भूभाग 100
▁fame 100
▁sadness 100
▁गल्लीहरूमा 100
▁retail 100
▁झल्क 100
▁वर्गिकरण 100
▁massive 100
▁patch 100
▁डोटी 100
▁Browser 100
▁पठाउनेछु 100
▁काँच 100
▁बस्त्र 100
▁Wrap 100
▁उपेक्षित 100
▁विक्रि 100
▁उत्रि 100
▁थाप् 100
▁क्षणिक 100
▁छानिएको 100
▁720 100
▁धनात्मक 100
▁गरिरहन्छ 100
▁१ः१ 100
▁थलो 100
arriage 100
▁सोध्यो 100
▁७२० 100
▁टाडा 100
▁ब्लड 100
▁पिटर 100
▁Rock 100
▁Afterward 100
▁गाजा 100
▁पंच 100
API 100
▁ढल्क 100
▁wire 100
▁पिटे 100
▁भिन्द 100
▁symbolic 100
हुपक्षीय 100
▁पराल 100
▁सक्द 100
▁आयाम 100
कुण्ड 100
▁entrepreneur 100
▁insist 100
▁देखाऊ 100
▁organizer 100
4.5 100
▁उच्चस्तर 100
▁ठहरिए 100
▁बनिनेछ 100
अन्य 100
ologist 100
▁ढाकिए 100
▁bush 100
0.2 100
मुनी 100
परिवर्तन 100
▁Scor 100
▁Garo 100
क्षमता 100
▁maxim 100
▁नुहाउन 100
▁स्पाम 100
▁scientist 100
▁Philistine 100
▁Objective 100
▁छान्नुहोस 100
एक्स 100
▁बटुल्न 100
सर्ग 100
आयामिक 100
केटीहरू 100
▁अम्मोन 100
member 100
पृष्ठ 100
purpose 100
student 100
विषय 100
piece 100
गुप्त 100
परिभाषित 100
यरूशलेम 100
अवैध 100
विशेष 100
आत्मा 100
संघ 100
विज्ञान 100
error 100
score 100
पर्दैन 100
सिद्ध 100
Look 100
प्रदान 100
▁संस्कृत 100
▁शीर्ष 100
acharya 100
▁इलेक्ट्र 100
▁contradict 100
▁speculat 100
ServAuthDir 100
tissue 100
▁1980/81 100
▁Answer 100
▁Authentication 100
▁Available 100
▁Bhojpur 100
▁Domestic 100
▁Draupadi 100
▁French 100
▁Gandaki 100
▁Govind 100
▁Ignoring 100
▁Natural 100
▁Provider 100
▁Provision 100
▁academic 100
▁advent 100
▁aloud 100
▁circumcision 100
▁diversity 100
▁encoded 100
▁exclud 100
▁ignorant 100
▁indignation 100
▁liquor 100
▁malnutrition 100
▁reconcil 100
▁redemption 100
▁stubborn 100
▁surrender 100
▁thirteen 100
▁uncontrolled 100
▁vCard 100
▁vitamin 100
▁अर्धव्यास 100
▁असाधारण 100
▁इकिगा 100
▁उद्भिद 100
▁उल्लङ्घन 100
▁एचटीटीपी 100
▁एनिमेट 100
▁ओगटेको 100
▁गोठालो 100
▁चाहनुहुन्न 100
▁छुट्टाछुट्टै 100
▁जीर्णोद्धार 100
▁जुलूस 100
▁नगदेबाली 100
▁निर्णायक 100
▁नुवाकोट 100
▁नेपालगंज 100
▁न्यूनवैतनिक 100
▁पुननामाकरण 100
▁पोथ्रा 100
▁भेदभाव 100
▁मासेयाह 100
▁मौज्दात 100
▁यत्रतत्र 100
▁विन्डोज 100
▁व्यतिरेक 100
▁संक्षेप 100
▁सर्भिस 100
▁सान्दर्भिक 100
▁स्नातक 100
▁स्यानिटरी 100
▁स्वायत्त 100
▁हार्डवेयर 100
▁होमियोपेथ 100
▁OpenOffice 100
▁Quot 100
▁TLS 100
▁dishonor 100
▁एज्रा 100
▁क्याप्सन 100
▁छोटकरी 100
▁जनजाती 100
▁जिन्दगी 100
▁मरुभूमि 100
▁रोइरहे 100
▁संयोजक 100
▁स्क्रिनसट 100
▁Savior 100
▁breach 100
▁commend 100
▁migrate 100
▁temptation 100
▁उपकरणटिप 100
▁तुल्यायो 100
▁नपरोस् 100
▁सीहोन 100
▁हत्केला 100
▁Estate 100
▁eager 100
▁टोकरी 100
▁याचना 100
▁ससुरा 100
▁deaf 100
▁भैंसी 100
▁कान्छो 100
▁mystery 100
▁ओडार 100
▁कोसेली 100
▁कोशिस 100
▁प्याला 100
▁शिक्षालय 100
▁बाछो 100
▁Often 100
▁खिसी 100
▁बताई 100
▁सुनसरी 100
OUT 100
▁Disease 100
▁शीप 100
ountain 100
▁सेविका 100
▁शुक्रबार 100
▁txt 100
▁Bengal 100
▁तोरी 100
▁सङ्घर्ष 100
▁Hananiah 100
▁अन्दाज 100
▁मतभेद 100
▁Indra 100
ntermediate 100
▁पत्रकारिता 100
▁graphics 100
▁journalism 100
▁मर्निंग 100
▁क्रान्तिकारी 100
▁गुठी 100
▁नलिनी 100
▁banned 100
▁odd 100
▁courageous 100
▁permitted 100
▁realistic 100
▁सकूँ 100
▁westward 100
▁तुच्छ 100
▁सर्वोपर 100
PPD 100
▁देशव्यापी 100
▁club 100
▁दरबन्दी 100
▁गाभ्नुहोस् 100
▁पशुपति 100
▁hue 100
▁Money 100
▁पुननिर्माण 100
▁viral 100
▁ट्र्याक 100
▁whitespace 100
▁Archive 100
▁Compose 100
▁उपग्रह 100
▁पुष्ट 100
▁जर्जिया 100
GPL 100
▁Rastra 100
▁Taking 100
▁XMP 100
▁२००४ 100
▁जीवनशैली 100
▁flatter 100
▁लगत्तै 100
्थ्यौ 100
▁अनुकरण 100
▁abortion 100
▁पर्खिरहेका 100
▁मनस्थिति 100
▁Fair 100
▁Motor 100
▁attainment 100
▁Lead 100
▁Manual 100
▁Mohan 100
▁मार्क्स 100
▁मोनो 100
▁गरूँ 100
▁परिमाणात्मक 100
▁wail 100
मोचन 100
▁equality 100
▁कर्मेल 100
wav 100
▁celebration 100
▁बोलाऊ 100
▁25,000 100
▁wipe 100
▁Plain 100
▁तीनिहरू 100
▁reflection 100
▁slider 100
▁Gyan 100
▁अरव 100
▁अपनाइनेछ 100
narayan 100
▁दर्शाउनु 100
▁गाउँलेहरू 100
▁उपक्षेत्र 100
स्केप 100
▁बृहत् 100
लिङ्क 100
सूचकाङ्क 100
▁indicat 100
▁कोरिनेछ 100
▁Eat 100
USE 100
▁मीकाया 100
▁बचाउँछ 100
ांश 100
▁भईरहे 100
विधा 100
ूञ्जेल 100
habi 100
िराखेको 100
▁चलाइए 100
▁च्याति 100
परियोजनाअन्तर्गत 100
▁inhabitant 100
▁खोलिए 100
▁पेल 100
▁depr 100
विन्दु 100
sensitive 100
लुकाउनुहोस् 100
white 100
अवधि 100
शीर्षक 100
त्रुटि 100
पद्धति 100
माध्यम 100
always 100
square 100
वंश 100
weather 100
▁plac 100
▁दोहोरिने 100
▁exalt 100
▁navigation 100
▁initiate 100
▁assess 100
▁simulat 100
▁Uzzi 100
ncluding 100
▁इजाजत 100
▁surge 100
▁Tulsi 100
TYPE 100
akolagi 100
deprecated 100
eligible 100
× 100
वर्द्धक 100
शेमेश 100
▁1982/83 100
▁Calcutta 100
▁Conference 100
▁Ekiga 100
▁Federal 100
▁INDI 100
▁Outlook 100
▁Protocol 100
▁Sagarmatha 100
▁Scanning 100
▁Study 100
▁advocate 100
▁aggressive 100
▁ancestor 100
▁arbitrary 100
▁calamity 100
▁chamber 100
▁complementary 100
▁consolidation 100
▁creator 100
▁disparity 100
▁ecological 100
▁embrace 100
▁exposure 100
▁fault 100
▁feudal 100
▁flavor 100
▁glorify 100
▁handicraft 100
▁holiday 100
▁livelihood 100
▁marvelous 100
▁mirror 100
▁motorcycle 100
▁rabbit 100
▁satisfaction 100
▁solving 100
▁sweep 100
▁triumph 100
▁uncomfortable 100
▁yellow 100
▁अद्भूत 100
▁अष्ट्रेलिय 100
▁अहीमेलेक 100
▁आँकडा 100
▁एहूद 100
▁क्वेरि 100
▁गतिरोध 100
▁घुमाउरो 100
▁चिट्ठा 100
▁जथाभावी 100
▁देवदारू 100
▁निगरानी 100
▁पत्थर 100
▁पुनःर्निर्माण 100
▁प्रतिध्वनि 100
▁प्लेटफर्म 100
▁प्लेसहोल्डर 100
▁बिक्रेता 100
▁बूढो 100
▁मजबुत 100
▁मुन्द्रीहरू 100
▁म्यासिडोनिया 100
▁लट्ठी 100
▁लम्वाई 100
▁वीरगन्ज 100
▁शृङ्खला 100
▁Backup 100
▁Decrypt 100
▁animated 100
▁carbon 100
▁ffmpeg 100
▁minimal 100
▁molten 100
▁purification 100
▁stdout 100
▁verified 100
▁अप्ठ 100
▁काँढा 100
▁थैलो 100
▁नमिल्ने 100
▁पराजय 100
▁बदनाम 100
▁भाँडो 100
▁Vishnu 100
▁alleviation 100
▁mechanical 100
▁polar 100
▁अग्रणी 100
▁Expire 100
▁reckon 100
▁सेन्सर 100
esteem 100
▁slope 100
▁पाण्डे 100
▁hardened 100
▁harsh 100
▁गोविन्द 100
▁Uttar 100
▁blew 100
▁fax 100
▁overlay 100
▁राउटर 100
▁संज्ञा 100
▁Fear 100
▁flip 100
▁प्रसव 100
▁inspection 100
▁retain 100
▁गर्नुभएमा 100
▁herbal 100
▁उम्कन 100
▁Madhya 100
.245 100
▁Walk 100
▁सौजन्य 100
▁entertainment 100
▁multipurpose 100
▁उत्खनन 100
▁जमैका 100
▁मीकल 100
▁पुनर्निर्माण 100
▁prize 100
▁conclusion 100
▁Single 100
▁Paint 100
▁uid 100
▁retire 100
▁falsehood 100
▁Hotel 100
▁hatred 100
▁वस्ती 100
▁Alpha 100
▁महाभारत 100
▁पशुपालन 100
▁बिकास 100
▁जागरण 100
▁द्रुततर 100
▁गिरीजा 100
▁Mustang 100
▁strategies 100
▁Guide 100
▁थारू 100
▁पठाउँदा 100
▁Establishment 100
▁कोर्नुहुन्छ 100
▁compell 100
▁birthday 100
▁XSLT 100
▁सुम्बा 100
▁साठी 100
▁सहकार्य 100
▁${ 100
▁1975 100
▁playback 100
▁मोहोर 100
▁worthless 100
▁संयोग 100
▁२००३ 100
▁Review 100
▁विश्वासघात 100
▁उब्जनी 100
▁Filename 100
passwd 100
▁राखिदिए 100
▁रातभरि 100
▁chip 100
▁टावर 100
▁कैयन 100
▁संख्यात्मक 100
▁गाँउ 100
▁mmm 100
▁accompan 100
▁डेभि 100
▁जत्ति 100
▁बयान 100
▁बन्धक 100
▁२००१ 100
▁Bind 100
▁पारिदिए 100
▁Chakr 100
▁confuse 100
विश्वासिलो 100
▁Mountain 100
▁representation 100
▁छालहरू 100
,700 100
▁बाँचिरहे 100
▁communicate 100
▁चिनिन्छ 100
184 100
▁तोकिए 100
▁बजाइने 100
forge 100
▁Dhaka 100
▁भनिसके 100
▁व्यहोर्न 100
▁चोख 100
media 100
▁सुतिरहे 100
ridge 100
▁evaluat 100
▁Amorite 100
▁messenger 100
▁दर्शाउ 100
▁पितृ 100
▁introduc 100
known 100
operation 100
पोखरी 100
Teacher 100
Drag 100
वैद्य 100
दोश्रो 100
efficient 100
manager 100
राम्रो 100
अनुमति 100
दुई 100
Nepal 100
client 100
Whoever 100
बिक्री 100
sector 100
आईडी 100
▁चाहानु 100
▁चालिनेछ 100
▁Limit 100
▁पहिल्य 100
▁लम्ब 100
▁Prior 100
ntegrated 100
▁Abiathar 100
▁BIMSTEC 100
▁Bureau 100
▁Dictionary 100
▁Duplicate 100
▁Effect 100
▁England 100
▁Gershon 100
▁Gnome 100
▁Kontact 100
▁Manmohan 100
▁Permission 100
▁Saturday 100
▁Stephen 100
▁Wizard 100
▁applicable 100
▁circumcised 100
▁cluster 100
▁conclude 100
▁conducive 100
▁dancing 100
▁distributing 100
▁disturbed 100
▁emblem 100
▁enlarge 100
▁enthusiasm 100
▁glimpse 100
▁incorporate 100
▁independence 100
▁insecure 100
▁interrupt 100
▁jewels 100
▁mixture 100
▁negotiate 100
▁rainfall 100
▁reorganiz 100
▁scarcity 100
▁struggling 100
▁supervisor 100
▁testimonies 100
▁travail 100
▁अन्धविश्वास 100
▁अभिप्रेरित 100
▁आयेाजना 100
▁एल्काना 100
▁किशोरावस्था 100
▁गर्भपतन 100
▁जैतून 100
▁डढेलो 100
▁दीर्घकालिन 100
▁दुरुपयोग 100
▁नर्सिंगहोम 100
▁न्युनतम 100
▁पर्माकल्चर 100
▁पीजीपी 100
▁पुनर्गठन 100
▁प्लाण्ट 100
▁बलात्कार 100
▁मोजिला 100
▁मोटामोटी 100
▁लेबीयथान 100
▁शिथिल 100
▁सन्झ्याल 100
▁सामञ्जस्य 100
▁साम्राज्य 100
▁सुत्केरी 100
▁स्थान्तरण 100
▁स्रष्टा 100
▁हिन्दु 100
▁192.168. 100
▁Caesar 100
▁Client 100
▁Depend 100
▁Fetch 100
▁Intersect 100
▁Navigat 100
▁filth 100
▁spool 100
[...]
